01f9f9fa
01f1f1f2
021a1a1a
020a0a0a
01d9d9da
02121212
021a1a1a
01f1f1f2
02121212
01e1e1e2
01e1e1e2
01d9d9da
02a2a2a3
029a9a9b
02dadadb
02828283
02aaaaab
01e9e9ea
01e9e9ea
01d1d1d2
02121212
01f1f1f2
01d9d9da
02020202
01f1f1f2
020a0a0a
01f1f1f2
01f1f1f2
02020202
021a1a1a
02020202
02020202
022a2a2a
01f1f1f2
022a2a2a
02020202
01d9d9da
029a9a9b
037b7b7b
05e5e5e6
07f7f7f8
06dededf
03f3f3f4
06e6e6e7
08000000
06161616
03333333
02d2d2d3
01c9c9ca
02222222
02222222
021a1a1a
01f9f9fa
021a1a1a
02121212
020a0a0a
02121212
02020202
01f9f9fa
02222222
01f1f1f2
02222222
01f1f1f2
02121212
03bbbbbc
04b4b4b5
05252525
07f7f7f8
075f5f5f
05858586
05454545
058d8d8e
075f5f5f
08000000
05454545
04a4a4a5
03dbdbdc
02222222
01d9d9da
02020202
02020202
02121212
020a0a0a
01f9f9fa
01f1f1f2
022a2a2a
01e9e9ea
02222222
021a1a1a
01e1e1e2
02424242
03fbfbfc
049c9c9d
036b6b6b
04a4a4a5
08000000
06565656
030b0b0b
054d4d4d
02dadadb
06767676
08000000
04a4a4a5
036b6b6b
04b4b4b5
04343434
02020202
021a1a1a
02121212
02121212
02020202
01e1e1e2
01e9e9ea
021a1a1a
020a0a0a
02020202
021a1a1a
02424242
03ababac
04646464
04545454
062e2e2e
05b5b5b6
071f1f1f
08000000
05555555
03838384
05c5c5c6
08000000
07373737
05959596
06060606
04444444
04444444
03f3f3f4
024a4a4a
021a1a1a
01f9f9fa
02121212
01f9f9fa
02020202
01f1f1f2
021a1a1a
01f9f9fa
022a2a2a
035b5b5b
042c2c2c
04dcdcdd
07676767
07efeff0
08000000
06a6a6a7
05ededee
04646464
049c9c9d
036b6b6b
06aeaeaf
065e5e5e
07d7d7d8
08000000
070f0f0f
04545454
046c6c6c
036b6b6b
02929293
01e9e9ea
02020202
02121212
01f9f9fa
022a2a2a
01f1f1f2
02525252
03d3d3d4
03cbcbcc
046c6c6c
073f3f3f
06969697
06262626
06969697
079f9fa0
07575757
02f2f2f3
02bababb
03737373
07d7d7d8
07474747
06b6b6b7
06363636
06c6c6c7
06cececf
03f3f3f4
042c2c2c
04545454
02828283
01f1f1f2
02020202
01f9f9fa
02121212
01f9f9fa
02fafafb
05858586
03f3f3f4
06161616
072f2f2f
07f7f7f8
079f9fa0
06e6e6e7
065e5e5e
08000000
06a6a6a7
03cbcbcc
074f4f4f
076f6f6f
06363636
07070707
073f3f3f
07bfbfc0
06d6d6d7
05bdbdbe
03d3d3d4
065e5e5e
03636363
02020202
01f9f9fa
01f9f9fa
02222222
01e1e1e2
057d7d7d
05858586
05ededee
08000000
06666666
066e6e6e
06969697
06b6b6b7
06cececf
07bfbfc0
08000000
06a6a6a7
07efeff0
07676767
06868687
069e9e9f
06bebebf
068e8e8f
067e7e7e
08000000
05757575
05a5a5a6
06868687
020a0a0a
02020202
02222222
01d1d1d2
02e2e2e3
079f9fa0
05050505
067e7e7e
08000000
076f6f6f
07777777
06f6f6f7
06dededf
06bebebf
07efeff0
08000000
068e8e8f
07efeff0
08000000
06a6a6a7
07171717
06d6d6d7
07373737
07979798
07dfdfe0
064e4e4e
053d3d3d
07b7b7b8
037b7b7b
01b9b9ba
01f9f9fa
01a1a1a2
03a3a3a4
079f9fa0
056d6d6d
04444444
07878788
06eeeeef
06b6b6b7
06dededf
06a6a6a7
06060606
05adadae
056d6d6d
04444444
05757575
05656565
05b5b5b6
065e5e5e
06e6e6e7
06dededf
06a6a6a7
070f0f0f
04343434
054d4d4d
08000000
04ececed
01d9d9da
01d1d1d2
05151515
07373737
06b6b6b7
048c8c8d
03e3e3e4
06262626
045c5c5c
046c6c6c
036b6b6b
024a4a4a
01d9d9da
01b1b1b2
01717171
01c1c1c2
01818182
01b1b1b2
01d9d9da
027a7a7a
034b4b4b
03ababac
04c4c4c5
06666666
034b4b4b
06262626
07f7f7f8
05fdfdfe
024a4a4a
04242424
08000000
08000000
07e7e7e8
05ddddde
036b6b6b
08000000
04646464
01111111
01d9d9da
01f1f1f2
021a1a1a
02424242
024a4a4a
02121212
02222222
021a1a1a
02121212
01f9f9fa
01d9d9da
01393939
064e4e4e
06eeeeef
038b8b8c
072f2f2f
07efeff0
06eeeeef
029a9a9b
055d5d5d
08000000
07afafb0
08000000
07474747
02c2c2c3
06565656
07f7f7f8
02c2c2c3
02222222
01e9e9ea
020a0a0a
01e1e1e2
01e1e1e2
01f9f9fa
02121212
01f9f9fa
021a1a1a
02121212
01d9d9da
03c3c3c4
08000000
054d4d4d
04242424
07cfcfd0
08000000
075f5f5f
02e2e2e3
034b4b4b
07f7f7f8
08000000
07f7f7f8
05656565
031b1b1b
04444444
08000000
06a6a6a7
01d1d1d2
02020202
020a0a0a
024a4a4a
02424242
01c1c1c2
020a0a0a
02222222
021a1a1a
01f1f1f2
02121212
07777777
08000000
03b3b3b4
060e0e0e
08000000
08000000
07373737
03131313
01a9a9aa
03838384
066e6e6e
04dcdcdd
042c2c2c
04747474
02dadadb
063e3e3e
07f7f7f8
05d5d5d6
01c9c9ca
03434343
04242424
03b3b3b4
03030303
03ababac
04242424
033b3b3b
01a9a9aa
064e4e4e
08000000
05c5c5c6
03dbdbdc
08000000
08000000
07f7f7f8
070f0f0f
030b0b0b
01f1f1f2
02020202
059d9d9e
04fcfcfd
03f3f3f4
04bcbcbd
04343434
031b1b1b
075f5f5f
07e7e7e8
06464646
038b8b8c
038b8b8c
03bbbbbc
03fbfbfc
03b3b3b4
03838384
03636363
064e4e4e
08000000
077f7f7f
03ababac
06c6c6c7
08000000
08000000
07c7c7c8
06eeeeef
025a5a5a
01f1f1f2
01e9e9ea
05454545
08000000
046c6c6c
03fbfbfc
047c7c7c
03bbbbbc
02f2f2f3
072f2f2f
07d7d7d8
07bfbfc0
05959596
04b4b4b5
04747474
04acacad
05c5c5c6
07cfcfd0
07c7c7c8
07c7c7c8
03939394
05555555
07efeff0
07d7d7d8
07d7d7d8
08000000
05cdcdce
02121212
02020202
01f1f1f2
036b6b6b
07f7f7f8
07c7c7c8
044c4c4c
045c5c5c
04848485
02626262
024a4a4a
034b4b4b
041c1c1c
050d0d0d
04b4b4b5
04cccccd
04f4f4f5
04f4f4f5
04444444
03ebebec
02aaaaab
01a9a9aa
04848485
08000000
07efeff0
07efeff0
08000000
044c4c4c
01e1e1e2
02121212
020a0a0a
02626262
06666666
07e7e7e8
071f1f1f
042c2c2c
043c3c3c
046c6c6c
03a3a3a4
02828283
032b2b2b
025a5a5a
036b6b6b
04dcdcdd
02bababb
029a9a9b
02a2a2a3
01f1f1f2
03636363
041c1c1c
03bbbbbc
04bcbcbd
07e7e7e8
07f7f7f8
07070707
02f2f2f3
01e1e1e2
01e1e1e2
02121212
01f1f1f2
045c5c5c
08000000
08000000
06dededf
032b2b2b
04646464
04343434
06a6a6a7
08000000
05a5a5a6
042c2c2c
04646464
044c4c4c
061e1e1e
08000000
06060606
04343434
04646464
03ebebec
04040404
04bcbcbd
06fefeff
04dcdcdd
021a1a1a
01f1f1f2
01f1f1f2
021a1a1a
020a0a0a
02525252
05ddddde
08000000
08000000
05454545
03a3a3a4
05fdfdfe
07e7e7e8
07f7f7f8
07070707
05959596
04141414
05656565
075f5f5f
07e7e7e8
08000000
058d8d8e
03e3e3e4
03b3b3b4
048c8c8d
03ebebec
05353535
02f2f2f3
01f1f1f2
021a1a1a
01f9f9fa
01f9f9fa
021a1a1a
020a0a0a
03232323
072f2f2f
07a7a7a8
058d8d8e
03b3b3b4
07575757
07676767
071f1f1f
07474747
06262626
04f4f4f5
06868687
07979798
06f6f6f7
07878788
06aeaeaf
03ebebec
039b9b9c
03fbfbfc
040c0c0c
036b6b6b
022a2a2a
02020202
021a1a1a
02020202
021a1a1a
020a0a0a
020a0a0a
01f1f1f2
037b7b7b
07a7a7a8
057d7d7d
03ebebec
06f6f6f7
05fdfdfe
06b6b6b7
065e5e5e
06cececf
06a6a6a7
06969697
06666666
06bebebf
06060606
06464646
03d3d3d4
05353535
057d7d7d
034b4b4b
02525252
020a0a0a
01f9f9fa
01e1e1e2
01f1f1f2
02020202
021a1a1a
021a1a1a
01f1f1f2
022a2a2a
03636363
04cccccd
03e3e3e4
06cececf
06868687
08000000
07f7f7f8
07e7e7e8
08000000
08000000
07f7f7f8
08000000
06868687
060e0e0e
03cbcbcc
04d4d4d5
045c5c5c
023a3a3a
020a0a0a
02020202
02020202
01f9f9fa
02020202
02121212
021a1a1a
02121212
01f9f9fa
01e1e1e2
02323232
02bababb
037b7b7b
056d6d6d
072f2f2f
06aeaeaf
08000000
08000000
07c7c7c8
08000000
08000000
06969697
06b6b6b7
04acacad
03dbdbdc
031b1b1b
01e9e9ea
02020202
02121212
020a0a0a
020a0a0a
02020202
01f1f1f2
02020202
02020202
020a0a0a
021a1a1a
02121212
01f9f9fa
01f9f9fa
025a5a5a
02dadadb
04d4d4d5
054d4d4d
057d7d7d
069e9e9f
06f6f6f7
069e9e9f
05bdbdbe
059d9d9e
04d4d4d5
02aaaaab
02828283
020a0a0a
020a0a0a
01f9f9fa
020a0a0a
020a0a0a
020a0a0a
02020202
01e1e1e2
01f9f9fa
01f1f1f2
01e9e9ea
01f9f9fa
02020202
02020202
020a0a0a
01c1c1c2
020a0a0a
01f9f9fa
025a5a5a
02b2b2b3
02b2b2b3
02cacacb
02b2b2b3
02a2a2a3
02a2a2a3
020a0a0a
02424242
02020202
02020202
01f1f1f2
02222222
02020202
02020202
01f9f9fa
01f9f9fa
03e8c80c
055650d8
05d76868
0651fd90
06453da0
03455eac
049dc298
04144b90
020a926c
01055c0c
0065c3c0
ff1c3100
fe48a400
fcb6a500
fe569b00
fd068300
fb9c6200
fcc78700
fd6cdd00
fe6a4000
fb84c900
fbeaf600
fba2c700
fe472200
fd7b9900
ffc7a500
00647138
01fcbf34
0375a034
054baba0
0250baac
0112f15c
029a9cf4
0600f2c8
04c5c850
03ec0dd8
035704fc
0542a470
021219ec
017e6302
0060008c
037cd474
01ccf946
003c2e09
018bd7e4
01f9d8f4
01450e14
ff936e00
ffbcbd00
0070525d
0066ab6c
ffdc1400
02ab86ec
06a87358
06a818c0
03958264
ffd64900
fda35100
0187ae66
06fcf2d0
07dd6020
041f99f0
fa558c00
fdc21000
00a095b8
04241d78
0534e058
f91a6700
f9b76100
fb3db700
007a7d32
03b93860
fcd8d900
fb1e2600
fafe5b00
fbbedd00
ffd15200
feff2600
ffcce500
fff41700
fef9bd00
fe98d700
ff802400
ff4e9500
ff7dc700
ff480c00
00b4ee43
ff04e800
ff306900
fedcac00
ff8e0200
fe876900
fee36b00
fe9cf200
017818c0
fffac600
ffde9f00
ffae7f00
fee62c00
00094f0a
fea0e700
000a8c1b
fec10f00
01b5968c
fb99ab00
fb70a800
025054a0
06b6b470
0491c6a8
f8d7f800
fb89cd00
023fba88
05f372a0
0434cae8
f99b5100
fd798e00
021b93b0
075d4f28
016b39ee
fa045400
fceec300
04608c00
04408260
025ba94c
fd280d00
fee2d300
04ea4ff0
039f1e84
00b5f8e8
fc756a00
0265a688
032f556c
023b6b44
003ca1a3
002d0fb8
01f8b6a2
0151b7ec
0207aaf0
022ae9fc
ffc69f00
0052f06b
01b9f23a
ff38f900
ff7a0e00
fd03cf00
fd52a700
fe48fe00
fd9c2a00
fcf96e00
fd17d600
fd8f7400
fd017100
fd292a00
fc8ee500
fc451300
02a9c034
ffc83f00
006df75d
00428810
ff9e1400
ffa15700
0082a30a
009db65a
002c736a
ffb09000
001b3f21
00a73ce6
00424056
0008eefa
006a9a84
00775a72
ff664300
fff80b00
ff8c7100
ffaa9a00
0068ec94
002e74f9
ffcdde00
ff55a200
ffe2de00
ffd67100
ff6d6800
004706b0
006753a4
ffa88c00
fff18b00
ffe33b00
00248fec
00415dcb
ffb4d100
ff8ce200
ffc06c00
006f0e1e
003b7977
00746f9c
ff5b5c00
ff5d5100
0022fb72
ffa77a00
ff6dc800
0076467e
ffc5d800
ff699d00
ffb73c00
00811733
fff57400
ffd93b00
002ba8c1
ffa9e300
0006ed6b
0054933a
ffeee500
0087345a
ff989e00
ffadb900
0063fa1a
ff651100
ff73ec00
00080ba3
009e0be4
ffd58300
00430c03
0075bca8
00671594
ffe12a00
ff6ce200
00679fca
ff5cba00
ff9a7200
ffed6e00
ffaeb500
fffb4e00
0058e3da
fff71500
0014c621
0035913f
009e63f8
ff8dec00
ff616400
000885ab
0023a611
00997c81
0010b6d7
ff7a7900
ffd06d00
ffdf7b00
ff9ad200
ff9dd500
ff73f900
002fbe9d
ffb93100
ff830c00
ff629800
ffe86400
0043562c
0024c67c
000df74a
0021ecf6
0005074c
ffdc7100
0023ff37
ffca4500
00c025d7
ffa8e700
ffb74400
008bbd06
ff7b8300
ffeb7900
00304710
001efe8f
ff9faf00
006de07e
009c1be6
ff6fca00
ffcb5d00
ff5d6400
ffb33200
0023cd28
ff6d2300
0095456b
008f16e9
0060f539
ff944a00
ffd1ef00
ff9acc00
00670110
0020abcb
00493d78
004d1b9a
0070ceb4
fff2e000
ff860100
00290c16
007ed2ba
ff975c00
ffa0cd00
008fe6ac
0066f6fc
009e0602
003a3bbd
002ab62e
ffbbc400
ffc99700
001cf705
000b7d55
ffa0b200
ff89bb00
00134100
ffee9600
fff72200
00977a00
fff8d200
004c2aa2
0041d2ac
ffac7000
ffd1d100
008e5346
009b82fb
ff626300
0084d3c8
ffb6fd00
ff24a600
ffc83800
ff868900
ffd47200
ff6b5c00
fff70f00
007b73b4
ffe85b00
ffb69a00
fff4a800
ffb1ae00
00094fee
fff7c000
ffbeb400
00776984
ffd92c00
ff840100
ff690300
ffd7dc00
ff6e1b00
0007b431
ff6dd300
005c22fe
0080f504
00575509
ffe48000
ffea9d00
fff75a00
00abbeb4
ff231300
0026c528
001551d1
0064fdb4
ff892100
00144a01
fff34000
005a7217
ffe6d800
ff870600
0053c7b7
00495dbd
008373a0
ff4f6100
ff7b1d00
00899f3c
ffe22a00
ffb28500
00883898
001c6f09
00a1d0cf
005d671b
ffdda600
002b0a39
006a25bf
ffa6f600
007c3dc9
005cc7af
005e9cc8
009e40c4
ff08c200
ffa64800
006ea49a
0076e510
0066bcf0
fff2dd00
fffb2800
00b80239
ffb71c00
00405b65
ffb63b00
ff789800
ffa30100
0019c44c
0000f010
ffd31700
0045c5a2
004ea55a
007e07ee
ffa02900
ffc33200
000cfb7f
ffdb3d00
ffd3c600
0098532c
000b3e65
ffb7c300
004b2c48
0017a1b0
ffdce600
ff1d0c00
ff7c5200
00ee692c
ff3e2b00
ffee4300
ffd51100
004e93aa
ffbec400
ffe6a900
00a75711
ff403800
00546040
009ce300
ff699a00
ff640600
ff9de100
ffa62500
fff59500
0041a77a
ff794800
006d3abe
001ecb38
ffa49000
fff8c700
ff96e600
0074d90e
ff5edf00
ffbe0a00
00066670
ff8aa000
ffca8d00
ffd1ca00
0081e713
ff604b00
ffc53c00
0003dfcd
ffd2ee00
00643d2a
ffd4e200
ff787300
0094fcda
0081192d
ff9b4700
ff945900
00465f46
ffee8200
00a9644b
00782293
ff779a00
00849f2e
00043ae2
ff5f0a00
004677f1
ff613800
0096f3ae
005ba590
ffbb4a00
0077ef95
fff7ee00
fff35800
002a50d7
ffe2bb00
002dc021
00813287
005de830
ff39e600
ffd9f400
006e72f8
008b2b7e
ffb76800
0064c4a0
ff6deb00
ffc03100
ffd4c800
ffa9e700
006ef876
ff8e4700
ff920700
002e99b6
00742c44
005fe1da
ff8c8c00
009aa4fb
ffb5b000
ffa86a00
00635f10
00220680
00053982
ffd8bd00
0071e7ec
ffbd5900
ffafd800
0112282c
001233bd
002ae010
fff16700
fff17f00
00533e54
002482fe
ff3b8000
005f7aca
ff9b6100
008e0122
0054e7fc
ffbd8000
00350471
0018d68a
ffa9ff00
00325e0e
ffc96900
ff589400
000e9389
0083e466
ff558600
00673ce1
fff56700
00501254
00b5612d
ffd75400
0044be4e
ff73c800
00c8fa5f
00546a56
00412196
006bcf10
00817514
ffd8f700
ff5c5300
00775f74
ffbd7900
ffb92d00
ffa71000
ff55a100
ff9d5f00
0019b75f
ff9e6000
00aebb59
00985b09
0067da44
ff5dac00
ff6ef000
ffc19300
ffd62700
002081c6
ff9fe400
ffc28000
ff498500
00e76ec5
001a5e1e
008a63ae
ff783000
0007f66f
00774944
ffdc5400
ffcf0c00
ff629600
00105692
002aa1e2
fff55300
ff813a00
ff98ae00
0067b134
fffdee00
0001c0b7
ff40f300
0082c4c0
003feda2
ffdddf00
007c7706
ff585000
003d5ee8
ffa9d500
00bbe3f1
ffcd9b00
008eb12b
ffe69400
ff993200
00c2248e
0030d928
008155ea
ff23a200
0042d159
0046c58e
ff5d4100
00198be2
ffe66c00
ffe2c700
0096192b
00b738e5
ffb1f100
ffe9fa00
ffc3ca00
007e99fe
00720818
ffbebd00
004cce7f
001902ca
0075f11c
ffb53d00
fff9d500
006ea73c
ff4f1200
ff7f4b00
ffaeab00
ffea4800
ffa78800
ff516300
008a552d
ffdbce00
ffa41e00
fff6a300
00182556
00d13458
ffd59100
00385004
ffecd300
0036af40
00b741ba
007a78a4
005e9af2
006a8b00
ff855500
ff680600
000ad554
ff6e1b00
00225a87
ff663d00
00298d6b
fff5c400
00298f51
ffe34200
0090ff16
0091adc7
001950be
ffe11200
001c541c
00150e94
00253e91
ff773e00
00160b36
fffff600
0055258a
00673411
ff83c700
0087d3e8
0071b3a0
003e31d6
ff717500
ff99af00
ffe06300
ff670900
ff64af00
ffa2ad00
004bbee6
000a3ced
ff99fc00
0012b97d
009ecb61
00a6970c
ff872300
0041068c
ffe98600
00993896
00257de4
ff849300
00334a9e
ff314f00
0033cfee
0038addc
0044a196
001c3c20
00790bbe
001c1b67
00687f3c
ff7f0100
0050a05d
002d2ac6
ff99b800
ffa22800
0048a3f0
0040808c
009577c3
ffd5e500
ffef0d00
00002acd
ff670a00
0003cfd2
ff8f0000
00537455
002d2c68
ff72c600
ffecdd00
ffde7400
009a32ff
0031dc05
003d490f
0056cd77
00349a52
fffd2f00
0039ebeb
001daac6
ffe01d00
00576da2
000efde1
00901d29
ff77b800
ffbfbd00
001d569d
ff79b800
ff8edc00
00973dc5
ff783a00
006b51e8
ff99ec00
ff928a00
003c82fa
005b3376
0082b23b
0094bc0b
ff744e00
00317394
ffe7f200
00171d2c
ffe31800
00262c29
002f0e15
ffb22d00
ff7b1f00
ff565400
ff443200
ffdaba00
00328be5
00e5c769
005a6b4c
0030f394
ffae1f00
0037de8a
0030dace
00137ebf
ff900600
ff5a7400
ffb9ea00
00330e08
003aa850
fff30a00
0027f77a
ff750700
0067db1e
ffdd8800
0096a210
00997c0a
ff5f5d00
ff96cb00
ff749800
ff56d600
ff8ee300
ff86c700
0016851b
ffd76300
fff12c00
ff840500
ffd02100
007fbbd0
0052577e
001a7f13
ffaac500
001980aa
004539dc
0019db24
ff789700
00574f4c
ffee7100
ff9a3700
005cf458
00567e86
00939654
008e5db8
ff69e400
0034fb8d
003490e6
ff7c0e00
004b5ca4
ff918700
00923c84
ffc7f700
ffc8df00
ffc6ed00
ffa72a00
0077b9fe
ff67ca00
ffa77000
003a0a6d
0032d38a
001c7d00
ff798100
00924387
ffa09200
004495ec
00849db8
ffb3f900
00391717
008c71f9
0015b186
004e354f
007bbc16
00507ebd
00606212
00956240
ff8b2000
ffab8a00
ff680600
0095ba9d
004ac85d
fff0cb00
ffeb6700
ff6be900
ff586600
ff986e00
ff698200
0094a8b1
ff711e00
ff784900
ffee0c00
ff943300
ffdb8400
ffb06e00
ffd04200
ffff9100
ffc8bf00
00639bc2
00376223
ffe43400
00104098
ff914b00
000e21c4
ff57ac00
009f31da
fff8b800
ffbd8d00
fff2cf00
ff90fe00
00681d02
ffa34000
ffc04400
005d3e1a
00290c8c
005c8cb0
006213bc
ff8b9a00
fffb2400
00571fb6
fff18900
ffdf1d00
ff94a600
008d947d
00742c5e
ff9ea400
ffcca700
0016dbe1
004b2058
0018d592
ff7d3c00
0073f2d0
ff884500
ffcda700
00160fda
005b30ed
007950bb
009a1a4e
ff680f00
ffbe5c00
00a34e6f
003cea6e
0078980c
0010ea5a
ff714800
0017947f
fff77e00
006aefac
006034aa
0094b85c
ff621800
ffe19700
ff654f00
fffef200
ffa17200
ff9a3600
0057c394
005dee6c
00282d58
004b715e
ff901600
00012e5b
001a4aa4
ff5d1800
00267ed2
ffc7c800
009a02e2
005f494c
00162edf
ffa17200
00775a6e
00273367
ffa7e100
00a00217
ff5b5c00
003b745c
ffa23100
fff89600
00069146
001c87d0
fffc3600
0088fda9
ff994700
004435bf
0065e1a8
000e8a28
ffb70200
0064d1f8
ff771000
001b618c
ffd88700
0057d95c
00993600
ffc3aa00
005242c6
002de11c
ffa1b400
0079418c
ff8e1100
009cf630
ff6f9500
00abbaee
0073e683
00360305
ff9d1600
ffbe0700
00090b2f
ff829700
006d7b3e
ffb79c00
002fd4e7
0014a842
ffd32f00
004e7242
ffa2cd00
002b09dd
ff738500
ffae5c00
009339f1
001731a8
001131a4
ff72c600
00a032c9
ff910900
ffcfd800
ffadaf00
006a9538
005cb2ae
001947e0
004d6d19
ffcf3b00
00445ed6
0038d63a
008b0928
0010509a
00936c54
ffbd6b00
ff9b7200
002c237d
ff781500
ffc90c00
00c32ef8
ffed9000
ff838700
ff69e500
ffe4df00
003a7475
00077934
004e0218
ffaa8600
ffce1900
006ff718
00945271
007c1a4c
ffecd400
fff6c900
00395db4
00153819
ffc6ca00
fffce800
00606f58
005807cb
0049d29e
009ac28e
ff82b300
ff450300
004e2adc
005ed4d4
ffe49100
ff3c4100
00520e65
00d2a132
ffebda00
00648e60
0053284a
ff2c9a00
ff757200
0005654d
006b6a70
ff8fba00
ffb7ae00
00aa0d1f
00693618
000d0c65
ff85bc00
003daa0a
ff9d9000
fffb1800
008243e6
ffdd2e00
00a4a797
ffd35300
004e814a
0012de1d
003065be
ff694300
ff3a4600
ffb34800
00300fa0
006b8e1d
003cdc01
0090c0cd
000af34e
ffbab100
0088ae8c
00645df6
00a72710
ff8c7300
ffbe8700
003148d8
ffceb500
0082fd6c
fffef600
004fb0b4
ff95df00
ffd79300
001f92df
00520c72
0111f0c6
0053183e
ff2e8c00
ffea7300
00771048
ff6c4d00
003b64e0
00397b68
fff13a00
ffb28900
0067e97a
feff5600
0026ab01
0025c373
ffc84700
002213a8
ffaaa700
00180bf0
ffa64b00
00bef2cb
0047329c
003cf362
ffe4f400
ff5fe000
000cde93
ff093700
00392071
000f38d9
fff95500
ff9bd000
00285004
ffe16f00
0076e1ba
ffd9e800
005a1434
ff897100
008a2b23
ff9e5100
00280251
ffbc0100
001861a1
005d756a
0029c619
010eae58
ffd0be00
00b7a1f1
0015c74b
002c0c21
00579d12
ffe9bd00
ffb9fa00
007bed7e
ff861700
00aea494
ffcb9c00
ff859800
003c0854
005e3256
ff8dd400
016a7d66
009d9c88
ff8af100
ffaf0200
007ad084
ff668d00
00650f38
ffd2ac00
fffe9200
ff3f5800
ffd51800
006d257e
ff104500
00553e2a
00f5993e
ff04b000
00ef139c
ffd4e000
ff09c000
00101167
00b4fd09
019a9a82
ff95f300
ff73a100
ff315500
ffe59a00
ff554c00
fec0f600
ff8e8200
006f6ea8
0031b3fc
ffa3e700
0004fbfa
ff9cbc00
000d55e9
0099db21
fff72e00
0004f1d4
ffe7c400
ffef8000
0003948b
ffa90a00
ff7bc500
ffdfdf00
00dd6090
ffbeb500
ff435600
ffb8ed00
0086ce77
004b4348
008dfe22
ff4caf00
000561f8
ffc71b00
00b266fb
ffd28e00
ffa2de00
001969b6
ff421d00
ffa39a00
0069fa36
00e13021
ff358000
ffd2fe00
ff884500
ff937500
009079b0
ffd36f00
002ae973
00af0e1b
0022e05c
008dfbaa
ff988f00
00637063
0093642e
ff2a1d00
00c68569
00bed4ae
ffc87e00
00669be1
00fc2286
0181290a
00b66083
ff72ca00
fef70000
ffca3e00
ff5a9700
ff641600
ffc7d400
ff6fc700
00a2e1c8
ff69af00
00041e5c
00b6fcb9
0066306f
fff82800
005f14f0
002de496
ff9d1300
00e48c20
fedbf300
ff252800
005839e5
ffd5fb00
00bc8d2e
0005755e
ffcb6d00
ffab0500
fff95500
0043ee3d
005f3498
ffbad900
ffb9ca00
00cba141
0052892c
002bb565
006ca762
00602208
0014b8ed
0001da7f
00a4cd3b
00adc9cb
fefec100
0048b324
ffad9200
ff673900
ffffcc00
ff622600
ffdf3d00
00271422
0038575f
001e8fb1
ff2c4500
0041f54a
ffe44800
0054c30e
ffbf4400
00152a30
0026d94d
ff5e3600
00eb73ff
019727c6
ff473900
0021b632
feb0a900
003ef708
0004c303
ff7e4600
00275712
000f9b6b
ff656100
ffb9d400
0010926d
001bf523
0033571c
ff748b00
fff0f700
ff6c3d00
ff613c00
00ae67df
ffccd000
ffcef300
00b47ce7
002600ab
00c93626
fef90200
ffefb200
ff33f100
0012cc0e
000eb610
00638caa
ffef3200
004a6220
007e465d
00a8e0ed
00907e3d
ff294800
ffa14800
ff92d700
ff77a600
0041e13a
00d3a174
0038d90c
00ad5e27
0013dac0
000f71de
ff90e200
ffbb1000
fffe8600
ffa09400
ff83f800
008f8dcd
000a0c3a
0061e8cc
ffe00e00
0032a4e4
ffcccf00
ff2bc800
00605e3c
ff790d00
005d2078
0074ca30
ff827100
ffac4d00
fee1a800
001ff47a
0064f2a0
ff03f100
ffd5ae00
ffb4bb00
0072c8f7
ffde7a00
ffa5fa00
00a8c453
ffe5b000
ffa56a00
ff47db00
00177330
ffd88c00
00a15c71
ff98c900
ffa6fe00
00024708
00822aa3
0045ee9c
ffb6c800
ffabc100
ff170500
ff672a00
ff99a200
ff524200
ff77a800
000fcae2
00920c2e
006f0f7e
ff6d4f00
ffd5d600
ffaf4300
ff4f3900
ffddec00
0056faa0
005bc9b8
ff42ba00
0069242a
0008ed4e
fff3e900
ffe24600
ffa68c00
ff330800
ffa90d00
00376c53
00f9afb7
00833e30
00d15600
0077629c
ffa8e700
ffa94600
ff5cc100
003f24a0
ff50f800
fff82900
00588c7b
ff900a00
005ac0ab
ff39c700
ffd62d00
00c97796
00533c84
ffcea000
ffa0e100
00b5fb5c
ff861e00
008e143f
00704b73
ffe8fc00
ffdc4f00
ff6ce500
ffd88700
001b91f7
00463aaa
ff38c100
ff8efb00
007abfa6
007e6101
00f5ad86
ff7f1300
fff18500
ffc1d600
003bc590
ffb1bb00
ff997700
ff412d00
ff747f00
0075284e
0061bf32
ff918300
ffb58f00
005fb772
002f2a41
ff7d2200
ff62f400
ff76be00
ff8afe00
0142a5ca
0042a126
00215bbf
005c8b74
ffea7300
00517d95
fff54200
00418c9e
ffe3d000
ffe38900
0039d54e
009a70c1
ff826700
00479385
ff521e00
fffd2c00
ff5fbf00
ffc4c400
ff736200
002cf65a
004499c2
ff94ab00
003e6606
00b5caa9
ffaa8200
ff897100
ffad4e00
0009a7d1
ff905800
006ba81a
0085b9a1
00743e86
002bb012
ffb43500
fff90500
ffd47d00
00bf757e
ff927b00
ff181700
0146e4e2
ffdeaa00
ffd29300
ffa2f700
ffc7e500
ff88a100
ffdfa200
ff973100
0010dcea
ff08ce00
ff516500
00af3e17
002d0a57
0020bc3b
ff941500
005a4a34
004d4cbe
ff917600
ff156100
ffd22c00
ff72d400
00a7c744
0077ba70
006e65ea
ff97a500
00975c1f
ff801b00
0052ad3e
ffe67000
002ff75b
00f93c25
005177be
ffd56b00
ff33da00
00586b44
0005e6a9
0008759a
0004d61c
ff7d6d00
ffdc3f00
fffb0700
0082f9df
fff2b500
0056d034
fff84000
ff8ce000
ff5d9100
008ff4f5
002e7e05
ff64e400
ff73f300
ffb5f500
ffdc4000
004bf0b0
ff8e7800
ffb0d700
004c4544
000cc8e4
ff441400
ff912c00
009d156d
008fbebd
ff705c00
ffcc5700
005ec1a8
005e9fdc
ff686a00
ff5f9d00
ffedce00
ff6a3900
ff8d4d00
fffea800
00614302
006a2312
004d83c2
ff7fc400
ffdf2a00
006f5d60
006ad5a1
ff4ae800
005aed3a
007c1842
002d0626
fff3a000
ffa9c400
fff94d00
00644cfe
ffc8c800
001103c7
006aa726
ffaa3900
005f2880
ffa64600
ff4cc700
ffc19600
ff578800
006d4854
000bce2d
006580ac
ffd3d300
00177086
ffa42500
0027c78a
ff755300
00151b4c
ffe2f700
ffe03500
002f59b5
0019f7fc
0074dda8
0081b9a1
fff6d600
0061a76e
ff7c0100
ffa6e500
0031caea
ff917b00
008a1885
ffb02800
ffc64700
ffa7e300
ffcaf700
ffe7a400
006718ad
ff8fe400
ffa7b000
ffc48f00
ffbaf300
005eb884
ffdf7e00
ffbd9900
ff938800
ffd49000
fff22100
0046200a
00225fa7
ffc41100
000860ee
ffb10100
ffb26500
ffe7e700
00113859
ff73b300
ffa7af00
ffe0af00
001a79ec
ff927700
00484e10
0075d95a
005e9c70
ffe25a00
0028f605
00511e44
009be134
000633b7
ff6c4700
ffde2b00
ffca2800
ff5b2100
00511906
006eceb5
00856ece
00508748
008857f5
ff43a900
ff9a3c00
00564d2f
ff620400
ffc15400
ff668200
001c1f1d
008af5da
fff72800
001ade98
fff61c00
ffd68300
0075f134
fffd5a00
ffaf8200
ffee2a00
fff3e300
ff70ca00
ffa1e300
0072d924
002fc44c
00355404
ffcdef00
007330ec
ff663200
ffde2a00
ff8c0700
ffc40e00
ffab1100
ff8d1a00
ff8cb000
ffcda000
00617473
00a81bfc
008afa68
00cc1f86
00a925b9
ffa36c00
ffb87f00
ffc8ec00
005dba38
006512cf
ff83bc00
ff830e00
ffe9e900
ff6cc600
ff928800
ffb51800
006938f2
ffcad500
0001f023
ff5fee00
008218c7
00404d24
fff50400
009ddfb6
009994cf
00361005
00090c64
001b32cc
ffe6b200
ffe7a200
ffcd4e00
ffd81900
ffb87d00
ffe73800
ff5e3200
00141909
00100084
000d585e
003f2cb3
001e077f
ffa6ba00
007d024a
fff02b00
003e300c
0025141c
003b4451
005033fa
00617b96
000d906d
ffeb7400
ff627d00
ff92fe00
002e6e63
00835c9c
ffb8e100
ffe97d00
00941509
00a3329b
004ea649
ff585f00
001b3662
006d13c6
ffb9e600
00d8d86a
0013adc5
ff759f00
ff1c3d00
00ca2a60
ff844400
00360bcc
ff583300
ff573500
ffd48f00
ff7bf200
ffd32400
ffea8200
005a6954
0038c254
002a5bcd
0058cb7f
ff256a00
ffea7500
004b5861
003a600d
ffe41a00
003b3fef
ffe04500
015bb0ba
ffc2de00
fe7f4d00
ff71c300
ff678300
ffbe1600
ffa9d900
0071b164
008f2d1f
ffa91800
ff69d400
ffd62e00
ff7ac700
007e7ef2
002c19ab
ff37d500
ff39e000
001feb33
0158ea02
001e2646
ff9fed00
ffa60800
ffe82f00
ffa11200
ffa3f500
00102e76
fffda800
0003ba93
ffb3fd00
ff97b200
00a10160
ff979600
006d9df6
00487358
ffd52f00
00e9c2a4
011c1b8c
00375215
ff432700
ffb1e200
0038fa07
0055fecb
ff8ee900
ff8db100
ffbcc700
00248bc1
ff8efb00
ffc0a900
005b50ce
003f0143
ff742a00
ffbe5500
007d086e
0012e3ee
00afa87e
001e4406
00c88370
00f14d12
0004f4b6
ffd8eb00
01d1edae
ff4cb300
fe3c3300
0018b76b
ffaa5d00
ffb6ea00
005e4d8a
ffb0b700
ffefbb00
ffa50c00
000ebf72
008c0dc7
ff7d0500
00926ea0
ffb68a00
ff2e8300
ff756f00
0099a2ee
006d6132
00e7c13b
ff545500
ff4b6700
ffd85700
0026cc75
ff865d00
ffbdf800
ffb6d800
002f6119
ff9d3b00
ffa7da00
ffe66700
ff7ec200
005ba24f
fef7c900
fec5c400
011bab2c
01686372
fef1d900
ff026d00
fface400
00de3977
01094eb4
00f3cebe
002f94d6
0048d5c8
ff15a700
002d721a
00408a00
0073517b
ff312300
ffd26500
00247f82
007d0c98
ffa32200
008d28a8
00e83f38
00723cce
012f6c76
ffed9800
fe94c100
01db85a8
ff444000
fed54100
009778a1
0093cf15
ffc60d00
00517282
00696fb0
ffc37700
002a53dd
ffbe6a00
ff7e9b00
ffa80a00
fff8cf00
00fa87eb
ffd99e00
ff9e3d00
01daf2aa
00a923f2
00a5c8e5
009f4589
0063cd0a
feb60500
ff7c0c00
ff41c100
008155e8
ffb55300
ffce3b00
004059ee
0051a1f2
0075c58e
ff16b800
00747dc5
0032061b
fefe6900
00571d12
004809f8
fecbe200
001b556d
feddea00
fff20700
013debec
01625fb4
ff9a1e00
0088223f
0051a97a
00a3ae8f
ffa29e00
ffb41f00
ff910d00
ffbdeb00
007b64f7
00ac5567
002821c9
0032613c
00d0bffa
00cd5a2c
00055ab3
ff31b000
fe4e1600
00e31980
ff740d00
ffef1300
ffc8ad00
002f80d0
006fe1a1
ffb79900
ffdba100
00289443
fff0c700
00524dc0
ff31bb00
ff82bb00
fffa2d00
00f2f606
ff1afa00
fed79b00
02dc9ed4
fef32c00
0067d342
ff97ba00
ff5fa800
fed0fb00
000b4294
ffa16800
007e3367
ff373000
ff700900
00db252a
ffdc7300
00622492
ffe4ff00
001b9e2d
00a5647b
fe8e2800
fff27100
ffa61900
fec0f700
0114e83e
fff15700
001d3496
00c022cd
00b53a5a
ff948d00
ff983100
ffbd7900
0076c398
ff656e00
ffb8d400
ffc8f500
ff2e1c00
016e4ece
ffd0ab00
00b24d45
fed10600
017fe7d6
01967afc
ff4def00
ff619d00
ff118e00
0116fcb4
00b0967a
00c6c930
ffdee400
ffeefd00
00217667
0016c3c8
001be333
002577c1
0051d8e3
fff37200
ffd09700
ffa6bd00
008378cf
0163b1a6
004da33e
0002a984
02e03b10
ff456600
00c9a45d
ff9a9000
ff611700
fe40a600
008eeab7
0059dd50
ff7d4e00
ff149f00
ff083c00
00c2c878
005e915c
0074669a
fe93d300
ffa2bd00
ffbb0100
fe564f00
fff0d700
ff5abf00
ff4a7300
0103daea
012ea694
fff25500
0000b7f7
002def55
ffcfee00
ffefff00
001bf9da
00551d5d
003d7a7b
007684c6
ff55f700
ff595800
0103f644
00ddc770
002b1e9a
fe203700
01a2d41a
005b3f7a
ff238000
0042090e
fec81e00
ffc2a600
00bf5ab3
008d7953
00613a8e
0060cb92
ffce3200
ffe83c00
00693590
ffa66500
00773bf5
00413f28
ffed6600
ffb08d00
ffd59300
017c4fae
ffda1b00
0093d9f4
02588a10
fe3f8b00
ff2a6200
ff9d7800
003527ee
ff0c8300
ffcde300
010d9b26
ffc85200
ff80d000
00482cdc
00e3db20
00a312e4
00bc684e
ff0c5f00
ff90b500
fff07500
ff48ef00
00047b11
ff6a6100
ffc37000
006bd4dc
00ccf72e
ffb35500
003fbec8
00758998
ffc5ea00
003394b9
ff53b900
00c23e00
001e9e8f
00386252
0042acb5
ff9e4700
ffbdfa00
004aca64
00ea1634
fe874b00
012c8614
ffe06600
fed2ab00
ffb63100
000a0b38
0021f5c6
002d222e
01301576
006aef82
fff9d300
ffdfae00
003a6b6f
009066e7
006943a4
003b055e
ff85e700
ff560d00
ff7da100
ff97ad00
014020be
ffd9e800
00b20e62
0177f7b6
fe3b5a00
ffbbe300
ff849c00
ffcca800
ff723f00
ffe57200
00160333
000124e9
feecf900
007f5806
01e466a8
ffcad200
000fdb86
ffc3d000
ff8d6200
ff743800
ff90c500
ffdef300
ff098500
ffebbd00
00e02fd6
009922a0
0035d849
00ab09fa
ff35b700
ffdad000
008e3726
ff5d2500
009576ef
000a6d87
ff9f7800
ffb17b00
fff40b00
003fe382
000a1911
00aba7db
ff899c00
008f6266
ff93e400
ffdba200
ff823200
004f5d0e
ff6d9800
01341488
002990f0
0036b3df
ffd74c00
ff977000
ff63d100
ff75dc00
ffe93100
ff7c8c00
0059bc16
0037c092
ffe89c00
ffa3ca00
00499318
005febc4
00b90a8f
017d5bc8
feaf4700
ffa58d00
005769e4
ff4ed800
fecaf700
ff844f00
00479b68
ff894400
ff47f900
0013c85f
01d71a4c
fff62300
003ca31a
ffe60400
005431f4
ffdba500
005f8284
ffa35600
ffb65f00
fff92400
00aaea36
008e8283
ff6afc00
fff5c100
00203c15
ff9a7700
fff4ad00
ffee8300
ff501100
00e34497
ffffa700
00544b50
ff86e200
ff57f300
ffb3cc00
006da9af
fff87100
ff099d00
ffb1ee00
fff2e000
00b66714
008651f3
fff77a00
009b6c4d
000e1f0b
003e7afe
ff940600
004214e7
ff969900
006cac46
00a5c9f8
ffa9cf00
ffb16200
004528c0
ff50c600
0071a9e4
00a6ede3
ffebdb00
ffb2f300
01d6f1c0
007cd76a
ffed1a00
0055a0fc
002f6d94
ff601700
ff2b4d00
000aa46e
0045b862
ff704900
ffb0db00
008fc745
00a304c0
008de95a
00736287
ff68dc00
ff57cb00
ffdd0200
0006dfb1
005d425e
0027bb6c
00573c84
ffe1ab00
ff5a6b00
ff924900
ffdaa900
ff4cea00
ff620400
ff52ad00
0078f0ba
005c0cd8
ffd5c500
0048da00
ffb81d00
ffec3d00
ff49d000
ff45ff00
fff44c00
005f45ba
005870fa
0094a441
002abc12
ff901600
0091ef2c
ff701300
00560d3c
ff5ddc00
0056bde2
000b9752
0083d1b9
ffc0b600
ffd52100
008d1d67
ffad2b00
ffd26b00
ff8d6e00
ffdfcb00
ff99eb00
ff9af600
ff83fc00
ffb4c500
010312ea
ff6b0e00
ff89a300
005a46c5
0023dd69
ff9db300
000c52bc
ff5a5c00
0053df2e
ffdd3b00
00fec5b3
003f7852
ff852b00
fff59c00
ff633e00
00504d04
002f171e
00183e7e
006207be
ff90dd00
fff49900
ff9c9000
ffd31900
008b5e8c
005e819c
ffa26100
fffeb800
0096e157
005456fe
ff967300
ff869400
fffbdc00
ffc50c00
ff416800
003d5bd5
fff9f900
fff0ee00
00a6f381
fffa5500
ffb12c00
ff691500
ffb76200
0058291e
ffca8900
ff459200
0085e2f5
ff7d8b00
00956423
ffd3ba00
ff889600
0043a5be
ffe4bd00
ffcd5300
ffabdc00
ffb05b00
ff3d2000
ff6ee200
000cacd7
0024c13d
ffb0d400
000d0866
ffc67000
00c4995c
004e491c
000f5df6
ff94ca00
ff8ad300
ff7fd500
002df69a
0091f731
00812832
ff5d1b00
ffd2a300
ffb0f700
005aea37
00669276
fffe1a00
00490d20
00f01e3b
ffd06200
ff1ec800
ff30d500
fffb7100
ffbe9100
ff495a00
00260de4
ffa2c900
ff70ad00
006080ea
00c3207d
00529d06
ffdf8600
ffd7d800
00231eb7
0008611b
ffcfc100
ffe9ea00
ffa2ea00
ffdbac00
006412e0
ff8b3100
ffb11a00
00ed80c6
ffddbe00
ff53b700
ffbe8d00
ffac5d00
0084ced3
0055d980
ffd69700
006fc60a
0066012e
004077b0
ff766100
0047aa80
ffb3bc00
fff5c100
ff945000
ff005700
0040a5cb
00c4a9bf
0023a3ec
ff8fbb00
00733fe7
fff60c00
fffe6500
00bc4e93
ffadd400
006e9ac4
005f8af6
ff6abe00
000f5bad
ffca7100
007e6cd3
ffdcd900
000a4e2c
ffaae800
0015853c
00860c95
ffa6dd00
ff5d4f00
ff832300
ffcb9100
ff987600
ff884e00
ff781100
ff9a5400
ffbd7200
00465d6c
ffce0900
00340efc
ffb79800
006484de
003f0b2b
ffdd7b00
ff79ad00
0020609c
ffcd3b00
00235e5d
001a8926
ffd74200
00580de2
01ab262c
fff88000
fe824f00
00148148
ff8b4f00
ff65bb00
0025c045
ff795e00
fff96800
ffcce300
00400500
004c8b66
007430db
007e4deb
ffdcfc00
fedc4100
fe995700
00928667
010fa036
fffb4200
ffba3300
00e8c9cb
ffeed100
ffc40100
007d4484
00838278
ffd2da00
0072d1e8
ffeb9700
000e8e93
ffb9e100
ff237f00
000c754f
ff559600
ffc6f000
00ad72f9
01bc85b6
ffbec700
fefc4000
ff1aed00
00afbaf0
ff5b8400
00289373
00316b3f
ffcb4300
ffee1300
ff917c00
ffc00e00
ffe57f00
ff529000
ffedc400
00332d89
0052546a
0031a7fa
ffd75800
010400b6
005abd85
0029059f
00c2195d
ff80ce00
01b68762
00028df2
fe86e800
ffc99100
00a3145b
00a69979
008a4b5a
ff6d6a00
001d8ed3
ffce9300
ffd11700
fff4c300
ff773100
00150558
ffa10900
ff8ec500
fe9e8800
01e12a36
006373e7
0046f000
ffa41600
0025c22e
fffb7b00
ff926a00
ffd29500
002178a3
003a5233
0041c298
ff1e7e00
001a638d
0045e5a0
ffb78d00
ff6bce00
ff8a9e00
ffb63200
008023de
01766bc4
fe1d0200
fec10b00
ff604200
010cf7e4
004f1d1d
011824a8
005c37c8
00023f9e
002369ad
00307dd0
ff915800
ff9fa600
ff1c2b00
ffd8b300
ffc29000
006a1b93
006182c9
ff2bfe00
fff3f400
ffe86f00
ff522e00
ffb91400
fefd7600
016b7f8a
ffc8e300
ff009600
0092c3cb
ff9bf300
ff6c6900
006c18ac
00118a0d
00287286
ff797d00
ff71b100
ffa33500
ff726d00
ff835400
004c6438
ff501f00
fedd9500
018ce66c
003cf289
fffc0500
0033fbc8
005dc95c
ff792b00
006182e2
007c262a
00bef3c1
fff00800
002588bb
ffac8100
00923b10
00ce2d9a
fe7bc400
ffeee500
000eafe9
fe659900
ffffe400
01e62184
fdc63400
ff457600
ffc14300
00b8955e
00a24d8a
01e4410c
007fb187
0049ec42
00c9a2b2
009b38b5
ff26fe00
ff905f00
ff856c00
ffd1e400
ff480000
0218daa8
005d1b80
fffd8100
01178aa4
00d64dd9
ff39d900
007571c8
fea5bb00
013d87c8
00a562d9
ff7e7500
ffc77c00
005618a4
ffdf9200
004af8a8
fff85900
00390ddb
0090169b
ff7ca500
004e5e3e
ffe12200
001d44ad
fff28f00
ffd3dd00
ff663b00
021eb9bc
ffa32700
0070a1e2
00086c2b
ff9fc600
ffa6c800
ff961600
005c656a
00751ebb
00a2ba29
00bd94d8
013706cc
002ad272
006bb2fe
ff632b00
ff1ceb00
ffe84300
fea52700
00673222
00af0991
fd99e900
00abf15d
ffe7ea00
00b606f4
0015aa6e
010e8a6a
00db363d
fee8ab00
003accaa
01352350
ffcb5900
ffd76100
fedf4e00
0051fe8c
ffe6ce00
015e9258
0020fd2e
fefaf700
0178955e
002ee92a
fecd4000
0091c630
fe47e900
009662ee
00d8394f
0194149c
00633a2f
ffe80100
007f1c8e
009524ee
ff612900
003ced1c
ff792c00
009be9db
0014b61a
005af1b0
001260fd
00a8ea0c
ffb77700
ff2a2100
0243ceb8
fdfca600
fef6e100
000f3f97
ff449800
ffbbe400
ff734e00
00a4d8c3
ff8fcf00
0024352f
0077897a
008e5252
00bd5f10
ff9c6900
ff839100
ff6e3f00
ffcca400
fe8e4800
fffc7a00
007f92ca
fe166800
00cce47f
01752204
00ff0eb8
00d8c9dd
00fe9e3b
00a8d93e
ff288700
ff376000
007c0802
fed98300
000a3483
ff2cf200
00627a89
ff347300
014a9f12
011408b2
fe538200
00e1b423
ff930f00
fe5cfd00
01a42f00
ff16f900
00ee6f37
016c853c
012f3a92
00a64294
004c50d9
0084b32e
ffbf1e00
0040dd2b
00788dc0
00953933
ffb14100
0011f7a9
ffabd400
00931d8a
008e3277
004dfc4e
ffd59400
01d737de
fd131400
fec6ce00
00b52f48
ff4e5600
ff1c2d00
ffc88900
008d0dd3
ff056e00
002922d8
00642293
0109b3c4
0073d73d
006f43bc
ff694f00
ffa82600
ff0b8600
ff3efc00
ff28c500
ffa58b00
fe9d6b00
018ee49c
01107180
010108de
00bb665a
0044a99f
00dc7e4d
003a3f50
fed9dc00
008250d5
00020099
0031d085
ff197800
00a75f6e
002b4655
002cd7b5
00c3089b
fec52c00
0119e166
ff920500
fe296a00
00619d62
ffea2c00
00378be8
00c24ce2
01f34464
008c8f09
ffc44600
006e203a
004f98cc
ffa94600
00376a26
fff9b300
ffef5200
ff8c7600
ff964200
ff9f3e00
00ecac31
004c0910
01589de2
01602fc4
fc634300
fec6b600
00a6a3e9
00217f40
ff924f00
ff8a7700
ff594b00
ff6c2c00
ff8a9a00
ffc09a00
01b27378
006e9ca1
00ffe6cd
ff69db00
ff139c00
fffed600
ff903600
ff92dc00
ffd56700
ffaf9500
02218c54
00ce73c7
ffa8fe00
ffe22b00
ff620e00
0052f7b2
00837fea
ffc82800
ff56d700
fff8fe00
ffe5c200
ff832200
0017297f
0020a39c
00edcc75
008aeece
fe875500
ff958b00
ff245100
ff50e000
ffd8db00
0006b466
ff516200
ffdbe600
010ffc26
006ceb55
0067dc82
ff903800
00319e45
0025839c
000ed468
00a64e49
00555d84
006d8015
ffef6600
00abfa75
009741f0
00d23d42
00d28705
01348602
fdfa8f00
feae8400
0127f71a
0035e8f5
ff8e1500
ffce7f00
ff60a200
ffcb5100
ff378b00
0026c36d
00ff6e4c
fff76300
ffdc9500
ffee8400
ff58c600
ff48f000
000541c2
ffb92300
ff7fe900
00465837
00f1e5f2
010080fe
ffd04b00
00b45feb
fffa4e00
ffb51600
ff6ae300
ffcf0400
ffcad600
0031d693
ff7b2600
ff284a00
0026a3da
ff95cb00
ff737f00
00e02f96
001f898c
fed69200
fe81fa00
000888ad
014160f0
ffe22c00
fef0b700
01141a98
00506d08
007390f1
0044d3c8
ffc9d300
ff5e7500
001fda26
ffa91c00
006e5638
ffcf1c00
007949d4
007b9008
0076a837
00295600
002d208f
008f0899
00385431
ff22b900
ffa60700
00289d92
00d95fd8
ff7ebd00
000ad998
ffd51a00
0056149e
fff28600
ffe0e700
009a36c0
00cf0d6e
ffde4900
000889bf
00431a04
ff7e2300
ff5d9000
ff5a8a00
ff72e700
002c9e25
00700908
ffc5b100
007bc74c
ffc0de00
ff3f7200
ffe2c400
ffb68900
ff6fbb00
0060141c
00c50c4b
00372ecc
ffbd6300
ff71b900
0004e1a6
0050838a
ff3a6600
000b3ab0
ffba4000
0025d63e
ffb73000
009fbb57
0013b0ea
ff6c3500
00a4a224
ffbf0f00
0014ad4a
ffc4ff00
ffaedb00
ff88b200
ff5d5a00
ff79a800
000224a6
ff84e600
003f5aef
ffe36c00
ff49d800
0058886b
ffeae400
00488f4c
ffb9df00
00847204
ffb3f500
ff73a200
ffa74400
00404af7
0075cbef
fff67d00
ff7dfb00
ff98fe00
00c919b4
00e4d050
00a1efa1
00435271
ffadc800
ff3d6b00
0092d98b
ffa66c00
ff9a4400
007f261c
ff654600
006f1dd6
ffe59600
00a98009
002ec2c4
ff81aa00
0025c057
00636dee
ff8f7100
00417baa
002ee722
ffa37900
003ea152
0049ab0a
005feb64
00832508
004cf8c4
ff84da00
00add55c
0094587f
00778b4a
ffa17b00
ffdab400
fffabb00
0094755f
ff764300
ff880400
0081eb60
004a27d0
ff4e2100
ffc4a700
ffe70c00
ff91e300
ff8c7700
ffb94500
ff5add00
ff406100
ff6e6c00
ff8ce800
ff624600
ffdd3c00
ff639100
ff785e00
00adc577
ff9cbf00
ff852100
0030938f
002dfe3c
0012473c
00466114
ff9bb600
fffc3300
00148e6c
0019bdcf
ff728e00
ff4dfe00
ff6f8000
001ff632
0022fb4a
006f0139
0029dcbe
fef74800
ffc96a00
004fb394
ffc9ac00
ffeb9500
0070a198
ff853d00
ff273e00
ffb53100
00470823
ffbe6300
ff81de00
fffa4700
fffba000
fff08700
ff747f00
ff51f100
0077c376
ffa8ff00
ffbdf100
0023aa74
003ecf26
006969b0
00484e12
ffe9da00
ff9a2200
ffafb000
ff897d00
00174c81
ff5b4500
006ca753
0072c344
ff6a1600
002cb707
001a64b6
00896eaf
ff479800
fecf9d00
ff775300
fff39400
ffcba700
0002e3cf
ff27f900
004c3228
00e9f2f6
003fbe70
ff8d7800
004fa9f8
00909d65
0034dd42
ffc5bf00
ff71c900
ffb8d900
ff80be00
ff716500
00438871
001f5272
0163863c
01636b1e
ffbced00
fef5c800
ff5c6f00
00783e24
ff595700
001ad5a4
ffd7c000
004944ce
0027d761
00aa610a
00ab2238
001ada3f
ffb8c100
0078ad9b
ffedee00
009bffeb
ff7e6e00
ffebad00
ffaea500
ff8ab800
000e333d
00980517
ff70dd00
01244230
00441f88
ff485d00
ff786100
008ee159
003e6824
00609410
00691c26
ffe15200
ff84e200
005a9a5f
ffdacc00
007f5512
00129a74
ffb9cb00
fe42d100
fed5d000
010c8872
002ffa66
013cb2ae
fee20100
ffd73000
00ac821b
fff20e00
000bd8a0
00563a3c
006c9938
0058df02
ffdfc300
0076b9d8
ffb12a00
ff6fa800
002c3b82
fffefb00
00525a6d
00d741b1
0258d7d4
ff379000
fed32a00
ff283800
011e567e
ff4d1c00
0013d29d
ffe06a00
006bfe86
ff454800
ffec1d00
006a44d5
003720e9
000b9f95
00d6dd2d
ff2af900
ffe53b00
0034b542
003f15f4
fff76200
ff3f7d00
ff85e200
0064441e
ffc1a700
00ee7c2d
0163ecb0
ff62cd00
ff9cee00
009b658d
ffa15800
ffa38e00
00500850
ff9b5600
ff5e9900
ffe06300
ff93a000
ffc4a500
00072e76
ff11a200
febde200
febaf600
00d79b45
ffc07200
00a2e79c
ff167100
00015897
00df11c3
00919a3b
001fcd72
ffd4b000
0031226c
fff33a00
ffbbd900
000be6ff
0084d8f4
ff747a00
ff8a9100
ff579900
ff671f00
017c6dc0
01ccfb38
ff9d5b00
ff30e000
ff911100
004f5377
ffa41500
ff873700
0085accf
fff13e00
ff6a0600
008268e6
ffa0ef00
ff6ebc00
ff1a2600
007483ea
ffd2b700
fffdd700
ffac5700
ff331c00
016ac586
fe486200
ff2cc800
00469966
fea03a00
01061f6a
01efb52c
005ef272
ff642300
ff7e5300
00354ded
0098f967
0035b936
fff89b00
00126f22
00547dc4
004eda24
ffe5b400
00850727
ff781100
ff40dc00
fe8bbc00
01899604
0036a748
007ba493
ff0f8500
ff445900
01202caa
ffd73a00
ffae4000
007c9148
00a6f63a
00ab1a31
ffc9bf00
000f500a
0083079b
fefbb900
ffcb3100
fffe5500
ffb4a500
00809be8
0224cd70
fe3bee00
ff109300
ff56d500
00e38d15
ff8a8e00
0043237f
0027f7a0
00ae9371
ff082a00
018bd45a
fea27500
fed99200
feae8800
009344ae
ff366300
00e6b32d
ff828e00
ffe70000
0172da68
ff16d200
fe649600
0114d542
fe1ff000
001127f5
02b27c74
00674860
ffa29500
00861e48
ffc39100
ff831400
0030a044
0091d022
00677d14
005ca312
00127c04
00408350
010a3cd0
000af579
ff801400
fe81bf00
005c09f8
ff596300
00189823
ffa38900
ffb3a700
00ab1450
ffd09100
ffcaf400
00cd9043
00a7aad8
002e7556
00b80161
009d1472
ffae8900
fed12300
fe9b2d00
ffcd4000
ff7f4700
004dba24
01547b70
ff591500
000d313e
0004a635
0100dfa0
002ef191
ff7f5300
007137dc
0088215c
ff752b00
00bc9609
ff865500
fe67ff00
ff06c700
00b68263
ff388a00
00de9648
008b661a
007500a2
00e02ab7
ff0d5e00
ff7e3600
00c9d382
fd39b900
00e9015c
01443008
ffea0d00
ff807800
0063a104
000c5894
000e8ec5
ff7b9300
ff872a00
fffce400
ff7b7800
ff7a8000
ffa55700
00325bce
010d1d6e
002d8099
fea4fa00
00ece7f8
fe7c1500
ff37a900
00b715be
ff87db00
0044d5d2
fee4c000
0098b2ca
ffe6f300
ffbf8800
00b1d6ad
ffcb2200
003b58f8
ffe17f00
ff289200
006e2161
ff291600
ffad7800
ffe8f000
0092730a
feb96100
00f66ad2
00163287
0049a4c2
00eacffc
ff903e00
000188d9
ffc13500
007f6390
009f3218
ffd77700
fee3a300
fe767f00
0114d808
ff3cda00
00466076
004a2984
001534a0
008f12f5
ff3d8c00
ff388f00
0234e878
fee2cd00
ffcd0f00
ffc1f500
ffa5e300
fff5de00
0024461d
ffcaee00
ffc45c00
0061f9a6
00b95bd7
ff769a00
ff5cfc00
ffd1c900
0070d6f2
011be514
011f0eba
0081f9ad
ff96a100
0268f804
fcfa8300
fe69ab00
004fc0cc
ff9bf200
ff32e000
ff9b0100
004dce7d
000cadf2
003d99b0
fff52000
00382425
006075f6
003908e5
ff7a9000
ff970400
ffd2d900
fedb4200
ff059f00
00a128b6
fee5f200
0108b1d2
01429f9a
00532b38
01871264
ffbd3d00
003afe94
fff93100
ff4d0f00
0087f0ff
ff6a8200
fffe5b00
ffc03600
00cecbbe
00bba187
00a5f3be
00cf16b3
fec5dd00
000c26b1
ff60d500
febf0900
02282638
0065ce63
fff54100
ff9f9100
015df9aa
001b2982
004cb87c
001cfbc0
00519829
ff83d800
0070d7f4
00434412
ff87c500
0056c763
0051f82c
002186e9
ffa3bc00
01013e2a
ff838600
010ce840
fd377000
fe3d2000
009ef2dd
007aeb33
ffb64d00
fffa8d00
ff48b000
ffe36f00
ff767900
006ac686
003b767f
00513968
006380c6
00d11a02
ff83d200
ff9bbb00
ff8c7200
ff9f8d00
ffa56100
ff720a00
016d114e
00f9cb37
00d72ee5
014e5306
ffc4b000
00761cac
006d59c6
006bf241
fff9c800
ffae3200
ff32d500
ff79a800
011897e8
00aa3d1a
ff7e3600
00abda18
ff40ef00
ffcac400
ffe80f00
fedf4c00
015d990c
0096c755
000fdc77
ffe02400
00f31802
ff6d2700
ffcbfd00
ffb72a00
0061623e
ffaa0300
007cebaa
008ecfe0
004c017f
007f6d01
ffcd8e00
0114be0c
0008ab8c
0138a192
ffba4500
006ba2e4
fd482a00
ff00f600
0057ac8c
00b5969b
00705543
ff37e200
ff7f2d00
ff718800
0094ad01
00a9accf
fff89200
00327801
ffb39900
00313069
ff285100
ff285100
ff075200
ff7e1100
00769d67
008a2f5f
017f250c
ff290000
fff60500
00807fb9
ffa0c800
ffeeed00
000daba9
0028c0b2
00876d6a
00545a26
004d3386
ff3b0300
0027d3f2
002528c8
ffce1000
ffcb2d00
ff783700
fedd8800
ff8b2e00
ff889f00
01f17d6c
00c77898
ffa8f500
0041cf4a
005081ec
ffac0c00
004feaf5
00468d9f
0078930d
ff805100
00430e06
0049725d
007ca0f4
ffe7f200
007c067a
00ae9d68
003c4dc6
00581bc1
ff862300
ffad9000
ff230c00
ff3a3c00
0054a65e
0163bb5a
001ffe42
00125b1c
0058918a
004aaf92
004f0f0a
00745540
ffe95100
ffe63000
0068fcc5
ffe5c500
ff6b2500
ff97d600
fff9ed00
ff9e3000
ff771100
006c8bc6
01d22f58
fff99600
0003843f
0093a54c
ff3ab600
00247f01
ff5c9f00
ffb6b400
ff2a7900
0067ddcf
01402612
ff2ff600
ff312200
009dce2e
ff6f0000
ff9f7700
ffe99f00
fff69800
ffd2b400
ffeaee00
0195a35c
002c14c8
0012b124
ff7fa800
006643ea
ffd84d00
00165b10
005ce803
00882eaf
009e6c33
00824701
000b0341
ffeeda00
0080580e
fffad400
005f117e
0024a439
00a81970
ff9e4000
ff966800
00d3911b
003591cb
ff72b700
fff2c500
ff5b3b00
ff90b400
0024d17c
ff6cae00
ffad2800
ff923b00
01215680
005be83b
0098d8a7
ffe0c400
ff7f3800
ffc89100
0000d193
00471e7d
0038e082
ff9b6100
003ec94c
ffba2a00
00bfb63e
ff7fa600
ffc84d00
0016cc5d
ffccb500
ff79de00
ff402200
ff7d7400
ff853e00
0002cdf9
0051770c
003ec08a
ffe66500
00290ae7
002bfb5e
ff5e4b00
fff5e700
ff388d00
ff9b2b00
ffbb2a00
00c87d43
ffe96400
0029c882
ffebe600
00451940
00054bf0
ff5cb100
0061fbd4
ff8e6900
ffdfef00
ff719200
00593d97
007d2fd0
ffa89800
ffc03b00
fef93a00
ff7ab800
00726e1c
00768074
0095695d
0087822c
009c5fa7
00ce2084
00702a35
ff913900
0057ed00
ff723a00
ffaa6e00
0083c598
ff66d700
ffba1500
fffc8700
ff533d00
ffad7c00
000da434
015498b8
000b9f54
ffaf7500
ff508700
ffc5a200
00daf1eb
0015b742
ffef0700
0066b872
003a085a
0053706e
ffe0ec00
ff64d800
ffeb0800
00aa7419
0075bfde
0054cfdb
00621dc8
0089b32e
005ec37b
ffd03b00
fff0c700
ffbf6100
00473ee9
ff767000
ff81ad00
002cf24e
008dfdaa
ff828200
002677a3
0008d1c3
ffe8e800
ff64d400
005783ec
ffcf4b00
fff20800
00360d8f
00493d01
00da34a3
ff498600
ff2f3100
ff348600
00360dcf
00119cd3
006640fa
ffcec000
0087c63a
00b88932
ff642900
00a80c2e
001bcfcb
0055ff7a
ff9ad900
0006f36a
000245a0
00da062e
ffcc2700
ff9a2300
ffb8ec00
001eeb61
00cf00e9
00d5b88e
ffe1aa00
0006aee9
ff86e500
00b53198
002712a6
ff960400
ffc66100
ffc3b800
ff567f00
feffa000
00249ba9
fff9af00
00c84148
fffbf800
00341e11
002d9e34
ff02d000
ff323900
ff5cc800
ff4fc600
002c0f7c
0056ade2
ff158300
ff858c00
00fa5a42
00439155
ffeadf00
0051444c
ff569800
ff9e0e00
009d7323
003bd597
ffaa2b00
00951ee3
ff7dd500
ff8a5700
00b97990
ffe05b00
ffc75000
fef1bc00
003c7193
ff8e3100
00716dbf
febe8c00
ffc46e00
00a199bd
ffe97100
001b560a
00733fd8
00b32535
0066ba4c
ff93f000
ff925200
00872fe0
ff07b400
ff994c00
00132bc3
001bec1e
01dd25a0
013f85f0
ff97a700
fef61c00
ff396700
00e35574
ff308200
ff0cec00
004ea811
ff4c4e00
ff9ead00
ff905c00
0078a912
ff365100
0055318a
00c7fa5e
ff54e500
ffbd0b00
fea90000
ff9ca800
00a2c9b9
ff835600
00579fd2
00f555b9
ff8fdd00
0041a176
01eaa232
010f169a
ffb1a700
003e7770
008a9fb2
ffe87800
fffcc400
ff97f400
fff4bb00
00a65498
0022198a
ff7d8900
009f6bb9
ff897a00
fe852700
fe891d00
0067c32a
ff63e900
00ef6006
ffbf7100
ffb84a00
00dc3080
ff5bdc00
ffbf5300
00ec786a
0070451a
ff9f6000
00436f2a
004595ce
002f3bf7
fed58200
ff5bdd00
ffdb3c00
003ff1fd
011272ec
012f75ee
fff46500
ffb96700
ffb41600
00e9ba89
fe8f8f00
ff6f7700
00621580
ff9b5400
fffcba00
00949415
00b838df
ff810b00
ff94c000
0056221f
ff8c5600
ffc2d500
ffda7b00
fe900e00
ff869200
fe792500
006440cc
00ab9e99
ff033400
ff010f00
0252aff4
011ebf00
0024e71e
ffd93400
ffc87300
ffb31600
0082afe6
002084d4
005bfb7a
00a4fca7
ff800600
0038f516
00b36f7c
007217e9
fea56a00
fe894700
00a9b94b
00464c5e
00f3ca76
ff62a200
ffab5200
0071e369
ff22a900
ffcac400
00862956
00342e8e
00a01406
00a8903e
ff686a00
0153a116
fec2c300
ff01f400
ff51e000
00ded4da
0007b8ed
01ca5f1c
ff494b00
ffe08300
00006ddf
006217a6
ffb96500
0021cb67
00326f77
01107e4e
004ccae0
00f9596c
ff479500
ffcf9400
ff15b500
0135c246
ffed2400
fff1dd00
ff06ed00
ff7c2600
ff132100
ffd07a00
ffd18c00
00ff2a1b
fe067500
ffa88a00
024b32c0
0019123b
ffe72f00
ff8ccf00
0047be0b
00320471
0036b25e
ffaa7a00
ffdd9d00
ff68fd00
ff7cba00
ff8f9e00
00815945
01bca9c6
fe6a0a00
0066d28e
ffd05d00
ffbd7500
0009b2b9
00bd7c74
fff4e500
fe868300
ff0ab700
ffa2f700
003ac5ba
00d7dbc7
00498272
0085a5c7
ffaeed00
006303ba
fec10800
ff125000
ff88f600
ff7b0700
00597eba
018b8716
ff0a4700
0080dfeb
007b76fd
0029d130
0012c0b1
00d5ab78
ffad1d00
0185c264
004a2af4
011126aa
fea64c00
ffb98e00
ff9e0100
00a13c8d
ff038c00
012309aa
00420074
001a2420
ffe36600
ff632100
fff60200
01750c18
fe6ad900
ff637e00
0168acec
00575dce
ffd2cc00
009e4bdf
004c4301
007fb855
00807c09
ff742700
0030bdce
0064aa3e
0005dc5f
00394693
ff423600
01351c06
ff314a00
ff6b6b00
0041dd4a
ff745300
feb7e700
01ae1e8a
001911ff
005377f1
fefe0100
ffca1000
006b1a8c
00c0459a
ffb31100
ffd55300
ffc5f700
01008cd0
002fc331
fee02900
ff74e400
ffc4a700
ff844d00
0061c292
ff070f00
001c385a
00d65e83
ffc91200
003d6cfc
00d2b062
000f7f9e
ffe01500
ff6f3100
002dc73e
feca2000
ffbf3d00
ff25e500
010b979e
006b1965
01cfe93a
0046aafa
ff6adc00
ff8e7800
ffd32c00
ff26a900
0234dfb0
005ad5ab
003c6332
00179299
001d65f8
ffae4e00
ffe99e00
005e947b
ff7fe900
ffd29b00
009c0a12
ff636e00
ff920900
ff40ba00
ff616c00
00afaf2c
00b362c6
00857f9a
fe920000
0146333c
febcf900
ff3d8300
00236f3c
ff7e2500
001befb4
ff5fe600
ff588900
ffe0e400
fff5ff00
0001b863
ffff0d00
ff9ebd00
ff9d6900
ffaa9300
ff84b600
fee15300
fea84200
ff7f4c00
0116f400
fee63700
00ee42de
00352e40
fff12900
00a87048
ff7d0f00
00a1f1e5
ff4d3900
ff89d400
00560018
ffdad200
ff422200
ffcc0f00
00216a2a
0032ec58
014819d4
ff7cbb00
ff050b00
ff89e300
ff4fc900
ff80e100
01dcad30
013bb336
00c99979
fec05d00
ffa20800
00543668
fffac900
00492d62
ff507200
ffe79a00
00102661
ff66c300
0012d2f7
007d7c18
ffa35400
007ccad8
fffcec00
01a41e98
fef19500
00e7d61b
fe32ce00
fe4dcb00
ff9d6900
00a2a14c
00e42b71
003219f8
0043e684
00d78a3f
00bb5d84
ffce8600
ff704500
ff45cb00
ffc34b00
00fd6243
00215e6d
ff912100
ffef8f00
ff3c9200
01144c08
ff3ef200
0070129b
ffb24e00
0050ad36
00e238be
fff38500
001f5656
ffc99100
ffc03d00
009af14f
ff22dd00
fef4f900
00b9c61b
00c741e5
004aa7bb
00d1a5a6
00bf917a
ff637c00
ff741b00
ff639e00
ffc90e00
01cf236a
01b2cb64
ff66c200
ffd33f00
ffa43800
ffef6b00
ffc19600
001b2c5c
ffb4e500
fff29200
ffce1a00
ffd75600
ffc93700
ff941500
ffc85000
00bc5846
0054301f
ffc7cd00
ff4e9400
003ddd88
fde94c00
ff337700
fffe1d00
00d6f3dd
018bfcca
fff3f800
fffcd200
00821e59
0069913a
ffb5c100
ff992500
001d481f
ffb49c00
00d38cbd
ff328b00
fff8f700
0031d847
008c525e
ffd58b00
ffbd9e00
009516c6
00186503
00148249
00dccd6d
ff422f00
006c226d
00223b20
ffb8be00
ff498200
0054ce08
ffc42d00
ffffa500
00660e9c
00e4300d
0085651f
003b4633
ff89b000
ffbf7e00
ff828600
ff3bc700
008bd14b
01194010
004e6fd8
0085dc05
ff025200
ffaba600
00a40275
00a5bcb3
ff741500
00737d5f
004af1e0
ffae6100
0079fb6a
ffcd6200
ffcd6400
018ce524
00561f84
00aebdc0
ffdad700
ffaf2600
ff08db00
fff38400
ff965c00
00fc085a
008dea1f
ffed0b00
00684c8c
ff8b9500
ffe03c00
00032c28
00069908
0040d8f4
001a6d4e
0088b3d1
00145d69
ff489600
ff722500
fff3cb00
0072e398
ff16e900
00e88bc2
ff443400
fff3d800
00e3d649
ff608000
004b7a3d
ff41a600
0067c2a4
0000d6fd
ff79d700
000d95a1
00443b5e
ffe6ba00
ffa7df00
ffaea700
ff7e4000
ffab3b00
002a2c2f
ff545c00
003e4f5f
01c2e8b2
001884d7
004c2f60
ff609d00
ff75a600
008e75cd
ff749900
009064ac
007a7369
007ae66c
0053f6d8
ff7c6d00
ffb4ce00
ffa73d00
ff62fa00
000e4ff5
0065060c
00a9aa28
00333255
fff34a00
ff5c3900
ffb03c00
002daa79
ff832f00
ff3b8700
00121dce
005892d9
ff5e0b00
0076b0ba
ff68fa00
00c7519d
ff902d00
005ccb4c
ffe7c800
00436718
ffc92c00
0041f1bc
007806d7
007b0df8
ff7c3600
ffe6c800
00019145
fff59c00
004abb5e
00406a18
ffde1a00
00786776
ff1f6500
0061f503
004e39c6
ff5bf000
008bd30d
ffe6ce00
ff5b5200
ffdbad00
fff1a700
00818611
ff9e5200
ff645400
ff8c1000
00515e64
ffd5a600
ffe9e400
009c587a
0089804b
ff5dcf00
ffdd1f00
0020250a
ffe4a700
ffd6c900
ff612d00
ffe31b00
002de942
ffc2b500
009005c4
fff30700
ffaef200
0035e521
00060e81
004ccf5a
001dd06e
ff750200
fff6ab00
ff507000
0077eba0
ffa81800
00ad9bfc
ffb71500
003b5e5b
ff5c7700
ffd57f00
ff919100
ffdb0900
ffa53000
fff6e700
004066ce
ff53ab00
ff5e7800
002dfadb
003bdc69
000814bd
000eddd8
008b7806
0073d074
002b638e
00caecaf
0003164d
003e51dc
ff475e00
005a4ef4
ff27d600
ffd1fc00
ffdd3300
ff9e5300
fffc6400
fff2f800
001097cd
fea79400
ffbfe600
01037e72
0092170d
00c32246
000379ee
002ebb3e
004d2462
0096ecaf
fff9e800
fff38100
ffb6e300
ff89ec00
00212f83
008c8116
0050b83a
ffa24a00
00517590
008d1b4c
ff5d7200
ff6b7a00
fe4ca600
fff30100
fedd3400
012c598c
0055c57e
007a731e
00eb1dac
ffb75900
ffe5d100
00825a8b
007217b7
fffd3300
fff52100
ff470400
00fab995
00718b1d
ff283700
0011e8fe
ff78f000
00d0f58e
ffea8400
0012a393
00b03bdc
ff3b2a00
0057cfcc
0069a596
ff167600
00c52bf7
ff803a00
001c34d2
ff81bd00
0079b018
ffcc1400
ffc63800
0087b695
00acd57e
002fce2f
ff869f00
ffbbe200
ff4a3600
fffaff00
0083d8ab
00d91df3
ffb62e00
ff3f0f00
006aec64
0037c1ba
004b8f7b
00384526
0003681c
ff808c00
ffb14c00
ff791800
ff6fcb00
ff7ac400
00873e24
ff7e9a00
013ababa
0074e1af
ff865e00
feb37f00
006db5fa
ff537e00
01076192
ff3d8e00
00585d58
00189904
ff8e6500
00a27413
ffda7800
ff76b000
ff9cef00
00029f35
00060f8c
006b06a2
0035fc91
ff177b00
ff3cda00
ff194100
00b8b5b6
000431e9
00a217e6
ffc9e100
fec99c00
018a2b74
fed62f00
ff371a00
00587a26
00138af8
00763802
fede2600
ffc45b00
ff3ac700
00d1c92d
00717b16
004dff8a
fe72a100
ff4ef500
ffc50200
fe6e1e00
004b1d4c
003b4f11
01229d58
ffe94d00
ff702a00
0063c934
00fbf8f9
00299c9a
ff662a00
005c85c0
ff7b9400
002c46a6
00441226
0023514b
00755951
ff824800
00410594
01c4f3b2
ffd6ef00
feef6700
fed10700
0016328b
fec78400
0082baba
ffb79c00
007fb78c
ff8bdf00
ffca8100
005a6208
004c110a
004382a4
0041b8ad
fffade00
ffa0f000
0170bb9c
ff5de700
fea14500
ff857300
ff6af200
0094f270
00256f86
00a611ff
00052367
ff514200
014f3f3c
ffdd9400
ffc10b00
0034020e
ffae2200
017a60fa
ffe88c00
ffe78000
fffb8000
005f2d11
0150a896
009fd103
fd7ef000
00704e9e
fe7cf000
ff1b1000
00afa088
00bc52c1
01b81438
febb9900
fe446100
00efc9e5
02102adc
005db6ac
0095c144
0067cc5e
ffa0a900
ffebf400
00064f72
0042a168
ffc74a00
ffe38b00
004c4299
00f00690
008e8206
fefed600
ffa4ea00
ffe85200
ffd7d000
0170b01e
00d7450d
fff45a00
fdd2f300
0070b2a2
0041a851
0083b0c6
ffe87e00
ffbf2a00
001dc42d
0009f9b7
00f0da59
ff72c500
ffd21800
ff374e00
004e80fe
00778294
0012fd03
005bcd7a
00559866
fef95a00
fe8f1600
001b6819
005e28a4
ff5ffe00
00695390
0192bae6
002faa0e
ffd46300
00427093
ff867b00
ff477c00
ff583c00
ff4c5700
ff840600
ffc7dd00
ff8e0a00
016de1f8
009f3ab6
0164ba06
feab0f00
fe058e00
01729780
010d6a78
0098985d
007960d1
ff73eb00
ff95a600
000ce3c4
009e1cb6
004c89d0
ffdd4e00
000e5440
004f5d04
ff81f700
013a19e8
ffc48600
00085612
ff426200
ff7fbc00
0072ffd6
008c7a21
00b8e128
ff47f400
ffaaa800
00717352
00a7c905
00354000
005e0730
00784da5
00794b7a
0030a733
ff813100
ff689f00
fec64900
ffa29900
ffcd9a00
0101b11c
ff96ab00
00d61fea
004906c8
fe9a9600
00094e17
019d48d0
fe4b7c00
01075e7c
00afff3a
009138f9
ff110d00
ff76f400
00308f4b
004b5124
0074b422
01ba5af8
fee45d00
0001ef7f
ff566900
009b696d
00e3ca48
00703b02
003afb6d
fe9e9300
004b3a0c
013459c8
007f138a
00409307
ffcb8900
ffc61d00
ffb2b300
ffb2d200
00083de0
ffc57d00
000f7786
ff7fcf00
ff69a700
009fcd3a
fff12200
fe807f00
00ed8b4c
ff068800
ffe28500
0168cf36
ff187800
00983509
fef5dc00
007a0b1a
0035f294
ff7ad400
ffcaa400
001f2978
ffcab400
001ed7c4
ffb97400
ffaebd00
ff2f9700
ff4b7400
001b143d
013cfe76
ffad7200
ffe62d00
007f6885
ffae2800
00cf28d3
ffea6200
ff639000
ffe0a700
ff2dfd00
004be7ea
ffdd3e00
00272046
0067745a
009ef122
fff38f00
005bedf8
ff087000
ff96a800
fee35700
009d25a8
ffde5c00
01178a9a
0134e37e
ffa29700
000d92eb
ff43d600
006c11ba
ff9ed600
0017ec53
ffffc000
fffa9d00
00395ac3
ffaf5600
ffdf3f00
0008aedb
003240f8
008b11e8
ff627f00
ffc36600
fe660700
008334f7
ff492100
ff907d00
ffe04e00
ff143500
00d086d9
ff960800
ffc56300
0000ca02
ffc03b00
0112d67e
0032b9f8
005ebd60
0041b6c8
ff3f2400
00b2c1fd
fff9fb00
ff710a00
ffee1d00
00c87d80
0016a64f
ff11c000
00260872
ffa7da00
00a7c91a
ff781400
ffdaa600
fed96900
ff8c7300
0029e871
00c22c8d
00286a68
ffa3db00
ff86e500
ffde9d00
00c18a18
ff3f1200
ff239000
fea65b00
00a883ad
ffe04400
016cd9a2
011236f6
00343512
00e346b2
fec5c600
ffce4000
fff91900
00ab254c
ffb9a300
ff80ba00
0010ccd0
ffc95400
000e5d12
ffc12200
008fd309
0138513a
ffeab900
00056300
fefe1e00
00af4f42
ffa44900
ff5ef600
fff70e00
fef9d700
01b4a74e
ffb84900
ffc1b200
001d491b
ff642a00
000b0c5c
ff972700
feec0800
00b3a407
00169fff
feea2400
ffa6a700
003233d4
008edb4b
fff92400
00e97511
ff8cf200
fff6fb00
ffe8a200
00b32808
000346fe
0002eb4c
ffb83b00
ffdec700
ff327a00
ff888100
ffe67600
006988dc
0092dd38
ffa6ef00
008ae871
00184f34
004bb8fa
fe40d200
ffb99500
0119b660
00b660d8
00208198
ffe4aa00
0104f2aa
fe9f2500
ffe4d700
ffc7ae00
ff7aba00
fffd3200
0021cbda
0095588f
ffe4a200
fffb2800
fffe5500
ffcf7100
00c38daa
0014e4d9
fff0cc00
ff1a1c00
00bb3db7
ff9dbd00
01096bfc
001533cd
ff218c00
01ae1df2
ff9b2400
ff743100
011b9d4e
ff54fd00
0006ad10
ff878300
ffcf9200
004afe58
ffc27d00
ff310400
ff566200
002bdbe0
005c3ed9
fff20700
00b7b6f6
ff0e9600
007ff686
ff53dd00
00376914
000ad742
0079153b
ffbbcd00
0047b046
fefe4a00
008250c8
ff225800
0046a620
fff6b100
ffb39000
01030dca
000857f3
ffdeba00
ff5e9600
00469592
ff81cc00
008894b1
01047ccc
ff526a00
0006c66e
ff028700
0099f5be
00928922
002b1b1f
0050f798
ff6fc700
0046dc31
fffff500
ff929700
00055385
00053432
00db1927
005f1566
ff4d2700
0037b968
ff924a00
fea91200
01b283fc
00200866
002b11d9
006a82e2
0021958a
0008c4e9
00bdd244
00235158
ffab1900
ffb07300
ffed8400
ffade800
ffbaad00
ffd9c200
002e596c
ff6f4100
007da6a4
ff8f1800
ff6ae500
ffcfce00
00a7d400
ff6a9100
0036b912
000eb1e8
00e08459
001270d4
00322aa0
ffd79d00
ff69a800
0030aa73
00c16fd5
001e5923
00279a84
fff21f00
002f4a6a
00327d69
00294b47
0034d5b4
00498f0a
0032bd2a
ff5bce00
ffb16000
00432b22
ff35e200
00979218
ffbc2c00
ff5eab00
0064bf60
0059a1ec
ff850000
ffa89f00
ffe30700
001ab693
009e889f
003fbee3
008e05d4
00479216
ff636900
000679fa
ffe26300
ff8d4600
ffc4e500
fff5e600
ffaec000
0034b9c8
ffc96400
00623e3c
ffd0dc00
ffad0800
000ee88c
004c0ae0
ffead200
fff31400
ff3abc00
004ba25a
ffb8a700
00911036
0064f71f
002aacc4
0010bef6
000cc414
ff992700
0063191a
ffb72b00
ff9f1c00
ff6c8a00
ff9cbf00
ffff8e00
008df3d9
ff76d000
008d3e9a
ffd2b800
ff889100
ff6f8d00
ffdffc00
008fda8f
00462a3b
006236d6
ffdcef00
ffb6e900
ffae6500
0061a260
ff780b00
00925f60
ff778000
ff82a100
00959ee1
ffea9700
003587bb
ff8ff200
005ce788
007bc864
00404afe
009b4b0c
004623d5
ff4ab900
0082717c
ffd58400
00ad058e
00000d8a
ff6d2800
00543db9
000664b2
ff7a5200
fff6a000
000d84e6
00106218
000fa918
0074aa63
0040ea1c
ff84cd00
0035e1f0
ff6dfb00
ff537300
fffdf100
ffad7f00
ffa7de00
ff69d700
00e587c9
00010f6f
008ac16e
002da5de
0053df67
00227263
0043ac7f
004a3b95
01032c0c
ff733e00
00d61322
ffda2c00
0051f408
006a1fac
ff87a500
00481ea8
001ddaa7
ff714f00
ffaaca00
00996516
0016e9fc
004d0bbb
00606317
fefaf100
ffe06600
008c5f72
00978a57
ffd33200
ffba4700
fffb0600
0094c6f4
ff679000
ff6fe000
fff49100
ff986100
0016c90d
00a304b5
0008626b
ffe39d00
ff2b7900
00227fcc
ffbbf900
004ab9ca
ffcc5500
ffbec100
fff2d900
008d714a
0097b65b
ffaa8100
0034c075
00bafc0b
006cbd3d
ffafff00
003214e8
ffd23400
ffad2600
ff994300
00904199
00d351c1
00b6ea90
00bd53bf
fffd3400
ffdf1600
ffed4300
fff26400
ffdf1a00
00d6ebd0
ff775500
00378770
fefc6400
000a8cd9
ff596000
ff971800
00391df9
013d222e
ff87f700
001359ad
ffbada00
ff8ce000
00d82748
00d5ffd3
0115d764
000e15b7
ff8e3200
ff977e00
00efaa35
ff9cb100
ffdd7a00
ff63e500
ff810d00
ffdc6c00
ff7d4c00
ff9bec00
ff684000
00938ac5
00449e46
0047f25c
0051bec6
00435542
ff2b9400
00aa4f6a
febc8300
01194fb4
fff16c00
005ff0b0
ffc9a400
006c2625
00b4acdb
00604718
ff882d00
00386717
00355ba6
ff680a00
0002bd1f
0020829e
ffd8e500
00316eea
000aca54
0050236a
ff69d100
00b245e8
008e0184
ff483000
0081ae2e
00ada32e
ffb76d00
0068a43b
ff46ea00
012d7ccc
feb7f000
0071d79c
ff5e1200
00fd4111
0140331e
0140b5f4
ff006a00
006af2d1
ff8fd900
fe00c600
019d84c2
ffe37d00
01cff3c4
ff955e00
ff20e900
fecaaf00
0232b724
00866fa7
ffc4d000
00a48a50
ff6fe200
ff6fe000
ffb19f00
002e6381
0026cbe4
ffb7b000
ffbc6a00
014e42d0
001e53a0
003c0547
fef59100
00550f96
feaa7f00
00c6abd5
00bdd9e8
00bb83fe
ff431000
ff4a6d00
00774178
ff8b4c00
005efa87
ff740800
005d05c8
ff444000
00b1ae46
ff891f00
fef91400
ff3ca500
feff7c00
00e97222
001db1fd
0058855c
0114ba3a
ff786900
002d30aa
00500bee
ffee5d00
ffcd0600
fffc1600
01a2c5b8
fef2a100
fffd7100
ff061200
00092ad4
00492aee
00c888a1
fefe3e00
ff381200
ff232000
fed78500
021aa434
00785590
01ab5238
ff355100
feebe800
ff218100
01bf4a86
002f2a5e
003923e8
00852723
005901ec
ff94a900
ff6f2d00
004815e4
008f80d9
ff7e1300
ffeba400
00ac3715
ffcea400
00f9a788
fe48f600
ff541f00
ff14a500
0191d06c
000a0fa0
016798b8
fe438400
0083c055
00b0d413
ff805100
ff3d0200
ff4c3000
00fe5805
ffb7b400
00989018
ff20dd00
005feb9a
ff500e00
004691b9
00a7bd46
00119a38
00023288
0058a450
ffe38700
ff22e500
0088f3c1
00c38258
ff784c00
0094aa3a
010d0f16
ffbf1c00
005f07b2
ff95c600
00c76b2a
fe8d0f00
00cb5571
fffb7600
feee1300
00aaccda
ff3dff00
01b9a388
0125411e
00ba3d9d
ff2c8000
fd9be500
0024f460
0148e966
00556c26
0019cf32
0066e180
000cca4f
ffe1c600
00759afa
00610c9a
00521f30
000f6f38
00796cc8
ff7ec900
02310fe0
004828bb
fedd0400
ffa41a00
ff7f6d00
0147be64
005ce511
000ab941
fe864900
004be9cc
ffd0e800
00c4e9e4
fff07e00
0060aaa0
004d9db8
ffdb5400
ff640700
ff425200
00580cf4
fdec7b00
0008078a
008125b1
00ca6815
004ad9c7
ffcde500
ffd11600
ff11cc00
00131e95
015c2a52
fe44bd00
00e3915e
004dca82
ffe78e00
0099142b
ffeda900
006be220
ffc89a00
0080f232
ff87ec00
fe9f7c00
ff430700
ff5e5e00
00f3b76b
00d178e0
00c3f030
ffce1400
feae1d00
0045bcd0
0096055f
00515098
ff6b9e00
ffea8a00
ff72fe00
ff5c2c00
fff64700
00687402
002fb2fe
ff6c8800
ff5da800
005ba30f
00de601c
fffaa300
ff099200
00349971
004b7038
01024d84
002e0cfc
ff8bb200
009677a1
0057ba58
0006a31b
ffe6eb00
ff58ed00
00a7b745
ffddf400
ff49c600
ffbff400
fed31600
002ed862
ff430000
febb3b00
002d16eb
ffd75700
00f6e540
ff695b00
0026ef14
ffd05a00
ff5f1400
001b58c7
ffacfc00
febe3e00
ff9c1c00
003c109a
0078efb2
ffc86200
006e3a6a
00b76346
ff63a100
019d7e42
ff193200
fed0f000
ffec4a00
0143b192
ff90d100
0129efbe
00e49ff3
ff6bee00
014a7b4c
ff457e00
00675649
0093914d
00a0ba5a
002e39ec
fffb6e00
007bb254
006f50b3
003c5c90
ff602e00
00175fa0
009d5e5f
ff6de500
001385cf
ff849800
01107b4a
fff7f100
000e434f
000a487c
fef70b00
00278244
004d8acb
ffc69c00
00cd8592
00208a5a
fffb8e00
0029446d
0017db94
000618bd
ff869f00
ffd1f600
ffc60a00
fedab800
0099175d
ffeb2d00
003d56d0
ff5b9600
00985ac6
000ca4db
002d8c48
ff9cbf00
0053873a
ff9cc100
ff6ffc00
012cdd04
ffe70600
007a644c
ffbf8400
01734264
ffb06100
007ae554
fff44e00
ffa2f400
ff7b2800
00ec19a3
00834647
0024377a
0005c360
00de0bd9
01d95b10
fe9db800
ffc67900
0077f31c
fff23200
002b0dd1
ffcae300
ff665000
00025b27
0051ab88
ff9c7600
00482b66
ffed4600
ff72fa00
ff3bd000
fff7da00
0019db89
00aaeeea
009dc4f2
001f41b6
ff8d5500
0134b358
00171506
ffdb5d00
003b1938
ff5e0a00
ff64f700
ff607600
009c8dc7
00c4daaa
ff484000
ff665100
ffbc7e00
ffbc4200
008f414e
ffe4c600
ffac0800
ff1f0600
00e3b2dc
0089390b
ffa40700
fece9700
fff54300
fffb3100
ff126100
006c7476
0098d39b
001c154f
001655f1
0143cb7a
ffb04e00
ffb06700
00820f58
ffef6e00
ffc0bc00
ffddff00
001a957d
ffdaae00
000f592f
007cb112
00a24e12
fe627800
ff74df00
ffca5000
000039cc
002bc485
003e2b82
ffa7d400
fff43000
0058ef0e
005c7594
ff64dd00
00d53de1
ffe04f00
fe907e00
0095abc0
00656101
004f58de
009ab068
0065b2aa
feca7e00
ffd8f000
ff9b3d00
004e2698
0091633b
ffc5cb00
00a2bda1
ff850f00
009ca08b
ffe33200
00427b89
ff189400
fff13500
007b2864
01c2d23e
fee8bb00
0070ff30
ffbdc300
ffca1500
00c02f77
ffaa0700
ff7e6f00
ffda5600
ffd3ad00
00a78cf7
004319ca
ffaf7f00
fff9a600
007d2bc2
00e8c2b1
ff4a0700
ff848100
0085db4d
ffca3100
00714335
0058a258
ffa8c200
0005a044
fff1aa00
ffb3b500
009169da
ff0b2d00
0005c258
ffd2a800
006a013b
00902be4
ff612c00
ffef2100
009e6878
ffec1b00
ff7f1c00
0054f3e5
00d528c7
0006fde2
ff40cd00
ffbbc100
ff3e3c00
00381df0
007bab02
ff74be00
ffee9a00
ffc77500
ff592700
ffdacc00
0008c680
ffaad000
00082a42
ffa1a900
ffb38500
000a48d7
ff2f0800
fff3cc00
00b88e8d
0084696c
013c5d3e
ffe38000
ff8b8900
ff98b500
ff947900
004fbd5c
fff8a300
ff486500
001bd5c3
ffe6d400
009a5a16
0040b406
ffc8fe00
00055069
005a650e
0038c911
ffa38800
ffe77a00
005cd352
0041ae18
01b16c88
0048c33f
004745a7
ffb39200
ff3a1000
ff605f00
ffd9ea00
ff369800
ffe63b00
00640bbb
003cfe93
ffe68c00
ff9f5f00
fff88d00
00366c99
fffa1800
0077a3d0
fff1de00
ffa2ca00
ffa91100
0030f2c5
ff4ce000
0059172a
ffe15600
009f8512
005f2bde
ffe3c600
ff80a000
00935f76
00522610
00561735
ff23ac00
0071cb4e
ff778700
00859c54
ff55cc00
00514b6e
00009563
fff55500
ffc83e00
005b0926
004909f5
ff968600
003e5672
ffbec200
ffec4200
ff873c00
0003710c
000fb958
ffd62300
006d05fc
00445c0f
ffb5d700
00244e6f
ffa45e00
ffd8db00
fff30800
ff737e00
003ade64
ffb1d800
ffe0c500
0087bc24
ffca5400
003f46f5
00115735
fff9ea00
ff65c100
ff58cc00
006b1662
ffdfad00
ff8c9500
008da23b
ff966500
0093da64
ffaa8d00
0084af7e
ff85bd00
ffd05c00
0037c0ca
ff715200
004a7a6c
00186c08
ff3e7f00
ffa17a00
00202f60
001cb630
ffa42500
0047aaa0
00540970
008b3178
00a90553
000b6213
0080f094
ffa92c00
ff88bf00
fff5c500
004b8716
ffec3700
0028b4a9
ff531c00
007ac316
000aeda8
00c3cbf0
004f07e8
00294474
0086dc4f
ffe12600
0019f985
00bff2b2
ff161500
0000c786
0031f310
00337ac2
00219ef6
00c02162
ffa0b300
ff6f0000
ffffd500
00751978
ff918000
003a2da0
00a2ced0
00227283
002602d8
00837b93
ffc65500
ffd82500
ffc12400
00ad46b4
00423f48
ffca6f00
ffaa5a00
ff800800
ff698e00
ffed9700
001720e1
006106de
ffc99d00
00bb64ba
ffddde00
00846c99
feea4400
002c3ae4
ff896800
00409e2b
ffa6e700
00d11163
0057ba1a
0050f6c5
007c5f74
0087a431
003e880d
006e6fe4
003cded1
ffd86600
00328b1c
0040321a
000ab0d8
ffc0f500
005bd80a
ffa34300
fff1c300
0061cf55
00fe07cb
ffb2cd00
0059c39e
ff3bce00
ff65f800
006442af
00415285
00c0fd24
ffea7600
00d557f6
fff73300
fff83300
00ca152f
00bf5e4a
ff8f0200
0087b64a
ff588100
ffed5c00
007622ea
fff34e00
00393105
0035d5a5
fff52600
ff844e00
009ade6d
ff65f600
0000003f
008087a6
00349ce4
ff925500
000fcf0a
004bf0ac
ffb00e00
ffa14000
fff17000
000fab22
0027ccd1
00ac9f87
fed4ef00
009b29f8
fec8ad00
00f85361
009f6764
00b10d63
ffe29300
0053f7bc
ff882200
fff1c400
ffd7d300
002e5400
0072f3e5
006f8513
00a59453
001fc8c7
ffbfe100
ff450900
ff59a900
ffe6e700
005cb99e
ffe11300
0066778a
ff421000
ffed0300
ff780800
004f7561
00b1bff5
ffb1ed00
00c6db49
feab7e00
007cd83a
ffeb0900
ff82cb00
fff4d000
0175864e
ff958c00
0031eb75
0045fdc0
ff183500
017d74be
ffe22a00
01588980
00a4df74
ff40a200
ff30cd00
01860afe
00877971
0048244a
fffbcf00
ffdadb00
ffe2c200
00ab455d
0014f24b
006ea582
005036fc
ffa67800
00e70ce3
0013236b
0135be4a
fe784f00
fff9fc00
ff28a100
0118c954
00b49010
01446c1a
feb4c100
0062a508
ffd79100
fff49700
ff86e600
ffbf6e00
0121dbec
ff92e700
006a6f1e
ffa1fa00
002db1ea
ff8f3a00
ffbda400
0023dd88
006e9e85
ffec1a00
00bac70a
ff818c00
fef8b000
ffc8b000
0147eea4
ffe93400
fee41000
00f13d60
fefe9700
ffff6100
ff4a1100
ffe34200
005f0d18
01bbabfc
fef2ab00
000d190d
ff683400
fe79a400
00ea1d7e
ff367d00
00eb0823
00bbb4d3
fe501c00
ffb3ea00
00d6c18b
ffb17300
ffc53d00
001da9ae
ff87d400
004a0556
ffd4b200
00517a60
ffb9e300
0036bd32
ffc90f00
002774de
ffe15200
0062e564
fe69fd00
0034e818
ff376500
00d47bb6
004e6278
01b8eb9c
fe20e100
ff977500
00268f6a
00291589
005f72ac
fff9e900
013fa6ea
ff96f500
ff788100
fe5e2c00
0070dc24
ff29ee00
ffb05400
00784610
00eb6c9d
fff45100
0098ff1e
ff8fb400
ff4c8700
00265ba1
00fb44b2
fe706500
0094b7df
00a5bdc6
0019350c
000d61cd
002b6059
ffd2fe00
ffae0a00
ffacf800
002de6f3
fea28100
007e7c28
ff706d00
0123ea9c
0057a105
007ce029
00131bc1
ff94aa00
ff6d7000
00a2bb75
ff647000
ff7d8f00
ff747000
005c964e
00b41698
00b02f17
005ebe7e
001587f1
0019ab87
ff7ac100
ff09aa00
023132b0
fff9ff00
fdc9ca00
ffd84500
ff5b8900
0094bde5
0127d4b8
0154cf6e
feef3000
ffc9fd00
004d10a9
004ff722
ffd80a00
00445c44
0148f4f0
ffbba200
ff604500
fe240600
0071e8a6
ff606100
ffce9f00
00d6ea55
00a997a5
00bec5cd
00118930
ff9ae700
ffdc7900
ffea9800
008e7779
fec4a100
fffe8c00
001e2148
0099df1e
002ed4e8
002d75cd
ff671400
00ce9dbc
ff917f00
ff8e7c00
003378b2
ffa24b00
ffcdaa00
0029244b
00c676b0
0091de3a
00b07d29
000f3a28
0117146a
ffe3b300
ffe9c600
fff96c00
ff5e9500
00772a66
ff61b700
ff98ee00
00ac7f5e
ff689e00
ffee8800
00050a94
ffa54c00
003db207
ff89d300
fe9e2b00
0043c4d9
0057bb94
0096fd8f
004135d3
0028d18f
ffa52000
0113116a
007f5af7
00835e05
ffc99d00
ffccbb00
00ead6ed
00990f95
00493308
ff194300
0058b03e
008caf3d
ff32ea00
00a231d6
006ee0cd
006cd479
ffcb0600
00f54256
003e3d78
ff6e4900
ffbe8c00
ffadd700
fed61900
ff88cc00
00aa976d
001f6b75
ff842700
00bedbaf
005a97aa
00afb1e6
000530d0
004ec582
ffb73a00
ff2b1a00
0070b7d8
ffec7800
002dc3bc
00c8f30f
ff253400
01da4d44
ff302c00
ff9ecf00
0029bd2e
ffa27700
001f9eb4
ff825300
ffaf0100
00862b9c
ff772800
ffdab100
ffa1dc00
003ab939
ff5fe600
ffcb8100
ff3fc100
ff99b700
006d1bce
000cacfa
008a366c
fff8e800
00d9c2a7
005c847b
ff883f00
00104dc3
005fe58d
004eb6fe
002c9c72
00a70a47
004c999a
ff800800
ffcc6500
007c7b8a
fe661000
00f6586e
fff65700
00a4eda8
000125a0
00f59a60
003e5f37
00195d0d
ff5d2c00
005e55ea
002c32ea
ff940d00
00c6873a
009ca818
ffe2d800
00eeee2b
006befb6
ff3b0100
ff323600
fffab100
fef21d00
00b4314f
00280a60
00cbfd3b
00191aa8
0093a161
006bcdaa
011eb5cc
fe9f3300
00893dd2
00350f08
ffef3500
004c02ea
ff72cd00
004eb4ae
ff7bad00
0017d8f5
00399aca
0056435f
00b9084b
ffa29600
fdef7700
009c3c05
ff49f300
ffe81d00
003a34fa
008f2a5c
fff88200
015ac794
0084b874
ff642d00
00c184da
ff480100
ff42da00
0046b7ec
002e1fea
00ba50df
ffa74100
002f9027
00c43c3e
ffba7200
011a4f60
ff052b00
008fdf65
fff33f00
ffc4a200
ffcef800
ff391c00
ff0ae700
003341d6
0035e427
ffdadf00
00559800
00c66ae2
0031fffd
004fd086
00c64f65
ff43c200
ff3d0e00
ff998800
007629c6
015a88b0
00066631
0054a356
ffc70900
fff79900
ffbf6600
00b031d8
fe7e0700
002fd696
ffa76f00
00406a11
ff9fc900
00413846
0060a844
ff932500
ff696d00
ff961100
ffeeaa00
012489f6
ff203400
fe688600
0055d716
ffbc7400
006d8e34
ffe40100
ffa8ab00
00d3d0ae
0068a50b
002cf230
ffd68700
00ec4857
ff25bf00
009dc120
00628824
00196b1e
00609e60
ff7a6000
006f2870
ffeab600
0071a1fa
0122213e
ffa85500
00335b00
ffe97a00
007298e8
002b415b
ffde1c00
ffcb7c00
00885295
0022d5bf
ff58cd00
004ac37e
001bc0de
ffdf2800
ffe29600
ffc64900
ffe13f00
003fb988
001ec05e
ffd30e00
01869008
ffb24500
002cd44c
002a6cfa
001c468d
ff00e400
ffa6b400
ffb21300
00604368
ffa91500
00698153
ffa63100
ff715600
ffe63400
005b6dbd
ffa77a00
0039b151
0048cb28
00e4952c
ffa8ad00
ff9a2200
00ff27f0
fff85e00
000edc8b
00022bfc
ff9e7e00
001a7504
ff7eb400
0054a73b
00b03273
00c4987f
ffe40a00
ffc78f00
ffdb4c00
ffed3e00
009e1a97
ff6fd700
ff94c800
00553e68
00306362
00882793
00588d6e
001e6f8e
fffaa200
001039c2
ff917300
ff602800
ffd58a00
00062765
0041a818
00507976
ffe0b200
0026bdb1
ff88b800
002207b0
ff4e3e00
009c4502
0014f07a
0062f23e
ffa29c00
020bf43c
000fa245
002c7f5a
000ebec4
ff693e00
001f62f0
ffc03200
ff049000
00ace1e3
ffd9c100
ffb2a500
ffd28900
ff63a200
ff766e00
003a1d9e
ffa41500
fff72900
ff9ad800
00220c3a
ff943c00
fffebe00
fffdad00
002e0bdc
004da906
ff5ada00
ff801e00
ffae1d00
004972a2
0021a862
ff828b00
ffbf9f00
ff6b5600
ffd72a00
ffab5800
ff68a000
ff95d500
ff5a8100
ffe44000
00401d5e
ffc8b900
0014cefa
00d27e96
ffae0300
000b1532
ff750100
0097d020
ff9b7f00
0020e0b9
0043471d
ff719f00
011eb11e
ff87f400
fffec400
0023c97e
ff4e1a00
ff674900
ffc6a800
fff8b400
0086b121
0018db7e
fffe3400
0083f64e
007f6661
ffadf400
000c5321
ffdd2800
ffc28300
ff5ae600
006d991f
ffb06800
ffd71200
ff6ada00
00978672
008b4db6
004a1069
ff948700
ffd15e00
008e6893
001bf436
00035074
00c37380
003d59f1
0082d1e5
00040f2e
fff76800
ffb93e00
003a7f0a
001b7f43
007cf92c
ffa6dc00
00a29564
ffeadd00
00241dba
00b482b9
ff9fa100
ffddbd00
ffb1ed00
0016e2fa
ffbc6200
ff744d00
006d3162
007bfcc6
ff88d300
00cae8a7
00521a3c
ff63a200
ff1a2b00
000c4faf
ff917300
0040b376
004d419e
ffc9bf00
ffdf2e00
ffd56300
ff95e100
ffff2a00
009f4888
ff42d300
00d04b67
fecf9d00
00425bcb
00dbcbc2
ffe4a800
00af0a5c
ffe71d00
ff303000
ffe66c00
fff7d400
ffd56400
ff6ed300
003c0749
ffe48b00
ffd47200
ff9f1500
005d2230
ff871c00
00a2ae99
00237787
007769ff
007b1afc
00c62737
ff742000
0063f1ea
ff903800
ffb72f00
002f7544
012b47a0
ffec4300
0033bdf7
002ba3a8
00a41725
ffa36900
ff89e500
ffbb0a00
ffa96f00
00a20992
ff6c9000
0066349e
ffffa400
008cbfec
ffb66300
0149b9f2
ffb27a00
01be30fc
ff356d00
ff28fc00
ff9f4400
00369cf8
ff871200
00822bac
ffedaf00
00148294
005d105b
00853994
002678b5
ff3fcf00
001029ae
0014cf14
ffbb4400
feedf000
ffc7da00
0119cf0c
ff29ab00
0066e626
ffbdc300
feb2c300
ff84ed00
fff03f00
005d0fe8
ffb45900
002c3c7e
ffd5ce00
0083167c
0082af2d
002f2bf2
ffd42700
ffa59600
007f6b52
0004bbd2
00035561
0050f33a
ffa2c600
ffddc600
ff811300
00bb863a
0060d362
007f763a
000614aa
ff894300
007551be
ffe8b200
002a0af6
00a31de1
012c63ee
fffd3b00
001da9a1
ff88be00
008fdb65
ff8d5600
ffd96200
ffc9ff00
0073127a
0019bf76
013d85ee
ffed4600
0008f55b
fe60e200
00772d4b
00b43500
001e69d3
ffb5ad00
ff9cf400
ffa95500
003fd8d4
0012cf38
ff8c1d00
00006963
ffcc1a00
00a3a4de
001a4705
ffb9ea00
012bdbe2
ff049d00
00d274a9
00d37462
ff6fc500
ffa25500
ffbe1500
003f35f8
0019b0b1
009160c4
ffefca00
003b6d0c
ffdb9200
000a992c
0096d71f
ffcdbc00
005c7e94
0049e8e0
00a6c442
00bb8ce9
feb77e00
00687a2a
fef0c100
ffef5e00
00994bde
00f08b8a
ff993a00
ff74a500
001086c9
ffd34c00
ffaa1500
008601d0
008bcc79
ffce6e00
ffc68200
febe3200
ffd87000
fff8cd00
ffc20b00
ffcbeb00
00b0f225
ffada000
01303672
ff260700
fed59600
feaa4f00
0136cca2
005830de
008c1562
008790df
ff74d200
004a3ed3
001bc917
ffc9b600
0001b139
ff5d0300
0110585c
00db76ae
ff8e5700
ff8e1900
fff08400
ffe58700
001d374c
00c780ed
fef03f00
004a55e8
006bb006
fff81f00
00a176d1
003f1667
0068c0d3
ffd1c000
ffeefd00
009437c4
00509f76
ff518600
00799e1a
009fe294
ffcf5200
008a9fa3
fedb7f00
0089c218
ff43fb00
00deccde
001cb552
011d1838
ffb99a00
ff97c900
00a5ba7c
009f690c
004d37f3
00127207
0037d587
ff9cb800
ffd09f00
ff6de300
ffe75500
005995b6
ff67f200
ffdf7e00
007d4197
ffc2ab00
00f5b0d3
00071819
feaa0a00
fef71000
00a4757c
ff20f700
00ee7156
0069902c
003e5d29
006ac8c2
007d6600
ffdeae00
ff5eda00
feb5ae00
0019b866
008ee944
fecf2e00
ff7d0700
0076b656
ff66ae00
000e1429
00c9b461
ff2a0b00
00b13dad
ffd5b200
ff84a100
0047a441
008e388a
ff875000
0043763f
00216a6a
0054a8aa
009dbe49
005892df
ffac7200
ffcf9d00
00a5ab88
0016bd93
fe84e800
0101316c
ffa93000
ffa33600
010b914e
00756f96
0009d709
005107de
fffb8e00
00528c28
00a4165d
ff61b800
0125e3e4
0066346a
001f81fa
ffc88e00
0000ca20
007c1d44
fece7f00
ffc55800
00e56716
003afe3a
ffc42200
005d6656
ff2f8200
007186a5
003bd244
0064699c
ff560a00
00872ad9
00c6d5a7
ffba7a00
006223d0
ffcc6700
0016606b
ffa67d00
ffa10200
001dcded
004ef7b0
00a990a0
00371f9b
00d970f3
ff83f500
01225d22
ff2dd900
00d2c4c9
fece4600
ffa79600
00ac8d41
ff9c8800
ff6af200
00455466
ffaeaa00
ffc6e600
002f140b
ffbe3300
ffab5e00
ff5a3400
00ef60f4
fea32700
ff57bb00
0162778e
ffcdba00
001cb46f
008fcdd6
fff62e00
01041ffc
00fe7cfc
ff833000
ff7a7300
0078e100
0072837a
006a4db0
000b1338
ffa1fd00
0003dc20
000b252c
008a8e93
ff2fbf00
00926e14
00c6bdfe
ff9e8600
005b9fc8
0063f2ce
ffd22700
ff642800
ff5a1000
ff630d00
ffa55300
ffd8ae00
0197c86e
ff194300
0039fdd6
00ac6ab4
ffc4f500
0072493c
fecec300
ff5ea600
00b0f9ba
018474f8
00b3abc2
ffa55900
ffb52800
004677c4
0028ede2
00692f4a
fed56200
ffa67200
ff974b00
ffb67900
008ba479
ff820200
0027b768
ffd4cf00
003c83b8
ff80c800
00ae1787
ff949200
ffd22e00
ff079000
004654ca
008dbbdb
0091ed22
007c001d
ffe9d200
00196216
ffabd000
001d9a38
ffb48b00
0096c2bc
00b1d290
ff9bde00
00ddc491
fffe9400
ffd64400
ff8fef00
0055b6ed
00046795
00986d48
010747f2
00ab73c7
ff782a00
ff4a4c00
ffed9a00
ffa99700
fff71400
ff006600
00062fcc
00b1c3ad
fff9ed00
fff78700
ffb48100
ff644400
001219ca
00b33a39
007498a7
ffe6d900
ff5a1600
00e81936
0169f454
ff21ca00
001a21ec
ff5d4d00
ffa9a400
ff2ab900
ffaedd00
ff19cb00
ffd31700
ffc5d800
006b40a6
ff6f1200
ffec1f00
003e5919
00609bf8
00907c35
ff7cea00
fff26f00
ff904500
ffadec00
fe501400
00c5259f
ffc1bf00
00b2c1b5
00a68a12
ff9c4600
00c91fe1
008d2f91
0036f5ce
005308e2
00d1aa17
ffbf5a00
fff9cf00
00309b9c
004dae3c
0076bb1e
00113234
0030ade8
0001cbc5
00494a6b
0059462a
ff46dd00
00795056
0012b172
002f0cfb
000b3187
ff711800
ff3f7300
002188c3
00e62d42
0075191d
ff859f00
ffb18d00
00592b20
ff75a200
0031de73
0088fb12
ffdb9f00
ff60f400
00844c39
020771d0
fe684100
00389f04
feeb3c00
001cd5a7
ffdbb100
ff6f2e00
ff4a2100
fff70700
00a8de97
0053734f
00386c00
ffee5e00
fffd9200
009fddf1
ffc30d00
ff760500
002af8cc
00ac153b
ff8a8a00
fec8b200
0151e42c
00780862
00ef6d00
009ffa4f
ff8bac00
00415004
0041d9fd
00596e8e
ff9a5c00
003aa4f5
00278d3e
ff6c3800
001db1ab
ff5faf00
0091611f
ff453200
00360636
008c48dd
00d3169c
011cac86
0029429e
ffda1a00
001faac2
00337e97
00807358
0050ea72
00062913
000efab4
fff3c300
00072e95
ffe34000
ff54d800
00ed735d
ff93b300
001f8852
00af7abb
ffbd3200
00237130
fffecc00
0139d976
ff722600
ff764100
fff29a00
ffd82000
ff9c7c00
ffecd200
ffee7a00
00167144
ff6f5400
ff5f7f00
ffac5d00
003d2824
002a6d64
000f6fd3
fffddb00
fffeec00
fffbc700
003d96c1
ffe28000
ff806e00
ffc67400
002e40a3
001a7d9e
ff615200
ff5b1200
ffe3fe00
ff9e4600
ffb6bc00
0056b470
ffd67200
ff1ec800
0074ac09
ffff7200
fffd1a00
004bc28e
003ced1c
ffb4c800
001d551c
00a4f653
00454ca6
00546c45
004594a3
00945b0b
001f5cbc
ff78aa00
00913099
ff753400
ffb4e600
00cd0375
000d98ed
00326032
ff593200
00b21183
ffa5b300
ff208600
ffca5700
ff53e800
004ab1e9
006acf2c
007fe64b
00076b6c
ff8a7400
ff892600
ffb8b100
ff5f1e00
002d1313
ffe07000
0009c25a
0004e072
002d5940
ffce5700
0003e4e6
0087cb87
ff7e7a00
00688568
00350cee
0092ed31
fff0b200
ffc98c00
0055e58e
ffa93b00
0081b78a
001aefa9
000d5e1a
009c9381
003b4ee6
ff5f1e00
ff586400
ffc0df00
fff88900
00444465
ff978900
fff92e00
00ac20f1
fffd9300
ff966b00
000a9289
fff55700
00994ec5
00bdba5d
ff8d1000
00698b20
ffe53600
ff7ac300
ff869f00
fff36b00
00123783
fff65900
ffaa2700
00556855
ffee2c00
ff6a1500
0020c7c0
ffd21600
001faf97
00277ad2
ff7fcd00
ff8f2500
ffd49d00
0024029d
00332689
ff954500
ffe55200
0045db62
ff29db00
0000b9e7
ffcdfa00
00524d35
004d928c
0099dddc
00014740
00476aa4
003ec4c7
ffa3af00
00157a1f
ff839c00
ffda6500
ff8c3600
001c61c4
005fdec8
ffcdbd00
ff6a9d00
ffbd6d00
ff4ce900
0024322c
ffdb2900
ffe0fa00
ffa82b00
ffc42e00
0086b0e6
ffa1f900
004f7a31
0040acb4
ffc1c500
ffcaf500
ff5afe00
0031bc32
004a1dc0
00d967c5
ff9a3400
003b5a4a
ff3b2900
003daec2
00228143
ffbd5f00
0048c7bf
ffe8fa00
006477ce
00fdafa6
0045b3be
ffcd0900
ff739400
00134dc0
000f6ed7
00871c8c
ffbfa600
ffaf0d00
001ff7ab
0061c7a4
ffab3f00
005cfb4d
ffd6ec00
00054cfe
ff937f00
ff2fd300
006e4318
0037e11c
ffcfde00
005da3ac
001e65d3
ffb6bb00
0047e335
005190c5
000c1dfa
ff795300
ff8f1100
ffe4c800
00439aef
00493ced
007bd6c5
fff97e00
ff39b100
ff872700
ffdfc500
0045df63
0062bc7a
ffe16900
ff821d00
ffd82600
ffbd2200
0035cbbe
00a64542
ff7d1f00
0064f68b
ffa1f600
ff3ea700
ff7bbc00
ffa42f00
007930bf
ff14ae00
008d810b
ff0ef300
003b91d5
008abbd1
0027aedf
0021c9c6
004298f8
ff6dc500
0058e3d3
002fdd1a
003b0eb0
ffc0b300
00123878
0012e122
ff870a00
ff02f200
ffb70600
00c437c4
0060f5c4
ffded800
00843a32
001e32ee
00a55dac
004489e0
fee57f00
00748cf5
ff2ab600
fff2f100
006df9bd
ff903500
007ef04e
ffa72d00
0058c558
ffb61a00
00299dfc
ffa40a00
ff5b3b00
0072d640
ffa8f100
ffbc1700
ffac3000
001063a8
ffc20000
ffa3c300
ffe3d500
0086b247
00231e98
ff7c3800
009d2d07
0049d1e6
ff418900
0000aa1a
ff86e200
ffed8c00
fff45000
00847755
ff7c6b00
ff9dcc00
0153cd80
000b4334
006109f3
fff87500
006effac
ff545c00
ff4d2700
ff3d4a00
00471ac4
ff9cb800
00298c0a
ff63d700
008c1dff
ff2a9600
00216bb6
005f87c2
0065ef3a
fec33900
fffb5100
0002ec1d
ffe74c00
ffffa900
ffb88b00
ff2ad200
002c6042
0063969e
fe80f600
0136341c
ff32a000
ff806100
ffe4b400
ffe8de00
ff6f8e00
ffa0bb00
ff673500
00617dca
fffd7a00
ff91e800
0001e06b
00377a0e
00a34eb1
ffee9000
ffa3a600
006afd61
0045ac9e
004a4478
00ee9b0a
00491b56
0040ca94
ff75c300
00fdd7a3
0077c3e0
ffdcff00
00430184
003748e1
ffec6300
ffc88c00
000e4eba
ffbe0400
00ffc2fe
0046c3e7
00b869a0
00e71bcf
ff0b8e00
00c64774
00a4dab8
ff06a400
ff86ce00
00d9e32f
00900ba0
008e0cf7
ff04a200
0085257c
ffc9ba00
00fda19e
009235bc
fff27700
fe00de00
00fc4c02
00ecaca1
ff9db300
00246da7
fefea600
ff8e3200
001569cc
00b7636c
feb17600
00f332dc
ff289b00
005fa87c
ffda4800
fff77200
003ea5dd
ffa85700
ffbe3600
ffcb1500
ffd00400
ff8e4400
ff84a700
ffa1b200
006db826
ffd12900
ff175a00
00d08894
ffa0e700
002bd128
0159b566
ff11f300
ffb4cd00
00146aea
00bd20c9
ff1cf500
00200133
00208ff6
ffbaf200
0043cc18
0040dcf2
ff38da00
ffdc1900
0003f0a9
ffafbe00
fff81000
009e0843
fff52700
010233ce
00b1f8e7
ff11bd00
fff6ae00
ff8dc700
007f4779
ff800c00
ff94bc00
00fc2c03
ff80de00
00a4309e
0030d865
ff271400
fed40200
005a6b4f
004b4cfa
006a3adc
0038cfe9
ff569300
ffa24200
ff749800
0173827e
fed48b00
0098c62e
ff883b00
ffbb4b00
004f8811
00622592
0090deb9
ff7ce700
00713cf5
ffd51000
ffb6cf00
003455a0
ffea1500
ff832c00
0029b23b
feeb3f00
ff66a400
00765d14
ff88f400
ff822c00
00e70831
ff859f00
007015a0
ff87e500
ffab0c00
ff9ee900
000871c7
00500f3a
0024687c
ffac5e00
00752566
ff716c00
00aa69d6
00640241
ff0a1f00
008df9db
00415e8f
fec8fe00
ffee2c00
01507b6a
fee10b00
001cc9fe
fee80500
fff69400
0062a805
004ecd2e
01670502
ff473f00
00f048e4
000e2eb5
fecc9100
003f9566
ffb1bc00
003cbe5c
0071ac98
008c1dec
ff400400
001bda43
ff620100
013a2ccc
ffb93d00
fff71f00
ff739b00
001df9bc
00881b72
00a3f0f3
009661c9
0020f4f2
0041401c
00a1dcfa
00922db9
0012f647
003aeeda
ff98e800
0085674f
fe8d8200
ff72a400
0106baec
00332839
ff915900
01376b26
ff6b5500
008244f5
ffa1a200
ffe52a00
ffb03400
ffa58600
00246156
006f5adf
fff16600
003a240c
00c13c36
001005a3
0057c8d7
0065173c
00965ac3
00cf83dc
ff1a0000
005c6c47
0067c2ca
ff61c200
0089ac7d
fec84000
0038c98f
ffc68b00
00011cc3
011846bc
fef93800
0108f916
00da52db
fedfc800
ffd95400
ff7a7000
ff397c00
0187e2e2
011ce116
ff266e00
00569ae6
fedcd500
007d8a6e
ffb20400
001845bd
00584073
ff91a100
ff74f700
004d017e
ffc32600
ff73a700
002a5420
0063819e
ff815e00
ff82b100
001a23d5
fec8cf00
0011a182
ffad1200
0018af4a
00944941
006741fe
ffaaf000
00d3f283
00471054
005d61aa
ffcef000
0073f664
ff6e4000
00454ae6
0040f2f8
0073dc14
008b9d37
003e777f
00b40d7f
ffa5f800
0039b4b4
005d8310
013617d0
ff6d0f00
ff7c1600
ffb5f200
006a3c52
fede7500
ffccfc00
ffbbea00
ffd62600
00e321fc
00b24179
00498158
0028ba78
0091c56a
ffc27300
ff7caf00
fffe0e00
ff2baa00
ff755f00
0105157c
02364edc
ff255500
011cbf4c
ff7ccf00
008718ea
ffab3100
ff1f4700
ff9c2100
0015cc62
ff63f600
ff7a9800
ffeebb00
00116c34
004e4a60
001be636
003cd7ee
00700a74
ffc63700
ff42d100
00ac8fb8
fee9f200
00353336
0119466c
ffc84f00
ffa54d00
00315054
0009be49
fffb5400
00960c98
ffda8300
ffeb7400
ff955500
0059ba44
ff916e00
ffb52d00
ffb7a100
001b67f4
fefa3c00
001b6b5f
008b2d1f
0040f0e1
ff950900
00689b27
00611618
003c0d72
ff2bb100
ffb54200
ff150700
ff80a300
00d266eb
006956ee
0105fd34
005985bb
002a0683
ff849a00
ff94e400
005691fd
ffeea700
ff61cd00
00a8c1cc
01b36eac
fecaff00
0004192c
003c6c04
ffff9a00
ff24e700
ff852f00
008dea62
ffd29600
ff9ea700
ff9ba400
ff61bc00
00a31d8a
003583ea
ffba1900
006b12fd
0004a9df
ff990300
ffa5dc00
ffcba800
fff16c00
009389b5
005b8f30
00e801d4
ff7e8700
fecd3e00
0078e964
ffcc1900
00946ba0
00d7d678
006b99ea
ff321d00
008046b3
008c462e
009d85d5
fff05300
0046508a
ff8d0a00
ffcdc100
0033081a
0103ae00
002ac641
007d37df
ffdf1400
0052abf5
ff8b2500
ff91e500
00033963
0071a82c
ff7aba00
ffd25c00
ff992600
00608823
00137bf6
003400f0
fed30700
00432bfc
008e8dd6
ff886b00
0020f4cf
00d8630c
ffb9f400
0098cfff
ffb6cd00
ffafc200
ffb68b00
fffb5100
009ec947
000f846a
007b9cfb
ffcd6100
ff709d00
ff734800
0058bf2c
00a83857
003dd8f6
00015795
ff683000
ff80f300
ffb30300
ff9d1000
005edc8a
ffdbad00
00ec88d3
ffc28200
003f9cac
ffb00f00
ffed0600
ffb93f00
005c27a5
00a1e13e
ffd09a00
ffe97f00
ffbdc400
00a03da2
001e22a5
ffaa6000
ffac2900
00921a9f
ff769600
0047d43a
ffad3d00
ffcc0600
00848e87
00a037c2
ff3d8900
00a9b689
ffb0e900
fff19700
0021c548
ffe5a300
ff4bf700
00214d15
00550621
ff51ae00
ff30ca00
ffa75600
006a8fee
ff5e2300
ffb0f100
00158327
ff355400
ff731c00
00b8b622
ff575900
00715067
ff523600
ffda3000
ffb9ed00
0016a46c
000126f3
ffed0300
ff767500
007c5f08
ffe55000
005bc36a
ffbf5d00
005e72b9
ff8db200
ffdbd300
006bd7a8
ff79ae00
ffc36200
ffe6e200
00739ac0
ff755f00
ff6c5600
ffbf1f00
ffbdbf00
00c620cf
ff6ca900
ff44ff00
0054991a
ff8e5200
fffbb300
ff488400
00047411
0092108c
0061810c
ffdd9000
ffe2fc00
ffde6c00
ff7c2500
0069634b
00162f34
0055b4c8
ff54a000
fff23400
00141f94
ffb68900
0011d616
00c5aa68
0005cccf
ff92c700
006a15d6
001e39ff
fffbf800
008e2b18
ff66af00
ff7e7e00
001fc5da
007a237a
ff760300
005c612a
ff589800
005b53b3
ffd36000
ff587600
ff89dc00
ffd75000
ffe5a500
0014e324
003873c1
ffa27e00
ff631800
ff848c00
0053926a
004ea0a4
ff7e2c00
ffdd0000
ffd24a00
00e283ab
008883e5
0099b2d2
ffee0200
00bd462f
ffdbd100
ffe99100
007597b0
002ed936
003ac3fb
007465e6
000bd1b8
ff82fe00
0018dfb3
ff9a9a00
009d08e0
005d6e83
0034e952
002b3c5a
001f2b2e
ffb57300
ff70ff00
00637b64
ff459200
ffc3c100
00054330
004df734
00077d85
00be4962
ff857800
00838c13
ff9c1400
ff737c00
ff321700
0057e7e6
ff596900
00088232
ffe3fd00
00d0d4aa
0019c795
004c6c1e
ff662b00
ffacdf00
003780b5
00b71872
ff063b00
ffc1c500
005d766f
ff5e5300
ffb8d800
0023e452
ff8fbc00
ffac2800
0046bda8
ffdb9100
00b09e4e
ff52ca00
000a66f8
003eb0b1
ff602c00
00da8ee0
ff768c00
ff5f8c00
ffb57600
003ff3b2
ffe47e00
ff9db100
ff6d6300
ffc10d00
ffdd7f00
ff82d900
00283896
0056db8f
0022fa42
ffcd3900
ffaa2000
ff509700
00d0247b
0065ba2e
fff7e000
0003b7c8
000759fb
001b0009
0045ad91
0046c8d6
002872b1
ffc0d900
ff7dbb00
fff68500
ff51ff00
00884cdd
ffc16600
0004d511
0002003e
0054a284
ff000300
0061c89c
001b2ab7
000e3786
00a8f874
001061d6
ff2ef600
ffc04800
ff66d600
ffbf6e00
0053d544
ff9e2000
ff8f4f00
ffb08500
00abb5bc
004c80be
001746c9
007328d2
0028ab9e
ffc0fb00
009ae0a5
ffa2bb00
ffd22b00
ffe8f600
fffda300
ffa08c00
fffe8b00
ff7d5300
ff10c000
00966a29
ffe1ab00
fff08900
0062119a
005367f6
002d1262
ff70d500
ff6ae700
005abc12
001477fc
ff9d9f00
ff6ddc00
ff733f00
00ad27e8
ff795d00
0095e2d8
00125fea
ff7beb00
002c8616
ff585500
002364eb
008621c4
001e910d
fff96b00
ff6f3800
ff93bc00
006a8d63
0083ea79
00cc138d
fff4f400
ffc1f200
ff0b1a00
ffeb4c00
0001cab7
005b0ba0
0049bac0
0047a40c
0049eb2e
004bcc18
ff132200
ff01cd00
0051783e
ff045000
ff8fc600
fff21a00
ff83c600
003f5cd9
ffb16a00
00449c17
00369a30
ff58ce00
ff919b00
ffc7a900
ffbe2500
0087dbe9
ff4dcc00
0043031e
ffedc900
ffa58300
ff9de200
00d6285f
ff16a500
010aa62a
00252d14
003b6e70
0083a99c
ffd9f100
ff742f00
000f0b2d
00032477
007cc341
ff800700
0035a7ee
fffdc700
ff2a2c00
00ae1f56
ffd72f00
ffb51d00
009272b9
ff76b500
fed1e200
0087d0fa
00ac7b1c
ffa79c00
ff546700
ff99c400
01862a54
ffc4c700
00062ff8
ff513f00
ff1ae600
ffcfa200
00cb56f2
006fc628
0012bba0
001d372d
ffcad600
ff64af00
007a8878
006eb81c
fff1c100
003bae31
ffe11300
ff997200
007d650d
0030ab9a
007b8f6f
009cb374
ff7d4e00
ffeb4900
0092461f
ff5bef00
006f88c1
ff8cc500
ff677200
ffe05e00
000b2610
00086151
ff93ec00
0039be46
00ea2079
ff8ae200
00dab22a
000df59e
00c9d8a3
ffea8600
ff848d00
00790f9e
ffd5a600
ffec5b00
ffb0f300
003affbf
003d7e6d
0148c9a6
002447b4
ffc9ff00
00d35d84
fffaf500
00cb94d6
001eb514
fe609f00
01407fdc
fed05f00
00003f0a
ffdecc00
0082b0c2
0111f112
ff49ef00
00346302
fffa8300
ffaaec00
ffb5dd00
0023d724
009015af
003143b2
000fd539
ff86a900
ffc8db00
ffcbbe00
0093c004
ff579a00
00f388d8
ffa55200
ff613600
008c3000
ff607000
ffc74300
003a44dc
fffed300
ff85ff00
00a19589
ff8fce00
ff633900
001a4784
0069fc1a
ff147600
002bccb8
0037c4b1
0013ef0a
0003891f
0161a788
ff93be00
00dda54f
ffe3c000
ffabad00
ff453900
0059d4f7
00d2dfb4
0092806c
ffdbba00
ff37fe00
ffd68f00
ff8cc000
0058698d
ffcfd300
00ae9d16
0088d280
fefba700
004f9c79
ffe04a00
ff350b00
00ea5d0a
ffa93300
000d5f5c
ffccf900
ffd69200
0073014c
ffe17400
00efd235
ff7d9000
ff120b00
0033ec75
fefdd100
005f4562
ff662f00
0111ec10
ff56ae00
0050656a
ff528b00
ffbb6700
ffed4100
00a1f91b
ff783700
ffb66200
006acf04
ff686500
0076e10e
003b1e70
00696524
ffc08700
ff5d8a00
ffaf9400
ffc47300
ff914600
ff49eb00
ffddd500
ffbca900
004e083c
ffba3f00
ff886600
01df91cc
00377bb4
018c0394
ffa6b200
00ad5e89
009bc743
ff453200
00f34b50
fff40900
00b5091b
ffc6c400
ff6a9a00
ff3dde00
0049d422
fffbe800
008bdea2
001ef0dd
ffa86800
ff744b00
001f2236
fecbb900
ffaa2900
feda5600
ffb37900
00098510
00748866
0066fe1d
ffa85700
00a36292
0037960c
0040856c
fff35100
ffa83a00
008c08be
002da1d9
00fcbd25
ff8ecb00
ff34f600
0018f5c6
004dd949
ff7b3000
00196efc
001c8887
ff773100
ff7c3b00
ffa4be00
ff4d0f00
00032b0a
0044b8ac
009b04a4
ffbc4000
00107686
006d839e
fec01400
ffc35f00
ffaf6500
fff48a00
ff9ae200
ff6a4800
001c0537
00e19954
ffc8d000
005ca158
00aa80d4
ff935b00
00ce3b17
00458650
00bde1ef
ffc3ab00
ff875400
0060f292
ff77b600
005cbb26
00481f64
00093c34
01a4703c
00208eb0
00665961
ff74ab00
ffe1a900
ff5da900
ff9f1600
ffcc9500
fffd5c00
00cce5d7
00415b91
fff41600
0022b8e7
004f09de
00a99b52
ff412800
000bdd9d
001eb5cf
ffeded00
010301b0
00ae191a
ff56af00
00be501e
ffae4f00
009a6367
ffaced00
ffb45700
000f8d1e
001247f2
006ce22f
0056cf7a
ffadf300
00a90545
008f9d0c
00018f9f
ff9e0a00
0068bec2
00537ddb
ff5fa600
ffab7a00
002c3f2e
fffd2000
00a692bc
002e2212
ff329e00
007af193
ff9f1000
008174b9
ffb06300
ffe88b00
00c85de1
004759d9
fff9b200
006beeba
0027f6fd
ffbdd300
ff30ed00
ffe3a500
0021bb52
00244d7f
006e9c5e
00b1a910
ffd11c00
fffc8c00
ff8e8d00
ffb3bf00
0074e15e
ffe8cc00
ff26ce00
0046101b
00aceab2
ffbf7400
0025375e
00b25a4b
fff2e200
fed2bd00
00a4d941
ffc60100
ff535600
00b36a93
00e6a5bd
ff531a00
0028bcbc
00925821
00569b54
ff4c6300
001d806f
005eb9e8
ff7c0b00
ffe7ca00
002618d1
fff5c200
005f4650
ffca7300
ff847800
ffd1d900
007a74b8
ff9a0d00
ff92ca00
008bd96c
001e5892
00048ac9
fff72000
fff0f600
00028791
0000bc93
ff894e00
00eed6e4
0066d9a2
ffc13e00
000a659f
ff9f3d00
00132812
ffd6f100
00668004
ff353000
ffb52c00
ff2f9800
ff693600
ffeb0c00
00cace05
ff62c300
007416ce
0025e489
00a40101
ff7f4d00
007f8a3b
0010e92c
0080cd76
002cd813
ffd3e800
ff933900
ffda1300
ffadf400
ff607400
ff9c1000
00010f8a
0125e360
ffe61600
ffb4bf00
ffb4d100
005d3c3e
00673730
00a0e88d
ffcf4100
ff7e7200
006f9878
007daa3e
00786910
0009322d
006df761
00402e28
ffe6c500
ffe32500
002470d6
00012192
ff8a4500
fff1e500
ff4ee700
ffdaa500
ffb75b00
ffc03d00
0045d706
00c0cf27
fffdb800
00551c52
ff6d4400
00bf19c4
ff872a00
00436b2e
ffd32700
ff5b4300
007c9d37
fffdb300
00a943ec
ffe00d00
ffd4ea00
ff74b200
00456d80
ff6e9f00
00108f05
00643d23
00075a61
ff8cd700
0030e5f1
ffa45e00
ff684a00
ffd39500
ff806f00
0034e4ac
ffcb9f00
ff88b300
ffae6100
008ee465
ffffad00
ff9c3000
003330db
ffa13100
ffa55c00
00757eba
ffc53a00
ff5ef100
ffc56300
006c78ca
001c2aed
00563b24
005683d9
002dae49
ffe8f200
001ac190
ffe02800
006766e6
0074b15a
004e2cda
ffe65200
ffdf3c00
00457230
009679ab
ffee5000
00276de1
0087ba2d
ffd2ee00
ff8b3d00
ff919e00
0076936a
0020ab72
00a2f93b
ff6a3600
ff7d8b00
001c6267
ffafa800
ffbc8e00
ff683700
008d477a
002dacf1
fffd1b00
ff964900
ff9fa800
