00000000
00000000
00000000
00000000
00000000
00000000
00000000
00000000
00000000
00000000
00000000
00000000
00000000
00000000
00000000
00000000
00000000
00000000
00000000
00000000
00000000
00000000
00000000
00000000
00000000
00000000
00000000
00000000
00000000
00000000
00000000
00000000
00000000
00000000
00000000
00000000
00000000
00000000
00000000
00000000
00000000
00000000
00000000
00000000
00000000
00000000
00000000
00000000
00000000
00000000
00000000
00000000
00000000
00000000
00000000
00000000
00000000
00000000
00000000
00000000
00000000
00000000
00000000
00000000
00000000
00000000
00000000
00000000
00000000
00000000
00080808
00080808
00080808
00080808
00080808
00000000
00000000
00000000
00000000
00000000
00000000
00000000
00000000
00000000
00000000
00000000
00000000
00000000
00000000
00000000
00000000
00000000
00000000
00000000
00000000
00000000
00080808
00000000
00000000
00000000
00000000
00000000
00000000
00000000
00000000
00000000
00000000
00000000
00000000
00000000
00000000
00000000
00000000
00000000
00000000
00000000
00000000
00000000
00000000
00000000
00000000
00000000
00080808
00080808
00000000
00000000
00505050
00b0b0b1
00c0c0c1
00b8b8b9
00909091
00282828
00080808
00000000
00000000
00000000
00000000
00000000
00000000
00000000
00000000
00000000
00000000
00000000
00000000
00000000
00000000
00000000
00000000
00000000
00000000
00000000
00585858
01a9a9aa
044c4c4c
074f4f4f
079f9fa0
078f8f90
06666666
02eaeaeb
00181818
00000000
00080808
00000000
00000000
00000000
00000000
00000000
00000000
00000000
00000000
00000000
00000000
00000000
00000000
00000000
00000000
00080808
00585858
0189898a
04a4a4a5
070f0f0f
07c7c7c8
08000000
08000000
08000000
08000000
06aeaeaf
01818182
00000000
00000000
00000000
00000000
00000000
00000000
00000000
00000000
00000000
00000000
00000000
00000000
00000000
00000000
00080808
00000000
00383838
04040404
077f7f7f
07dfdfe0
08000000
07e7e7e8
066e6e6e
05bdbdbe
05c5c5c6
06969697
07e7e7e8
064e4e4e
00686868
00000000
00080808
00000000
00000000
00000000
00000000
00000000
00000000
00000000
00000000
00000000
00000000
00000000
00080808
00000000
00b0b0b1
06666666
08000000
07f7f7f8
07b7b7b8
05ededee
0199999a
00484848
00404040
02020202
07979798
07979798
00e8e8e9
00000000
00080808
00000000
00000000
00000000
00000000
00000000
00000000
00000000
00000000
00000000
00000000
00000000
00000000
00000000
0189898a
069e9e9f
066e6e6e
05cdcdce
04dcdcdd
02020202
04646464
01616161
00000000
00909091
07676767
07cfcfd0
02fafafb
00181818
00000000
00000000
00000000
00000000
00000000
00000000
00000000
00000000
00000000
00000000
00000000
00000000
00000000
00000000
00303030
01414141
00c0c0c1
00202020
00585858
03434343
070f0f0f
01f9f9fa
00484848
02f2f2f3
07afafb0
07a7a7a8
01313131
00000000
00080808
00000000
00000000
00000000
00000000
00000000
00000000
00000000
00000000
00000000
00000000
00000000
00000000
00000000
00000000
00000000
00181818
00202020
00383838
027a7a7a
063e3e3e
02525252
03b3b3b4
070f0f0f
08000000
066e6e6e
00808081
00000000
00080808
00000000
00000000
00000000
00000000
00000000
00000000
00000000
00000000
00000000
00000000
00000000
00000000
00000000
00000000
00282828
023a3a3a
039b9b9c
02f2f2f3
025a5a5a
07474747
075f5f5f
07b7b7b8
07f7f7f8
06c6c6c7
01e1e1e2
00080808
00000000
00000000
00000000
00000000
00000000
00000000
00000000
00000000
00000000
00000000
00000000
00000000
00000000
00000000
00080808
00000000
00585858
04c4c4c5
07bfbfc0
07d7d7d8
07b7b7b8
07efeff0
07f7f7f8
07f7f7f8
06fefeff
03c3c3c4
00383838
00000000
00080808
00000000
00000000
00000000
00000000
00000000
00000000
00000000
00000000
00000000
00000000
00000000
00000000
00000000
00080808
00000000
00585858
04b4b4b5
07cfcfd0
08000000
08000000
07f7f7f8
07d7d7d8
05ddddde
022a2a2a
00585858
00000000
00000000
00000000
00000000
00000000
00000000
00000000
00000000
00000000
00000000
00000000
00000000
00000000
00000000
00080808
00080808
00000000
00000000
00181818
02424242
05757575
06363636
07373737
07e7e7e8
07b7b7b8
02d2d2d3
00181818
00000000
00000000
00000000
00000000
00000000
00000000
00000000
00000000
00000000
00000000
00000000
00000000
00000000
00000000
00000000
00000000
00000000
00000000
00000000
00000000
00202020
00606060
00888889
01c1c1c2
05151515
07afafb0
05fdfdfe
01191919
00000000
00000000
00000000
00000000
00000000
00000000
00000000
00000000
00000000
00000000
00000000
00000000
00000000
00000000
00202020
00e0e0e1
00707070
00000000
00000000
00000000
00000000
00000000
00000000
00000000
00888889
05454545
07afafb0
039b9b9c
00282828
00000000
00080808
00000000
00000000
00000000
00000000
00000000
00000000
00000000
00000000
00000000
00000000
00101010
02424242
05bdbdbe
043c3c3c
00383838
00000000
00080808
00000000
00080808
00101010
00000000
00000000
027a7a7a
07676767
04d4d4d5
00484848
00000000
00080808
00000000
00000000
00000000
00000000
00000000
00000000
00000000
00000000
00000000
00000000
01292929
062e2e2e
05b5b5b6
00b0b0b1
00000000
00080808
00080808
00000000
00000000
00000000
00000000
00e8e8e9
05f5f5f6
07dfdfe0
04bcbcbd
00505050
00000000
00080808
00000000
00000000
00000000
00000000
00000000
00000000
00000000
00080808
00000000
00484848
033b3b3b
077f7f7f
04cccccd
00383838
00000000
00000000
00000000
00000000
00202020
00686868
01c9c9ca
05f5f5f6
07f7f7f8
07979798
037b7b7b
00303030
00000000
00080808
00000000
00000000
00000000
00000000
00000000
00000000
00000000
00000000
00000000
00101010
01c1c1c2
076f6f6f
068e8e8f
03333333
01d9d9da
00808081
00787878
01717171
03232323
05656565
077f7f7f
08000000
07a7a7a8
047c7c7c
00787878
00000000
00080808
00000000
00000000
00000000
00000000
00000000
00000000
00000000
00000000
00000000
00080808
00000000
00585858
050d0d0d
07afafb0
07b7b7b8
07676767
061e1e1e
061e1e1e
06fefeff
07a7a7a8
07dfdfe0
07efeff0
076f6f6f
042c2c2c
00f0f0f1
00000000
00000000
00000000
00000000
00000000
00000000
00000000
00000000
00000000
00000000
00000000
00000000
00000000
00000000
00000000
01313131
06262626
08000000
08000000
08000000
07efeff0
08000000
07efeff0
076f6f6f
062e2e2e
02fafafb
00585858
00000000
00080808
00000000
00000000
00000000
00000000
00000000
00000000
00000000
00000000
00000000
00000000
00000000
00000000
00000000
00000000
00080808
01818182
04b4b4b5
05454545
07575757
05959596
05050505
04b4b4b5
01f9f9fa
00b8b8b9
00404040
00000000
00000000
00000000
00000000
00000000
00000000
00000000
00000000
00000000
00000000
00000000
00000000
00000000
00000000
00000000
00000000
00000000
00000000
00000000
00686868
00808081
00d8d8d9
00909091
00787878
00686868
00000000
00000000
00000000
00000000
00000000
00000000
00000000
00000000
00000000
00000000
00000000
00000000
00000000
00000000
00000000
00000000
00000000
00000000
00000000
00000000
00000000
00000000
00000000
00000000
00000000
00000000
00000000
00000000
00000000
00080808
00080808
00000000
00000000
00000000
00000000
00000000
00000000
00000000
00000000
00000000
00000000
00000000
00000000
00000000
00000000
00000000
00000000
00000000
00000000
00000000
00080808
00080808
00101010
00080808
00080808
00080808
00000000
00000000
00000000
00000000
00000000
00000000
00000000
00000000
00000000
00000000
00000000
00000000
00000000
00000000
00000000
03202710
02c20e9c
02b49a60
017e5a0e
ffa80500
035e1428
0234649c
00ede5d6
02131464
00e8fc2e
ff2eb500
ff851800
ff544a00
03707a28
02b616dc
fddb8500
fde9fa00
01e211cc
06b62790
056b3e68
00c95f8e
ff993300
01e0bd72
045625f8
0451e228
ffdcbc00
054a74a8
06456ce0
0642b630
053931d8
04692dd8
04f334d0
05940bf8
063c98d0
0600a308
06d25d30
ffcdaa00
ffb54800
007f7e10
ff5bd100
02885cf8
f896b500
fa188000
fa764400
fb544d00
fe97f900
f908fb00
fa9ca500
fb09ad00
fc9f9000
fd7e2d00
ff327d00
fbd0e400
fe252800
fc157b00
fe893700
01da8d74
fb9b2600
fd085500
ffc59300
0104ec90
01cb0868
fc5d0700
ff461800
0015edb5
01d710c4
0403bda8
004eac08
00d73874
024e8220
0304e7b8
0399d6e8
00b1c817
008167f9
036940a8
03d92254
041ad8f8
fe6c7200
fe370b00
fccdd700
fb8d7800
fc320c00
fc859500
fccf2d00
fc876700
fd0dbc00
fcc7d600
fc71e900
0049f7e6
fe7ae700
fdd34700
007ca580
020c0c98
00c745bb
027dd634
04282c18
04085110
03078498
046948e0
05cbec88
054f5730
02bfa1e0
0229e654
02a7cf7c
fc4b6300
fbdd5c00
fff4c900
045d4578
0338e040
fae85900
fbfd4e00
ff674500
05bee9e0
02b08a64
fae4f100
fc977400
045ef4c0
055928f0
0276d698
fa16fa00
00592935
03d6c728
048afb40
ff191b00
fcd19300
018a383c
04d250b8
02ffce4c
fd62c400
fe2d5200
fead4f00
ff3af700
0084734b
ff87d000
ff3bc400
0088752c
febe6700
fea3c700
00833764
ffb2fe00
00405cb4
fefc9100
fedcc800
003bf2ba
00f8654b
ffeb7f00
002dc4b3
feea5000
ff9a9d00
ff816100
feaf5500
01433b92
00168d3c
ffffa300
fec6ce00
ffbbc500
0097e1ac
fff3d800
ff9da600
0056bb58
001fe042
00119836
002eb7a8
ff795100
ffdac400
ff56fd00
ffebc000
ff7e3200
ff6dc300
ff814300
0057dff8
ff979e00
0054f6a9
00a69392
ff9f5e00
002b30ab
00289bfe
ffa53c00
ff59c300
ff809000
ff681700
fff65b00
fffc3000
ffcb7100
ff765b00
004c0946
ff9dfe00
0087a63d
001a369e
ff4a0600
ff711800
007b9c16
0096a04d
00b5c17f
ffa78800
ff696a00
00910b5d
ffecec00
004cd2c6
ff6d7000
004b2b9f
ffd15700
006ada2a
008212ae
00305749
0046a2a3
ffba9800
ffb37900
ff82ea00
00859624
ff589600
ff93a900
0071497e
ffd73200
ffb04600
ffc98100
0053b668
ffa25300
00462a3a
00179618
001f5836
ffac3600
ff8b6000
00659b30
007af7a7
ff4d5200
ff59d800
fff32700
001b67ee
ff688c00
0023cb5e
ff7b9f00
fff9ce00
ffd9a300
ffa38c00
00403408
ffdc6500
001cfd5c
ff4e5700
008a28f9
007595b7
ffc5fe00
ffe32d00
ff9dcc00
00886ff0
ff765e00
005f1bf8
ffd56600
00649d0e
ff61ca00
00102175
ffaf8900
00140c3f
ffcfe700
ffda9c00
ff6a0b00
ff462b00
ffd6ac00
ff91e400
ff9e5700
fff68400
ff4c5e00
008b14f2
0038d8b2
ffd17a00
ff73e400
003c96c3
0046e536
0055dc34
0054c88a
0006f9c0
00634a9b
000513a1
ffa4b000
006ed8c2
001f461e
0079717a
ff9bc100
004f6c14
009f2f4f
ff5b2e00
ffcce300
00173d1d
00825250
fffd0400
0008e7bb
00659cc7
ffa61500
ffa6f100
005ce381
ff55e000
ffc2e500
fff41f00
ffb37300
ff7cae00
0031e5b7
0091f30b
ff929600
ff994200
ffa82c00
ffb02300
ffacf200
009dd99d
ff9f5900
fff0cc00
00394ee3
ff5ba400
001c8a4c
005b84ea
002841fd
ff966e00
00a08661
ff86a100
ffb18100
ffe2bf00
0045a9a0
ff71ce00
0033fd42
001db868
0067389d
ff4b3f00
ffafbe00
00b07b5a
ffb86e00
ff9b3e00
fff97f00
ffee8800
0085eab8
fffca300
ffe3e000
007798f7
008c89de
004d7135
009d8b5f
ff8bc900
ff711100
ffe51700
0005b2c4
ff834600
0044f6c6
ffc21400
004fa7fe
00895930
ffece200
00145aba
000de94f
ff895500
fffa9500
00a6261d
ff7a2900
0015920d
ff56de00
ff7fae00
0010dbfd
00489450
ff59d400
ff8bda00
ff99b400
00925ba8
007d5396
00385fa8
006378ae
00bc082c
ff5df900
008e2f6b
0014d6e5
ff85f700
00d61ce4
ffa3cf00
fffad800
0043f462
00190835
fff02700
fff21a00
0024a47c
ff5d0200
fffc3f00
00789c56
ffe31200
002019b2
ffdb9900
0066ab7a
007e25ff
001adf44
00921bed
0076372d
0086d38e
ff7aa900
00802ff8
008bf580
ff775c00
ff9fc000
00727164
004ad3da
ffcdf600
ffbf2800
ff7e7200
004bc1dc
ffea8d00
0071a37f
ff736100
ffceb900
008f2571
ff662100
003c2d0b
003b7bfa
ffaa2e00
ffe1fa00
ffb7f800
ff8cee00
0011b39c
ff65b300
ffac3c00
ffc73b00
ff594500
0018d68c
ff81f900
00242f25
000b2d67
ffc44b00
00252fc8
00070940
00432f42
ff8e3200
00a907d5
008c83ac
0059265c
00002a77
ffce9600
002f5270
ffaa5d00
008f568f
ff737000
003835b2
fffadc00
003197dc
fff1c800
ff9df200
ffa5a600
009195fb
ffb2e300
005f7300
006f4848
ffaab200
009def08
00867e1b
fff34000
0065059a
ffbcf700
ffd9b300
ff858600
005e153d
ffe0d900
001a4596
0007ccef
00583c77
002a7baa
00a9b0b4
ff805e00
fffb8100
ff934c00
ff88d200
000ef308
ff20c200
ffbee000
ffb18100
fff5c600
ffd8b600
002f0e23
0013b5ff
ff7e0100
ff925300
ffdc2900
ff640b00
00860be7
007c5da8
00bd47c3
004df2d0
0041e9d6
ffd17600
002ef556
ffe21800
ffc50c00
002818ac
006df58e
ff8c4f00
fffd8600
00af7c32
ffd33500
ff9ce100
00584e50
fff77f00
000353ac
0072cece
ff9bf900
ffd1f500
0043f33e
00bf4d5d
ffc80500
fffbd800
00519716
005400ca
009e3bd9
ffbd4700
00072dd9
0073035c
ffbadb00
fff33a00
00590be6
ffb63200
ffc19500
ff82df00
000cf77b
009253ad
0007afa9
00224ee4
ff6ffc00
00e53735
003aa589
0040ed2a
ffa64d00
003d5347
003ca5ca
ff92d800
ffb25b00
ffadf200
0066e5f8
ffd98e00
001fdcd2
ff674500
ff3ea000
ffdb3400
00bbc555
0073bde4
005ce0e2
ffcd4800
005ba1b6
00ee91d1
ff814900
00c82e66
fff59700
fff67700
00b24aed
ff8ae400
00407bd0
ffe87a00
ff69a000
000540c7
ff332e00
ff895200
ffe08f00
004d6b64
ff95f000
ff64e600
004e0b90
ff338f00
ffb6f600
005373cc
000813a5
ff751500
ff8b0100
000eb547
fff2dd00
ffa7c100
0035be4b
ff555d00
00a11542
0035507a
ff711000
ff7abc00
ff7f6100
ffcf0300
ff605d00
008b132c
00911c1e
0001c439
00690a0c
0017c0c9
00902c10
002dd334
ff9fe100
01292988
00c5320f
ffe9e900
00552926
ff964200
00304b01
fff64900
0011e6c5
ffa08f00
005bb66f
ff6f5400
006bcd69
ffa16200
003157d1
ff9f5900
fffa7800
00b208ca
ffc06d00
004d77e6
ffb46400
00f7e7a9
006defb4
fff18b00
001b2e7e
fefe6300
001b4555
00e3be9b
001e5669
ff94a800
00876f3d
005952d6
00c8a970
ff954100
0019e734
ff9ded00
ff35ac00
00bcd1c5
ff27bb00
ffb1a400
00255875
fffa9e00
0045a42c
ff468400
0028900f
0030c6ce
001af9d5
ffad6d00
ff6a6200
ffdf9c00
00b1adcc
ff723500
00256abc
ffd8ed00
0034840d
000b13c8
ffa7c300
fff50000
ff723e00
ffe20300
ffb59900
002a2e26
009f1521
ff2a9f00
ffd53a00
fefccf00
ffc53c00
00376924
001745e8
ffa4d000
ff712500
009077c4
008941e5
ff87c200
006c548c
ff66f300
ffc42d00
007e09c4
ffa03000
00dfaeec
0018eae2
ffd01f00
000ee41b
ff43fc00
ff79b500
ff0b2500
ffdd6800
007979e6
ffcf2600
ff500f00
003ce23e
00472530
ffb26a00
0028c20f
0020d0e1
ff9ef100
00425833
0057c512
ff3ef700
0061c0dc
ff976000
ff91d800
00d70643
fff75d00
009a2e1f
00437725
000bf046
ff91bd00
ffca7600
0060c962
006f3bea
ffc16800
ff7fe400
ffeedb00
008c0fb2
004d1b75
ffad1b00
005a6557
ff40c900
ff867700
ffc53c00
003e139a
003099dd
ffdb4c00
ffc1c800
ff30a700
0027232c
0087b383
005d1a7a
ff7f5900
ffa81600
0084593c
000d1bd5
ffd98800
0007c50c
00822fea
ff45dc00
00214d56
0070c7c4
ffa40500
00093b7b
0069567e
0070575a
0055eb02
ffe4f800
ff84e800
0040bf4b
ff987900
0031bbca
ff849400
0023fb1e
ff863800
ff9ac400
ff752800
0031f066
ff689d00
00277fa1
002edf60
00299ced
002a5140
0049d804
003de5ec
00c2dc86
ff9d1400
ffc1bc00
0051cadc
ffb23e00
ff66ed00
0084d0ed
ffb33a00
00727cd8
ffe08700
ffc4da00
005011b4
005504de
ff6f4200
ffa51e00
002d0a28
ff84bb00
ffea9400
00643849
006e7810
006c51f4
ff9e9900
ff9c8200
00437844
0083def2
ff63ac00
ff85c200
ffd1bb00
008ed395
0047a31a
001e42f4
006ad7fd
ff9b4100
ff791900
ff8c0400
ff88db00
ff7b2200
00294b63
005135ec
ffe79c00
000c4182
ff52fa00
ffff4c00
ff88e200
ffc68f00
00a30d5e
00138475
0070f936
ffd3bb00
ffb7f100
ff891500
004669a6
ff523700
000ca076
00100e8a
006b9cf0
004e12f0
ff8c1100
ffda2600
00777d84
005d3bcf
ffd30700
ffef7300
fffcba00
ff678400
006dac3d
001bc69c
ff932200
00863a0f
005fa0a4
ff66fb00
006d4470
ffadc200
ffb0ff00
ff6ce700
00001c8a
ff842a00
ffb28100
00b840c7
002f9371
004797c0
ffba9600
ffbc5c00
ff6c5d00
005321e0
ffab3800
007f8bec
ffeafd00
001a070e
ffabf000
0069ed92
00239a79
00a7b750
ffd93600
001dddc2
ffe22900
ffcad300
ff564300
00180a9f
ffca3d00
004091d6
0010d614
ff6a7700
ffd8b300
ffa0d300
ffcbb800
0014f4df
00388ff5
00a68d26
0079d4dd
0018892a
ff86f700
ffc6a900
ffbbea00
ffefff00
007b6d83
003bf5ca
002f925c
003730ed
ffa5d200
fffc6a00
00053dd6
00ac8d5a
008bb706
ff9ce700
009ae987
0056a972
0080c2cf
0059bc8c
ffc7f300
ff603700
ffcb4f00
ff5f4300
008e35a2
002d6cd0
0020e999
ff6cc200
ffde4a00
002d8485
0025a7d4
00ad4293
0052f671
ffc29400
ffaa1900
006278d2
ffa5ed00
000d5c7f
ffbaf700
005cfb3c
004b126b
000cc469
ffd64e00
00596c4b
0070cc6e
ffac2700
ffe80300
ff6af600
fff57a00
ff8b5b00
ffd14300
ff811200
ff9df000
ffe29200
ff5c6500
ff7b9100
00323289
ffb84600
ff444e00
0076c5bd
007965ce
fff40a00
ffccd500
ffb5a600
004607c2
ff8d7800
00a1c031
00313ffd
009361ae
007b8809
fffad200
00638aea
00b07582
ff57a200
fff28500
ff8d6e00
ff8dc300
00a33234
ffedc100
000c1795
ffc62d00
000b71ee
006f23e2
0010a47c
005a6433
0009394c
ffad3100
00237769
00012ab9
ffd8ca00
00ad7e98
00891e5f
ff889100
ffef0a00
ffb24b00
fffc9600
005df777
fff67f00
00bb91c5
008c9eae
00032c84
ff6ed600
ffd8e000
006f7bb6
0043f4ba
ff8c8900
ffe9b800
00296071
005d200d
00a128a9
ffba7100
ffa10300
0054bf84
00094e4c
ffd99d00
00890a26
ffb9ec00
ff7d4b00
ff6f9700
009cded1
ffa1eb00
ff803900
0065bf36
ffd6ad00
ff6e3b00
006e9551
fff86900
0039a861
00c2f0b6
0021ad5f
0043525e
00601c10
fff51600
ffc0b400
ff6f0300
ffc85d00
ffddb500
0057bbe8
fff12c00
009d6edd
000ff0b0
002dc9c7
ffd73300
0057e03e
ffc51800
fffe2400
ffc08f00
ffd97300
00136394
007a4357
ffe19200
005b7d18
ffcd1600
0021ad63
003305fd
ffe0fc00
fff85800
ffe02f00
00f9c88b
ffb75700
001331f1
ff7b4100
0011e4d6
005e93e8
ff523d00
fff40700
0070cb62
ff4ab600
00386b8e
ffe3d600
004e0f54
ffdca400
ff88b000
ffc8e700
005e4334
ff940700
0015f505
ffe8e500
ff239b00
00c073f2
ffcdaf00
ff577700
ff9da900
ff672900
0023a91a
ff6c5600
ffea3d00
0036dee9
ff63d100
ffd06b00
0090bf3c
00dc4897
ff9cae00
003b2c09
ffda9400
ffcba500
007987d1
00609e3e
0038b46f
ff978100
001d171d
008d427a
00483ff4
00a6b4d2
ff765d00
00376829
006254e0
ffade500
ff945500
003881ee
00634ee5
ffdfa100
00673afc
ffbd6d00
00598606
ff475800
ffe1ae00
0137d358
011f7ed6
ffba7c00
000aceb4
005e0e94
ffa95e00
fff36100
ffcc1700
ff808700
ff7ab100
004da806
ffad0700
ff9e7c00
00a78be9
ff8ffd00
ffa92300
0030aecd
0042def6
ffe13600
00950c8c
003f9ca1
000b8d29
00c4f5f3
0094aa41
ff837f00
ffed8900
ff554d00
0012f3ff
002cdf75
ffe8e700
ff8bc400
ff225800
ffe85300
fff58500
002ef9fe
ffe36e00
fff12f00
0028cdbb
00856159
ffb8b800
007fc5d8
ffd37300
ffecc500
ffc9b100
ffc74a00
ff61af00
ff57da00
0076bcba
ff7f0a00
00521bae
001c5170
005c113a
fff2c000
ff7de000
004dcdbb
ffe29c00
ffd5fb00
ff891500
ff652d00
00287d22
01ee2aec
0178cc72
0015821d
ffd78d00
fefa3100
004e7795
00912b4f
ffc55400
ff8fa400
ffe07600
ffb94400
00c68428
0053f175
fffcf100
ff5a5900
007ab83c
003741f0
0015f6ac
ffc40100
00372645
0018c79e
004cddb4
0013a78c
ffe2b400
ff6db400
0066808a
00212592
ff9a1400
fffddf00
0015a9af
ff4e2400
fffdaa00
ff6d3f00
00978088
00548282
00045c08
ff910600
ffb26000
007a3152
0083fbe0
005d9ab8
ff8e2000
00a905b8
00466fa8
ffacfa00
009db3be
006260cb
000d8204
005c90ce
fff3e700
008954e1
00760e87
00564974
ffb47800
0048293a
004e933f
002062f6
ffdbec00
00546f31
fed2f100
010f6966
016b2eee
ff5f5a00
ff8eb100
ff72b000
000125d0
0099fa97
ff71af00
fff0a100
00a84a88
ff191d00
00004482
0052a9be
00684e71
00364dcc
ff858000
ff689300
009da1d1
ff2da800
ffb22700
fffcd300
0025c797
002a89ee
0052a4cc
ffd25300
006aafc8
00827cb7
003214f9
ffdbce00
00865bb8
ff60cf00
ff9d7300
0083afd8
00304d44
0125410a
0042f586
ffaa0a00
fee25700
00857e5d
ffaabb00
ff7c2700
ff882700
fffae100
ffece500
ffb75e00
008244d4
001705fa
ff5ad100
ffaf6c00
ffd63d00
008440ef
0101c1b2
005f50bc
0026b8c7
0022a27e
fff16200
00edd1f8
0059299a
ffa02c00
ff673600
00d6aafa
019e7e42
fed9e700
00abe32b
ffb7c200
ff840100
0008c24f
ff3be500
ff72fa00
00632fc6
feec0c00
fffb7000
fff65100
00fe8fb6
ffb47d00
ffe65d00
ffd04100
00b09000
002d0ca4
ffe8e100
00221394
004c54f6
0076fa70
ff9c1a00
ff7f3c00
00271b14
0075349a
010012cc
ffc95700
0042062e
ff2fd900
ffe71a00
00c57ef6
00c13b8b
007efc9c
ff6d2200
ff7dff00
fea04100
ff7dbf00
fff9fc00
ff8c3b00
ff940100
0033f52e
fffb6900
ff6cec00
ff77da00
ff859500
0057951b
ff555700
ffff0900
000bc6de
002e303e
00209bb3
ffb02900
ff3af000
ffb06500
00410430
fff4f000
ffa55000
feed8900
0035c8e6
00c317eb
ffe05e00
00ca1d15
ff807e00
ffe98c00
008b37e3
ffe42700
ff84f300
ff4a4b00
ff781700
0012235e
0046e778
007b3adc
004f5a11
ffedf800
007c9bb3
00cc08a0
0007f872
ff52c600
003ef3b8
ffe9aa00
0081b226
00aea10f
ffbc0a00
00b1408d
00abdbd3
004fffe7
ff1f5200
fff79800
ff3fe800
fec92000
00fa6c57
00259eb8
005f3d5e
ff4d5d00
ffb72100
ff29fd00
00391d09
ffcf3800
002b905e
005c40d1
001e41fb
ffad3e00
ff78ab00
001fa8a8
ff940300
ff8d7d00
ff86e900
006a867a
ffd81000
001ae0cc
001c1c85
ffd91100
ffb78000
0066d5d6
00049232
fff63300
ff5ad500
ff792800
002db63e
00556619
ff76ff00
01748cd2
00ad43fb
ff75e200
00c0713f
00482de6
0041fe64
006f95e4
ff746d00
00535804
ff20c000
005e1782
00480818
003ce152
ff920000
00144810
00009e8e
005d38cd
004407e8
ffa61b00
ff47e000
009ad7ed
00285e05
fff92600
ffaff500
005697a6
ff5ba500
01425036
ff6d9000
003539b7
00e1b699
005b0a4f
00674de2
ff1ee600
00176512
ff370800
0013888f
00452f1c
ffad4300
ffddb200
00165d2e
0095d97b
009083f2
ff63f400
005af89c
ffdc7b00
ffa8fa00
ffb09800
008aa80a
004609a8
00c20712
ff894400
ff7fba00
002442a9
ffe55800
00307274
ffed3500
fff9cd00
fee3c400
ff50d300
ffd87a00
01a2765e
0123bdd2
ffa50500
0062166f
006d2922
ffda9f00
006f53f8
ffea6d00
002e89f4
00b7a048
00132a3c
00778b44
006859d9
0065402e
ffe9e600
ffce1100
0005b1a2
ff666f00
ffd84000
fff26c00
ffcd4100
000c73b1
ffb54100
004ed1f0
ffdae100
002fd478
00de556c
ff365900
ff44d400
00f75721
fef66d00
00029bfb
005e0eb2
ffa94c00
fffc6c00
00a3f5c5
000ad876
008fd206
ffb94300
ffcbda00
ffc99300
0020a46e
003a7d5a
00037a14
000be69a
ff65cc00
002464ca
ff8a6300
ffbd7600
0037229f
006c0a9b
00aee971
fff64100
00563330
ffa68700
ff7b3f00
00394536
ff749b00
003bd9fa
00a3d4bc
004ee89e
00e2ec19
00319bd5
0095772f
ffa8fe00
ff3da800
ffb8ba00
00762935
ff8d9300
00e88ba8
ff848000
ffd45400
ff95df00
ffeac700
00829349
002cf53b
ffcea200
ffbae200
ffe7c800
007f10c7
ffb4d400
ff6d8d00
0071cce8
ff5afe00
ff7f4500
002ac6a6
00e36605
ff4d5500
ff949d00
00f63939
ff818100
ffbe8700
ffef7a00
fff23000
006e1ed8
009a72fd
ff6f2a00
ffde8c00
000e7c64
005bd3cf
ffc34800
ffd75800
008dd2cf
009ceed3
fff4f100
ffd99700
ffebe400
ff65db00
ffac4200
003b5678
00676e40
004ac267
ffd34900
00177440
ffef9600
ff947700
0007fd84
ffb98800
ffc3a800
ff98c300
009c6ac9
002770b1
0025187d
ffc8d900
ff5f1100
00225c8d
ffb3c500
ff7df200
ff999500
ffeb3800
008f8ded
001c3c64
004d5168
002ff3a8
ff6a2a00
005f2b1e
ffd94f00
ffb2d700
ff4d0600
00d96263
ffec6100
0068dafd
0050c58c
008d979f
006674b4
00496072
ffdd9300
ffd3c200
ffd20300
ffb30400
ffe11800
ff66b500
0008d7df
008b12d9
003932d2
ff911300
00a66a70
ffeeec00
ffe7b600
ffb6ef00
ffcdc700
00a262fe
ffdcf000
003eca56
ff6b1e00
006d158a
0047b174
ffbdb600
008a2302
ffb61200
ff3b9000
006d8948
002c7e96
ffaae100
ffabb200
ffbf2a00
ffbf7800
00860687
ffb54100
006d23c0
ff4b5f00
ffda6000
00479e8e
004508b8
003317f7
0023020a
ffd78400
0087c586
008494f1
ffe86600
ffec2200
ff5b0d00
fff10100
ffce6100
ffd7e600
0055be32
ffac6400
000d2bf6
ffa1dd00
ffcaff00
00105603
00658f74
ffb29d00
ffccf900
002cb9d1
ffbdd900
0079ac2b
005e91ac
00803140
fff7b700
ffb3df00
00439118
00639460
002829ca
000a7bda
009536cf
ffec9300
0058ef69
ffd15800
008a14ed
006b4cd6
ffde3b00
0020b9ae
ffc02a00
006d561a
0053c9fc
ffc20a00
ff712600
ff70b700
00aa1f9d
008a07f7
00706624
007d45e4
00a643e9
ff942500
00034bff
002519ed
ff76bd00
00d7f665
0017ecba
fffef000
ff6b8300
00eb5368
ff8d6c00
001ffe72
ffa02b00
006597dd
ff5c1f00
ff978a00
001e21a2
ffe86d00
0086e2ca
0053dff9
002d20c0
ff6b3700
001dd3cb
001e5c94
00c5260a
0076dad0
0055b030
0085b76a
005b2898
005c969a
006f76d6
0014fa5b
00670b67
ffa56d00
0012e181
0062bb1a
ffa61100
006e60c1
007eca4d
006ed6c9
ff9d1f00
ffc3e000
fff8bc00
ffde6d00
ffe28f00
ff7a5800
000eb158
0005ebbb
ff690200
002cdbb3
00187307
0088f5cd
ff99dc00
0014d3da
fedb5100
00439378
0025f10e
fff29b00
000fd950
ffe2ad00
001f2122
004378de
ff72e000
ff866700
00891c2a
00819f82
0021808f
ff9c9300
ff95f900
007f2850
fee9b300
feb99000
00301984
ff321900
0017a30f
00485743
0001a3d8
ffd89300
002e1688
ffff0000
00389df4
ff74fe00
ff7c2400
ff839900
00116f7a
ffe31100
ffc86f00
ffa29500
000d8138
ffff5e00
ffc12300
00b24f5e
001bae1c
ffe04e00
ff9a5900
ff5dd700
0029ad2c
015d52d0
005e9a17
ff845000
0084416c
009108b7
ffee2a00
004a9c5e
ffdeae00
ffcd9000
007898b9
00951dff
0026610e
009dda62
003f8d6d
ff669500
ffd3e900
ffa61300
00207cf9
ff591300
002fe102
ffdaea00
00d282da
00d2c3ee
00891202
ff09aa00
ff0a0900
ff5b3800
0063c132
017f1ac2
001c65ce
ff86a700
ffa22200
01555e24
ff705200
feb64f00
ffa2e700
ff0a9500
ff6f4500
ff47b200
000850d5
006df469
fff8b500
fff3a900
ffd75700
0049812f
002a9561
ff5e3000
003ea6d0
008f2eb8
00904ba3
ffde4d00
ffad5000
00212b96
ffb9f900
ffb06400
0063cd6b
ffd31400
001f8b03
fed80000
00bb0b50
0051f130
000ed122
ff62eb00
000de2f5
ffc9dd00
ffc9e300
008f5837
0030dd11
00778d78
00a0c90a
0068d864
ff69d000
ffdaaa00
006c8bbe
ff800c00
ffd2a800
00035a5b
00219cb8
001a1c78
00902de5
ffbd8700
0035ac12
0066d588
00818eff
ffd46600
ffc4d500
ff3fec00
012e2796
012fb524
ff6f2d00
ff698300
feb7bc00
00f2e70e
0008c2fb
00078837
ff93a700
ffcdcb00
002388f8
ffc94100
0019cdc3
0089dcfa
ff66b600
00226c23
ffa76200
0032a1e0
ff336500
ffb69200
00bc7c66
0118e88e
ff3a3800
ff0cf600
ffb62f00
00591bbc
0029ae14
00b45159
001d2120
ffa20000
000a5412
ff886700
00ae3ab3
007aa44f
001d7b60
ff623000
00611956
ff626000
00a1c21e
0040e1be
ff8aca00
ffd0b800
0015532c
ff7e5f00
ffc50b00
ffaf9700
ff8b8000
ff7b2300
ffe6d300
004044cf
008e5cfc
00a9231a
ffdbd700
fee6e000
ffa61600
0024d68e
fff71100
01528cfa
00286974
fee35900
01392d3c
0084a6f6
fe087800
ff9de500
fec3c000
00ff4d3b
012cfb02
018edcb0
00201f75
00cbc18f
fff48e00
0006ccdd
00813bc7
0042474a
ff825b00
00c51127
ffc26500
004254e7
0029d6a6
ff69bb00
004e3bd0
ffb6d200
ff035b00
00596dcf
ff802500
ff8f1f00
ffb17100
017ae5dc
ffc28a00
00f1d3e9
ff30f600
fee93900
017cff8e
00009e66
01097df0
ff23a400
00924db0
ff4e5600
ff755100
000abe4a
ffbf7e00
ffbdb800
009b0742
ffbd0400
005eaca8
005b235a
ffae5b00
ff99d700
004f7fc6
ffa4e100
0031c2dc
00d1ab3f
ffe33500
fecdfb00
ff6dd900
00554742
fff61400
0191eaf0
00af5e94
fdf87f00
01435424
00602e0c
fddc1c00
0147be00
fec6fa00
008ff415
00a98600
016a46bc
0093e5f2
003ab8b2
ff528500
00ce92bd
00f96651
008d29e6
ffcd4200
ffd36500
ff929600
ff20a400
000bbc69
0001dd93
fff8de00
005a75ae
feaa1100
0058f85c
00473eca
001b9676
ffe7b800
00601580
ffad7100
000de4f2
00118688
ffe2a100
0228bb08
feede500
00593fae
ff249f00
ff69ac00
fedc5800
ffaeeb00
ffcd9100
ffdfed00
ff680800
ffdfaa00
004316c1
ffbce900
007dc920
00331f98
001de0a2
01082e44
ffb37600
ff5d6800
01414a34
ffc2d400
ff932800
fe90dd00
00494426
00ca4aaf
0031b84f
00a96a20
fd686f00
007d40ca
ffd67100
fe3b3900
01057c8e
ffc68500
fffa2100
008201ab
00cfc99a
ffb59f00
003b8bfe
ff0b4b00
ff674600
00884c20
0123bafa
ffdef300
000ffc96
ffb48300
ffa8e700
0062a268
ffa3d300
001976f7
feda3900
0007d547
00537c43
003a5159
00046c7e
000bb482
00431732
004d1aa2
0078a8e3
ffa33e00
ffdcc000
02a3912c
fff09800
ffc16e00
003e1af0
ffb81c00
fe950f00
ffa32900
00890d1b
00715960
001ea3f1
0024ace4
ffa1a400
009d2068
ffbddd00
ffd3e300
0032ef64
00351954
fffdc400
008ba997
011a93dc
003ef6e1
feeb9d00
ff0a8400
ff88dc00
0061ff85
008a532a
005f27d4
fe450000
00440734
fee5df00
fe419400
01bfd958
0195fa20
ff8f3d00
002d7f98
00e089c2
ff81e700
00e1be77
fea87500
ffbf6200
00b05adb
00ac61b3
006786fa
fff3e700
00203dc4
fff58600
ffcc8600
004dcf38
ff0ef000
ff171e00
ffdd5100
01917b2a
ffa6ad00
003a1d73
0030a5ec
ff5a4400
ffdada00
01083386
fed31400
00288217
01894632
fed4ba00
ff7c3500
ff3c3600
ffded700
ffc0a900
ff85ac00
000a82bb
0039aeae
008cf562
ffe6c100
00076c1c
ffa38900
ffe47400
ffc52a00
002c01c8
00be37a4
ffaf8500
00611a4e
006f8d6e
00b17877
fe62bf00
febb4000
ff8ce300
00582bee
ffcc4a00
fff7e100
ff5e3200
fef0cd00
ff496c00
ffe5a800
00a04255
01645b4c
ff875c00
010d142e
00577d30
004982b8
ffd6ab00
ff14a800
00359590
ffbd0300
01198fa4
ff4fe200
001b3d3e
fff1d100
ff336500
ff7e8f00
ffbba400
ff584000
fecae300
ffff0800
00fc8449
008dad7f
00902ebe
00482d9a
000ac6e1
005b427a
002c5b92
00629ac3
000900d1
00ec4f91
ff2ebb00
ffcbb700
002a2aae
002d9d42
ff9b1c00
ff8c1d00
ffb48000
005b6d9d
ffbe3500
ffb90600
ff733e00
00837db7
00744dee
004892a1
ffe4e000
0070eb20
0065d41d
ffcbb000
ffb64a00
010023c2
0022493e
ffc63e00
ffcc9b00
0062d164
ff3bb000
ff12dd00
00155abb
fecd1400
ff1f3c00
00956866
01c192d4
00bdf3ec
ff023d00
01390560
ffa39700
ffc56800
004aceec
ff430a00
ff9c8600
0095b272
00cecab9
fffd5600
fffb8700
007dd82c
006fdbc0
0046a502
00612470
ffa40800
fee93100
0058aeb4
00323eda
ff76c500
ffeeb400
ffe9d500
fff2e100
00554cea
00271b32
ffcd6c00
00292406
017bf8da
ff80bf00
ffec5100
004e05c6
0035bfdd
fef42c00
ffaebe00
ffb8d700
005ab7ea
00419a91
fff8e500
ff820500
ff948d00
008340e2
ff9d1800
0033cb34
ff7a9a00
ff4f7400
000f9f47
008d4aab
0076d50c
012b9786
ff702a00
002dfee5
00283862
ffd67400
002f77c6
ffca9200
00011c63
ffc46c00
00779be3
012d335a
01261d2e
ff3d4f00
ff7b8a00
ff0e0500
005f5e90
ffbf3500
001d528a
ff764200
ffd00200
00fa37fc
ffc93f00
00948ff8
ffd99100
004e950c
0062c737
006127bd
fffe5900
003fd3db
ffe31f00
0049bd92
001770e4
ffdc5c00
fff69a00
fffa6800
ffe8c900
ff3b1900
00013dcc
ffa8ca00
00330876
009eacac
ffd87d00
005a24a2
005777a6
0008bf52
fff34c00
ff9eb800
0068be8d
005c33cc
ffc7f000
ffe92e00
003386c1
fff8fb00
00475ce3
ffc72500
ff73ca00
0023adef
00731a35
ffc59400
ffa57800
ffd8d300
ff882300
ffbe3e00
009dd11a
ff843500
ff8de800
ff8a0800
00449d5a
ffeb9500
0090324a
0006056e
ffaf6d00
ffa60e00
00655a8a
001b6b1c
0029b040
0020297e
002a896a
000fe8e5
fff7d600
fff53100
ffc0c900
0083a363
ffdebc00
ff981300
ff781f00
0014e903
0034b6be
ff987900
ffd67300
ffd60100
ffdbf600
0005cd1f
ff734f00
0010e2a4
ff551f00
0027ac1d
005f63ad
ffb4be00
0045d86e
ff1a9c00
0067a396
0072eeb0
ff7c8800
ffb4aa00
ffabe200
ffcdcd00
fffadc00
001eece8
006ac9d4
0058dcde
00925576
ff98b700
0085fee5
ff576f00
ffd2d300
ff539100
ff309e00
ffda8000
004b7e04
00be120d
ff71ba00
0038ba00
ffed6f00
00869b33
ffc3aa00
007c7174
fff38d00
00c199d8
0077a70f
ff155200
ffc85200
00e0d48f
00335bee
ffc76a00
007c18f8
ffb84600
ff306a00
00268b61
005e30b8
005df896
fff4c500
004226ca
00535c76
005fd1b1
00283a8a
ffbad400
00617ed9
00c15c24
ffc22900
ff18e100
ffd05500
ffbd0c00
ffa27500
007fb8fa
ffd57b00
ffa3c300
00395526
0005a4a0
ffb90b00
ffece200
ffaacb00
fff89600
00636bcf
00c86486
ff935f00
009ab867
007098d4
00a0dc08
00a74d05
0055bbe2
ff7e8300
ff97b700
ff82e700
00935f35
005f56e4
0051ee28
feaef400
ff04a800
00fa0caa
002aa5d2
0052b576
ffae1b00
004ee01b
ffc95800
ff4df900
001a4690
011c033e
00d0585a
00047b7b
ff87af00
fef54d00
00ec57b4
00132156
fe64e700
ff810f00
ff58f500
ffd50f00
ff4cf800
00022dc7
00abade1
008f14e2
00256e71
fffdd500
004cb2e5
ff898d00
00b9bae7
00f22408
013605d6
ffefb600
ff12f100
ff807100
ffc5a800
ff286400
ffd73600
00954585
ff7d3200
ff7e9100
ff5ec100
ffcb8600
01278afc
004e71fc
ff67f000
006b7afb
005aeb92
003ec842
ffe68900
ffa0ff00
008a7c20
ff5b9100
009f7b2a
000e7c3f
ff771c00
ffbee800
ff8abe00
ffd44f00
000d7d6f
feb6f400
fe994900
005007a6
0008dce7
002f6b72
ffbcd000
00137d22
0090cddc
0049bce2
005e4cde
00c34cbd
0142c89a
fee60b00
fece5f00
fe500300
01da57f6
ff6e4300
ff9ccb00
008883e0
00034f70
ff1f3500
ff470600
000429f9
ff735100
fff7df00
ffbc3100
ff566500
001346b3
fff60900
00774f95
00b51dfc
00cc98f6
ff8e0200
fe433900
ffdcd300
00b4ef64
ffb86000
ffc16600
ffb21d00
ff668000
fee5fb00
ffc00000
010acafe
00baaa93
00d462d6
ff5e0500
0065ca00
0047fe46
0022b5b4
000474e9
ffd77800
003f3586
ff7cdd00
ff6e1c00
ffc3f100
ffa6c100
00903234
ff8b9c00
00dba136
ffd43d00
ff216700
ff9d9f00
000c5bda
ffc32e00
ff72fc00
00b3dfc6
00a89c89
006f9a42
0037172e
ffcdeb00
00254b14
01664e2c
fdd82d00
ff5f7c00
ff04ac00
015d81a8
0035aa6d
0032ab5c
0096888d
ff562a00
ffb8c400
ffe64d00
002d5e17
00362da2
ffe6e000
ffce1e00
ffe26900
00be7e9e
ff646d00
ffa09300
ff7d0300
00dad6ca
ffb7f700
ff4f4400
ff885a00
0073f29e
ff711100
011f512e
fffc5a00
004ff8c1
ff3f7200
fe9b0200
00c88cb1
ffc5ad00
ffe6e000
ffd28600
ffd6b200
005c3116
000765cf
0087ef59
ffc89900
0067cbb5
fff6df00
0088b086
ffdbdb00
009b6a1f
001dda63
ff944c00
00a9db86
00fb9704
ffe54500
00a0c70b
ff029b00
ff421900
fead8000
00c16489
ff504d00
0167dfae
fffdb900
feaafc00
006af03a
01464cb2
fde5ff00
ff579100
fe78cc00
00db504c
fff06a00
011b6eac
ffb98300
009633ac
ff1c5400
00541aae
ffb71900
004777aa
004c817f
00a09d89
ff08af00
ff887700
ff2a0200
002a94a2
ffbc9200
00af2c83
ff405c00
ff73c300
ff85cf00
0081ed2d
fff0f600
00d0e857
0008a48b
ff7cfd00
ff55bb00
ff57d700
01ff1da0
ffc15400
011740ea
ffbf7600
0033b9c2
00b470f8
0049256c
0009adcf
ffffc200
ff6e8100
ffbcaf00
00886942
fff8ea00
0041e990
006795f4
ff8be400
010f8ce4
00d0b780
0025c727
00aa2cce
ff5d5000
ff6def00
fec39e00
007edc87
ffe1e900
0072d7c4
004085c3
fe0e0c00
00e078c7
007169da
fd398200
014e3a0c
000fcde5
00bf0c17
00a41380
0136765c
ff6b8000
004bc7d2
ffd77b00
ff53c600
005bc9dd
ff0ae800
ff9e0d00
00f7b462
fe87e900
ffd6e200
00559bfa
ff526a00
ff711400
ff44e000
fea97000
001f8d26
00aeff45
006d6759
009ca3d1
00871de8
008820bf
ffeda700
ff597a00
ff8bab00
023580d0
fe59d100
ffcf1c00
ffba6b00
00131e3e
0090cce0
ff903f00
006ea1b1
ff9b2900
003d170e
ff6b0500
005a9b94
0010add8
002f64b6
ffe2e000
ff7b9200
00b9ca06
ff751500
0099fa92
014561a8
002b68b4
fe763100
fdfd2e00
ffcb1900
007d5154
012fd656
ffdcd200
fe091700
001cd7e8
ff790700
fc884100
015de44a
005c0efe
00a1009d
0066e2a4
00712c90
ffc36700
000f1192
fffaa800
002de6e6
01532c2c
ffa06100
ffa51a00
007e22d8
ff0a4300
ff53cb00
ff851100
ff073e00
ffed7800
ffcbdc00
febd4400
0172cff0
0018da78
ffb22500
ffa2f000
00fbe4f9
ffecd200
0129eec0
0003f557
001c954b
01a401de
fd364800
fefa9f00
00eff6ac
ffd9a300
fffb0b00
00784555
00a596b9
000093ac
00589818
ff6c0e00
002b71d4
ffdcb100
003b6069
005799a4
ffc10d00
00b1dd8e
ff1cb400
00404573
008d2364
fee14100
fe4cd800
febf9000
00dbc3f1
fffd1700
0099045f
fff3c600
fdc5b200
fee54000
ffaa3100
fdb04a00
01e0f304
00b56118
00bc91af
00221289
00c2a8e4
ff0f7c00
00d0bda4
ff34f600
009169b1
006aecae
ff7bc600
00121b0d
013566de
fe830a00
fee84900
ffb11800
ff7b8500
ff47e000
fe934400
ffbeaa00
01042902
00ba28cc
ffaa8e00
ffffd700
ff865700
009de10c
00672661
00737f1f
004a5fce
017b202e
fcff9000
ff674d00
0113e002
00d40dca
ff931700
ffa01500
002719c3
ffa14c00
001e41ef
ffd15a00
0040628c
ff67fa00
0096c0df
ff87c700
004e55c1
007004b6
ffb90000
000a40c7
00a94947
0010031f
fe91bd00
ff536600
007268e5
000512ff
0018c88a
ff509c00
ff747a00
ff01ed00
ff45f500
ff1bce00
01847a1c
00ec6548
ff5b7100
008051da
007c623a
ff4ef600
ffed6700
ff527a00
ffe7a500
ffe81500
0053c41a
ffea1000
011286cc
ffc0af00
fec67400
fff0f400
ff559500
feb4fb00
fe617a00
ffa79f00
0133751e
00402c7d
00a54889
00b3a639
ffcb4d00
004a5568
001b2458
00bb6f0f
008a2ed3
00c5f73a
fde21700
fe6cce00
00d5f461
00258977
ff89b700
00629628
ffae2700
ff750900
00126976
ff904a00
004dd0fe
ff80d300
ffbe8400
ffbbad00
fffd1e00
ffdf9d00
ff409500
003faa96
ff817e00
ff1a8400
ffec3500
ff6e2100
ff027800
001470ee
ffddd300
fff5d400
00545c32
ff9fed00
fef11d00
00c1fd60
0197521a
01281a52
fff87d00
0060a69e
0006f189
ffddb300
ff3c1a00
ffc5b300
ff155300
003aecbf
02139ea8
ff848e00
ffac5200
00693c19
ff361400
ff4c1700
000277b0
000ed317
fee9f600
ffb4b800
00c3db38
fffdbb00
ffdf0200
ffe4e400
ff4a5800
0028be68
ff630e00
ff77c700
001bd49e
0090406f
ffa7e600
ffc3ff00
00af2156
00b901c2
ffd45f00
0092a929
fff5d700
002f7782
00532986
ff983b00
ff7dac00
ff92e800
ff69c000
ffcfeb00
ff5c8000
00a0f644
0079113e
ffcdd500
ff7bba00
ffdf9800
003a79df
000d3a07
ffa1e100
006575e8
004b3acb
ffe99b00
ffc71300
fffcf200
ff69dc00
005bd4a6
01338614
ffc9ca00
ff9b4a00
ff983700
ff49c100
ffde8a00
ff9f1d00
0022129e
ffc9c600
0090740f
015c27ae
0063150e
ff538f00
0078eae9
ff71a900
ff8ad700
0006982c
001d48fa
fff98500
ff989500
0135db26
ff660a00
00135fa9
004b28ec
ff71dd00
ffcb2800
ff675000
ffa23100
0006a727
fff7c600
014ba2e4
ff4bfe00
ff892d00
008a0b87
00269dfd
ffab6a00
ffe6a900
ff62b200
00791e54
0067063c
ffb51700
0023fbd1
002375fe
ff58b300
006eac22
ffddd200
0077ae80
ff706d00
ffd5b900
ffd2c100
0017eb9c
003afa62
ffedbd00
ff6b5200
011efc7c
007d3a2c
ff9b8000
ffa35300
ffe86b00
ffe63000
0031cffe
ff7f5200
0013f045
ffc06300
0000ed87
fff21100
003841d4
ffc78200
ff5c0e00
0056f9ea
ffc9fa00
00732ab0
00ad5b7b
00089505
00b2af85
00044a7a
008d0f96
ffca1d00
ff157d00
0062c33e
ffbc4100
ffab6800
00a9d584
ff5d6000
ffee9800
ff4dad00
00852c79
ffbc9c00
ffdfbe00
ffbdc400
ff3a8200
ff639100
0062c6f6
000a40c3
ffe14000
00122c41
ffdab700
008ae1e7
ffe9f200
0086c900
00938770
ffa00f00
ff83b400
008e9783
00a6387c
fff71f00
ffbbac00
ff5a7500
ff156300
ffce5b00
ff6bee00
ffbc5b00
ffab1d00
000fe351
00692ac1
003045c8
ff41be00
00121365
01009ea0
ff777400
ffc5d000
ffebcd00
0081d297
ffc1f200
ff375700
ffdc9f00
0080ef08
ff8b5900
ff247200
ffe65300
ff7e2500
008c9590
ff571100
ff3b1a00
008f346c
002b199e
003071be
000f91ef
ff895c00
00491830
ffecbe00
ff55b300
007bda8a
ffdd8400
ff8d2f00
ff98bf00
ff7edd00
fef1dd00
0022bcec
007b6d6e
ff90d600
00866ef8
ff38e800
004a164e
018b4daa
ffc4aa00
005accb9
fff12500
00369ff9
ffef9d00
ffb44f00
0000e01c
ff6e9500
005147d0
0072de8b
007836b8
ffdd8f00
fe646100
ff654100
00bb67fd
ff96d000
009bf7d8
ffda9700
004a2352
00697652
fff69800
004ed031
012e42ac
01d5137e
ff3fdc00
ff38b600
ff634800
0123e376
ff531700
ff7caf00
00d1c0f8
0034b3c6
ffc27800
003bb470
0044cbca
0059d53c
00bae52c
ff29d300
ff05b200
009dd7d8
004d3164
001fca62
0116b6da
00f81af0
ffebd600
fed4a800
ffdb8a00
fff39f00
ff7dfb00
ff257800
00b97cef
00075361
ff34d300
ffdf5600
00c984ce
0044aa64
015bf606
ffcfb100
ffe74700
014f6580
ff900900
ffb11700
007421e8
004fc2cc
0090b672
0043fbcc
000cf13f
ffcfdc00
fffcb600
ffa3e500
00d8a004
ff699e00
feb1f900
feb28e00
0166a90e
fffefc00
fffbdf00
006548e4
00c64278
00fe38e9
003f3065
006bd738
01397006
01095dd4
feba1e00
ff42a600
fe62ec00
00b9d561
ff812500
ff55a400
000d9b65
ff940000
008bdabb
003995b5
004cefcb
000d8237
00d3d8cd
ff0d9c00
fe924f00
007e6dc7
0055b4c4
009ddc38
01f08318
010e6b2c
ffd5dd00
fea5c200
ffa0f200
00a73f64
ff747c00
ff064a00
000ea675
ff804400
fed48c00
ffbf6f00
0050313e
fff42700
006ed318
ff2cf700
ff8aed00
003691e3
00086ce6
ff9f7600
ffdeb300
006ad56e
00958d3d
ffbbf900
ffa22700
ffa26900
ffd77f00
000464a2
00172604
006f4aa0
ff16b300
febba200
01052c30
00b363ba
005d2f4a
00037cdc
013d30a2
00273412
ff9f2600
ffbdc900
01c2b370
01644586
fee82600
ffe29b00
fe948500
00de74e9
0051d4b5
ff8e3e00
fffb8c00
0099577a
000282ee
00a089f4
ffb97300
00053f04
001ff526
ff99ae00
ff8f5600
000db228
ffa56100
ffe93100
00fb4600
01049052
fff9d800
001745bb
007bbec2
ffbf5a00
ff1a2700
004661d7
002601ee
ff886900
ff351100
ffbe4500
0147d8ac
ffbffc00
004e3408
feca9000
ff31cc00
009646fa
0083d8e3
008ca12b
004a68d8
ffa17200
ff91d900
009482d8
005aa736
ff750900
000c6780
003a4fe6
ff612f00
01a3bad0
ff952800
fff19700
ff331d00
ff91ca00
fe521100
fff04d00
0066e490
00ad1927
ffc7cd00
ffbb1600
0107d500
0100bcd6
fe0d2500
ff830300
fdde9a00
012ae7fa
00534abb
ff8c0f00
ff188500
01104356
ff681100
00e18d83
ff4ae000
ff514500
ff454000
0112ac86
fed69500
ff411700
ffe84a00
0066355a
0095f0ee
00c6c8c8
ffa74f00
ffdab300
00b8a099
ffce3d00
004b4ee4
ffc64700
00b317fb
006e7f92
ff849e00
ff597000
00aab229
ff7acb00
0061e0d6
ff3f4800
fff26400
00848233
00514436
0037bcef
ffde2700
ffe1b300
ff8a2800
0082933c
008287a4
ffb93400
ff9afb00
009354ca
0056ccc0
00902cb8
ff441200
ffb1d500
007ce492
ff144600
fde8d400
013c064a
005dd830
00c57ed8
ff34fe00
ff9cb500
00eae18f
013394ee
ff4a8600
0164dc1e
fe6c2900
00f22867
009d3cbf
ff61be00
ff349800
00ee8e04
ff6f0800
00a716f9
000566fa
ffaf6800
002d38ec
01c9d5f6
ff426b00
ffbca300
ff1e6500
ff8d7700
000708b4
0080c010
feea5500
00fc87d8
01345bdc
ffe81c00
0055a41f
fff75200
001f5c68
00bdb6da
00475542
000e51a3
01329b34
fdcbdf00
fefdac00
00d0493b
ffc6cb00
00e99a93
ffdf1e00
ff6a0900
ffe62a00
ffbcc500
004645ba
00507910
00448dd2
0003aa9f
006678a2
0079e892
01586228
ffe81900
004e8bf6
00756882
ff8e1500
fecf1e00
fe816d00
00731d8a
00c5514b
007b0bb2
00d4151f
00092a60
002b9438
002a797c
fdab5500
01a75206
00655376
003edb4e
0025d23d
ff2a8500
fff55c00
00ba99d5
ffbd4200
000fa98a
fffd7600
ffd3b400
ffc77a00
ff7d8000
ff7c5200
00a0155a
feb98100
000d4236
ff861c00
ffe69600
ff5c6500
ffc0c000
0138e77a
ffac0f00
002b4d4e
ffe36300
0071a4b1
ffff5100
0090edcd
ff649f00
011d5ff0
fdf90800
ff427900
00d616dd
00354010
ff25c000
004f5fda
ff5e4b00
002376c7
ff7a8b00
009e6bc1
ff66ce00
ffd4c700
000fb8b7
ffe35500
0082da14
005caa46
fff7c500
002d020e
ffb8db00
001e07ab
ff604e00
ff846700
00642eca
ffd5ab00
00a1c86c
ff322900
fe600500
ff0b7500
003b51e6
fe3c8800
0173e488
012ddbc6
00451ed1
009d51db
0054b362
ff0d0b00
0045315e
00372d12
002d5b96
ffe03f00
ff1fd500
009cc472
fff65a00
009a5b82
00a49432
ffe18700
ff5a9100
ff66bb00
00201b01
ff94c900
00dd7528
016655ce
ffd24700
00b026bc
0055cc60
fff96c00
ffcd0300
014233dc
ffa38b00
0198a69c
fce12400
fe2fc300
0063d9ea
013b1ae0
ffc1e100
ff992400
ff94f700
fffe3600
ffecf600
00198db3
009545f8
002c38c4
00183ed2
fff64f00
006504b5
00bedee6
ff64ec00
001dd951
ffa9ba00
ff81f000
feb7cf00
ff967100
ffdae100
00388cac
00eed54b
ff96ca00
fe978f00
ff4a2d00
0009a195
ffdb5100
00fda69c
00eade68
fff35c00
011bd45a
00301053
ff9ab100
ff4dda00
00384902
ff748d00
00ee41cf
fe8abd00
002ef324
013fdb38
00aadb02
fffcae00
ff307d00
ffe0ef00
ff44d400
fea6b800
008ab731
0197c268
00688331
ffeae100
00724391
ff23ee00
00f0b276
ffecc400
014ed3c0
0096d98f
007f0f12
fdd32a00
ff556500
009b414d
00e31e19
008973a0
fff86800
003d0d20
ffce2900
00248517
00964eef
ffbd8e00
ffc30600
00858b69
009f4c97
ff7e0500
004cf4a4
ff6e8100
006d7a6a
00041378
ff110c00
feb17900
00e1088c
ff23c100
0008365a
00bbee5d
fef7fe00
ffff6d00
ffbd6900
00b33df1
ff8ad200
0203af50
001d1400
0001de88
004c06e0
ff39a700
00647ce3
008cc604
ffe46300
ffcd6b00
ff995900
ffe05700
002c0267
00892d65
004dc132
ff1d8e00
ffc8e900
004fe768
ff2b1000
ff48d100
ffda8a00
01163b66
00305033
ff7c3700
ff794400
ff812500
00c1160b
004c692c
ff7a2200
0020b388
ffb39500
ffa50200
ff942000
ffca0000
0117e884
ffd97400
0046a67e
ff7b8000
00569c76
ffb24300
000db21f
ffa8f900
ffe30500
00a11567
ff97bc00
ffa21400
00a6e7e2
ffe1de00
ffede500
0067fe8c
0034e7e1
007ace68
ffd8fe00
0066975d
001e47d0
ffe43b00
ffa5d700
005a866e
ff740600
ffa7ef00
00a2519c
02269d7c
fed55c00
ffbf3e00
ffd29100
ff32e800
0032277d
009c43d6
00081c9a
ff4b4600
ffdf6300
0085a017
005ddfa6
ffbb6b00
00581cee
ff5fab00
ffbe6300
009145ac
0046c804
ff60fb00
ffeb3200
00bdaa13
001c35c0
ffc41200
002ebc66
ffc78400
003e0772
ffa02100
00825674
ffdcc000
ffa15a00
00ee82b1
ffaa8f00
004e6b61
ff70d900
ffeb8900
ff825300
ffb9b300
00021100
ffd51a00
ffd9f700
00368d14
002fa6d4
ff976600
007159c9
004120cc
0002e47b
ff9b9000
0067105a
ff701c00
00453e14
001c8fbc
00060197
00a80965
009b049e
0091ae6d
ffb1d000
004aad9e
ffb8a900
009bf774
0020971a
000ac86a
ff903b00
0101be04
ffb94400
0064f1c0
0026bff8
00624fc2
002f921c
007016d8
00478e42
001dabf1
0049e284
ff7f7e00
006762a4
ffeea300
ffa25b00
0025a473
ffecb800
003c0a5e
ff8ca800
0092f3b1
008f59bf
0058241a
0022beee
ff88a900
ff9a4700
ffddbe00
ff39da00
ffbc5100
ffb99600
ff433700
006e6c01
ffb39000
0014d9e6
ffe68300
ff71b600
008b1d09
ff791000
ff9d0100
000f4c37
ff65e200
ffda8a00
005e861e
ffbe6f00
ffbcfd00
00219250
ffe82200
ff08ae00
fea4a500
00bf7d77
006da314
002b4b6a
ffb42b00
00069673
000b3d2a
ffd3a800
ffdc3400
007858fa
000bb145
fef18700
006a7772
ff7ac000
00b7e666
005769be
ffce6800
00d0e7ed
ff9ac600
ff665500
ffae0600
00761458
0021a8c2
00b6d8e2
ff9a6800
ff7f6800
00152cc0
007f3a80
ffb4aa00
00cd3daf
0052ea90
004ebfe1
ffafe500
ffc5b200
004aaf70
ffd12800
ff10b000
005ee0e8
001e1a6b
feecb300
ffb21c00
ffa83d00
ff41bd00
003da982
ff8b3a00
00428424
00a266f4
000a8bb1
ffa7ff00
ffff7e00
ff6b8300
0048052f
ff67a800
0084f91a
0034c60c
0004af7c
ff58a000
00941508
005d4103
ffd78b00
fe8ae200
00915ce0
ffdbaa00
006c9b16
ff3e1400
ffde9500
003c0f61
ff04f100
ffff1100
01b4d928
00974496
ff4fa600
ffd07e00
ff4e2a00
00424d16
0085d6f2
fed52b00
00659ad8
004251be
00be2dcb
002a2409
00ec9431
febdb700
010450be
000afba7
0006d290
ff579600
0037a08d
0069a438
01b78eb8
00987f6a
0019cd54
ff7fcf00
fff15c00
0086054f
ff641800
ff069100
006db769
ffee3700
ff429a00
ffa89000
012fe698
ff926600
012fb3ca
ff87c100
ff3ea700
004fd3f6
ff892600
ffeb7800
00942aee
ffb25a00
ffdbb500
ffa62500
fff69f00
fff82d00
ffac8600
004cf2b4
0123f2c8
ff476600
ff2d2d00
ff1c5800
00be105a
ffe0fc00
0090089a
ffbda500
012ff1b4
0087d666
ff831600
ffab6700
014c50da
0079b631
ffe9d200
00291ca8
fe83ad00
01ac6f34
fffd5f00
fee30500
010f4484
ffeb8c00
004afa81
0099ed14
005e2a01
ffe62000
00ecffaa
00ba387b
feb77700
ffc0f900
00240d8b
fffcb400
028c41bc
000f5728
ffd44e00
ff6e1500
ffcf4800
00bf995c
003e47dc
fe6f8c00
004cbeae
ff9b5500
ff5dc200
0050e2aa
000cac9e
ffdfcf00
003d0bf4
ffe09300
fff0fe00
00b7e882
ffa54f00
004fc5e6
0080930e
ffe47400
ffa10b00
fff3cb00
ffde3700
ffd0e900
ff99be00
009b3af3
00dfaa41
007c0c2b
0006c351
ff0f6a00
0071c764
00848580
00515025
ff0b7300
018cefa6
ffd71d00
fe93ca00
ff31f100
00e194b1
0062ec55
00652cd8
ff8e0d00
fe2fed00
00dd6c82
006f8e02
ff5aa000
00fb44d4
008453db
0115287c
01277cee
001e9dbd
ff6e4800
009f4a6b
ffca2d00
fe599400
ff03c900
ff4bf400
00ead962
01835006
ffd43600
ffdbc300
000255da
ff584f00
ffec5700
000d8afb
ff5e3c00
00d1fb67
ffc5af00
ff3f5300
ff953000
00501fc3
ff686b00
007c2f26
ff8a1d00
fed6b000
000052b5
006d96ea
ff868a00
ff872600
003f26ce
ffbdfe00
ff9b2e00
006529a5
ff65e500
0013877d
0029428c
ff91ff00
01150ec6
ff471400
ff706500
ffcefe00
006d1859
ffb41200
00b66f5f
00181173
fffe2800
ff5a9300
0008e35a
004db19f
014cda88
000522de
011d40ec
fe892000
00479bdc
003d227c
fff0f200
ff7b7400
00a82be5
00437ae6
006bc4b2
ff874e00
000decad
ffb1cd00
00191e5b
fefca000
ffbb3700
ff8ca700
ff93be00
017777d2
00644bac
00dd4d80
011a1416
00b914a2
fec24600
ffd60000
00578782
00237212
01af0cee
ff7d8100
00a756a4
ff9bc200
ffc23b00
fffb0600
0072946c
00454fbf
fe7b9200
009a487d
00590420
006577d0
ffd31300
008564c8
ffcd1900
006b5f88
006b0e02
ffa78e00
0067bc99
ff5d0f00
005876a8
ffbe5b00
ff593900
ffc60100
fee5bb00
ff6cc400
fff20800
00ebc3dc
013f21d4
ffc4ad00
ff707200
ffd10800
00ca4470
ff077000
01745dac
fff48900
ff996300
007c909b
009d1e07
feb76400
00dd2486
002597de
ffad7f00
00b59866
ff367800
ffb75800
00771d7e
ff02ae00
00813567
fe83a800
ff66cf00
ffe61c00
002ee389
ff473200
00b50984
00eaed3c
fec5c800
ffc42b00
00d79feb
ff520a00
01004912
00930116
ff2f8300
001a6452
fe92df00
ff977e00
01a5c0a8
ffcd7700
ffe1f900
00964536
003516a8
fff0b300
ffdec500
ffa3f900
ff5ef000
ff64fa00
ff6cc700
ff63a200
0055cfe0
0020c4f6
ffe9ae00
ffba4a00
fff84800
ffe45e00
0039dd58
ff8f7600
00d3491b
004a4b20
013d524e
fefab700
00306daf
ff8dc900
00cf35ff
fe1d8e00
015d5f0a
007a4c4d
001018ab
0015fa3f
0060fa29
ff825900
000f604a
00c50906
00df84e3
003b34f1
ffa3a500
ff8b4c00
ffb6db00
fef63000
016249f4
fead5500
ffa2ae00
ff339300
0086b436
fffde000
00c66e06
0153fbca
ffeb0900
00681558
ffbada00
00c2d34c
0070bf32
00d20657
fecbf000
01a9ac2c
fe7a5e00
ff7e1e00
00c337e9
0010282d
ff52ca00
ffc82200
0002be92
ffb08800
ffb22300
0094b07d
0078a8f0
009a1076
00982ae0
00481966
ffc42a00
004d3e8a
fecb8900
ffb6b300
ff59e600
ffc17100
ff4f2500
ff37e100
004964ae
ff938200
0077ded6
fefe0000
fe5fa000
ff0e0800
0146dfe2
fede8b00
018721f8
00975e6f
00937dce
00c1b4dc
004be724
ffd53a00
ffe1db00
00a87d5b
00aa3fae
ffb9c200
fef7dd00
ff63f400
007532fa
005fe5a4
01294728
ff76f000
fee97700
ffe13c00
ffe2dd00
003a168d
00deddee
015364ca
ffb2ee00
0006f872
ff057700
00481757
ff6a1500
01c131c4
ff34aa00
00497058
fecefa00
ff050600
ff927600
ffdae400
0040cd7a
ffc60700
ffb0e000
0012a833
ff788800
ff8dfd00
00135d61
ff5ac800
008aa20b
00799361
ff83ac00
00615486
ff4ce100
ff164800
fefbce00
ff856500
ffad9100
00516bdd
fffc5400
ff9e6d00
00619fb8
002c0e26
00156e11
ff36e500
0116428c
ff96a500
001aae57
008c1c62
ffddbc00
00497611
ff33c800
ffd52b00
ff533100
002ca491
ff51ca00
0022e0cc
fedb4700
ffb2e100
ffe63000
0015e681
fff7dd00
ffa23d00
0041f1a2
0034d5ee
00264edb
00887814
00793f58
0088927d
00251e90
0024add8
ff32dd00
00abd521
fffa1800
00289c58
ff000600
009cdb1c
fe922600
ff739300
0027d8f2
007fcbd6
01b5a852
ffe5de00
00450a3e
fff47600
001d97eb
ffd41900
0017e572
00054dcd
ff798600
ff954c00
ffd13100
0130a752
ff40a300
ffb26c00
ff691f00
ffe18a00
ffa11500
00aa4bc1
ffb6ea00
ffb18a00
ffebab00
ffa7b100
ff571900
0063d7ea
fff92400
002c24b4
fff7ed00
ff804300
fffc1e00
00e66565
ff8e5000
00d063cc
0086806b
ffea8f00
ffbba100
ffb16a00
ff63ff00
00bc52a9
ff944f00
000df39f
fee8d100
ff8a0a00
006c4774
fff21a00
005fdc2e
fffa4e00
01376b90
00262211
007dd116
ff21ef00
fec6a000
0079c8f4
fff1c400
00a6a491
0002471f
ffb83d00
fea74300
ffd0e800
fff68000
ffc84f00
fff58000
00264193
ffc47400
00770a61
ff6e2d00
ffa21500
ffb2d000
003454b4
ffdc8a00
ff807a00
ffc65e00
00734a40
008b8dd7
ffe6b200
003720eb
ffcfdc00
00017a8d
ff487d00
ff4e4300
ff907300
005365dd
ffdc0400
ffb5f800
001efacd
000e11cc
ffc59100
013fa08e
ffc61200
ffd56900
007db290
ffdf4c00
00240f2c
ffd69200
005cf2d4
00173f56
00766306
00bc2a3c
00491f92
ffddb800
ffde6200
00007686
000a0160
ffc64100
00f5ae1f
00390ab2
ff712700
ffdd3a00
00495f38
004f5e9a
ff9ca700
ffb41300
00bbbc17
ff697e00
0035c18d
ffe17b00
002217de
ffa29900
ffc7db00
ff8d9800
ff9c3e00
ff4f9d00
ff972900
0066d178
ff9c5d00
004e52ee
ffda7d00
ffe39900
002c5997
ff989000
ffe85500
006942d2
ffeba700
0009f994
fff42100
ff8bb900
0023a7e2
ff682c00
ffad6700
00b7a141
ff4e9500
ffd6ae00
00c33514
ffc68200
ff287800
003dfec2
ffd0b200
003d34a8
0051415b
00c8410d
fffe0b00
0042be10
00a915f9
ffef6400
ffb8d600
ff850a00
ff8c6700
002046cd
ff75b800
0004f213
ff93f800
008626cf
ffba3a00
fffb1100
ffe21b00
ffc17100
00933645
ffc61600
ffbffd00
002fd9a3
ffea3a00
fff35600
ffb21900
ff964b00
008f96ea
ff563600
0027a247
fffc8c00
ff498e00
ffd72a00
ffa6a600
0016ac49
005f93f8
006c33ca
ff694100
00652f4f
fffc0400
00a4420a
ff6bfc00
008834c8
ff93b500
ffad5400
009fbb5c
ff925500
004aaca9
feebe200
ff926c00
00163f66
011c82dc
ff8f0600
0059e383
006ff878
007b2546
ff496400
feea6100
002919e6
ffdfc900
003e8203
ffcc5e00
fff93e00
ffc81900
ff84e500
00177686
ffaf9500
00b4be24
ff7e3e00
00a66402
ff1dfa00
00ea45a4
ffadea00
ffdcbb00
ff7c3300
ff769100
ffa49300
00cbd1da
ffec1d00
ff0ef200
00171fcf
ff8ea800
00f09cfb
0051da89
ff17d600
00f9d741
ff3ee300
00543818
fed9b600
0026e097
ffef0700
fffebe00
00bbe062
005c8a59
0007d698
0036e18c
00477d6c
008ddf98
ff5c0d00
ffc70b00
0089a654
ffe6d000
00070118
ffbcc800
ffd89c00
00660506
ff6a5d00
ff57d700
fe3a1b00
00c6483c
fee2bb00
00fe5049
ffd41f00
00f03550
0001f75b
ffa9ae00
00361a7a
ff2fb400
00600f36
0003e971
00ea640e
ff12e800
00cae49b
0057d8bf
ff28d900
00759d4c
ff975100
001495e6
ff341600
ffdf2300
ff7fd800
002a5278
01594cde
003024ee
ff37c600
004119f4
ff949300
0171bc00
002eea1e
ff6d7100
ffd31e00
ffe29500
0004825e
00129f82
fe588d00
0062a464
ff55c700
ffb66a00
fec78700
00039471
ff864b00
005c3811
006861ec
0063366e
ffdc8e00
fff25b00
0091b0fc
ffa0f200
00a0a996
ffb61300
ff7f2600
ffd57f00
fff85600
008e0241
00071b77
00fb66ba
001e9431
00610a90
fed68600
ffe69400
ffc29900
00b3149e
00286144
002d4f02
00aaea37
ff1ea600
ff0fb700
0013f21a
ffd3b900
ffd49400
00c6dfaa
fe610600
01044020
0021a0f4
ffae6c00
000feae3
000169c3
0087add4
ff0b7900
ffa86b00
0001b8c3
00c13e4b
014a274a
ff925f00
fe042200
ffc6ab00
0093eace
01896b02
ff875c00
00bc8f7e
fffe4a00
feb5f200
00a2e894
00baa850
ff462300
00e5ce0d
0040457e
ff3c7000
ffa34200
008400d9
feeb8600
0113f010
00a42b14
fff33c00
fefa8e00
0054aef0
00738083
ffbfe000
ff83e700
fff8fc00
ffa6c200
ff5c8800
005bce98
ff7a8b00
fff7d500
0069954e
00b4a772
00f7f252
feb78b00
004d8ef1
ffe18800
00344c30
ff30a300
0114eb08
ffab3000
ff1b7a00
feb19d00
0001a133
005a1151
00dcc0ee
00a2e94f
feb4e600
00ebaade
ffe4de00
001440ba
00b447a0
ffd72c00
0081bf15
0087e2e8
ffb94d00
ffc00500
010f59e4
00d1aaf2
ff825b00
fe928b00
feea5f00
ff504700
01593f96
fffe1700
00651376
ffd37200
ff304400
00a33c4b
ffea5800
0121b9bc
006709ce
ffb1d700
ff9f3500
001edfcd
ffda4200
ff4aa900
0121d40c
007a6548
ffc15600
fe599200
002f3af1
ff9bec00
ff8f1e00
00504e4a
ffbccc00
000ef549
ff5dd800
0066351a
0011b2b3
ffca9b00
fe9a7100
01995d92
0018bc9f
004b7b86
ffed9700
008f77cf
ffd39f00
ffbbac00
007defb9
00078b7f
ff724700
ff814500
ff9de800
01014fd4
01702ce8
007f9b76
fe6d7300
fe914c00
012b10ae
011f73ec
fed59300
01db0b3a
00b3d5cb
001023d6
00143bd8
0002720f
006641b4
009e21d0
fefab000
00165c4a
ffa28300
ff622b00
ffc3a700
010af9fe
00a32546
ffe7b400
00b2d173
fee78000
003d2177
00965023
ffb5f500
0153329a
00a7745d
0041e788
fee53d00
ffb5da00
008c42b0
fffbcd00
00e219e3
fe8a7100
ff679700
00260351
00375438
ff73d800
ffdfe500
ff734800
002e16cf
ffb55600
ff8f5f00
ffecc000
ff342d00
ffcffc00
fffcb300
0041e798
002926a3
ff4c6a00
008f603e
fff42900
005c50d2
01db3bfe
fe545b00
ffc80800
ff8dc600
015e28ee
fff86800
012d866e
00163b99
fd3a4e00
00b1b9d6
01c165b2
ffea2800
00292965
ffab0900
ff38ba00
007e66fd
ff9a0f00
ffaae900
00b789a9
fe3ff000
ffae3c00
ff3a1000
ff7abc00
ffdeac00
0092b0d0
001598de
0052c25c
0087fa92
fefae000
00687422
ff6aed00
fff7d200
012d49bc
001a33ea
ff04ca00
ffba6f00
ff1c6600
0011eb6a
00c2fffb
00175d07
002e5210
ffeb9800
008d48dd
ff830000
ff85d900
ffe29800
0086c1cd
00240fe0
00471f1e
0066631f
ff7e3b00
00195c8f
ffc06800
ffb44500
00886a8e
00a3f33e
00d174dc
ffa45400
0165cf78
ff758500
012004b8
fe015500
ffe5c500
ff027100
00a349fe
ffc00100
00371a55
00b6fe9f
ff706800
0048182c
00544d3e
ffae8200
fef8be00
009aa442
ff4f9500
004f72f0
ff675400
fffd8b00
001c6732
fed89200
fff62a00
fea0c100
ff548f00
004006d0
00980a3a
00b2d0ee
00169d9d
0050c5c6
008e5a88
008263f0
ff309100
010f5494
fffdff00
00297e31
feb1c700
00882920
ff8d5800
ffc3ba00
008460b5
ff2ee700
00ba6629
00535010
002f6126
ffb54600
ffb5ed00
ff7a9500
001718bf
ff6dda00
ff8dbf00
ff8b0e00
ff670800
00212ab1
ff640600
ffefe600
00aaec72
00a5c344
fffbc700
ffe19b00
00de9079
ff2dbe00
0076df65
ff559300
ff5ac300
ff1acc00
00d31306
00fbfd40
ff62be00
ffa68c00
00d52c4d
0091d251
fedf0d00
00465442
0029ef36
008c6ec5
ff804800
00a2d8c0
ff9c6400
ff4b6500
fffb5b00
ff72af00
0120c6d0
ff286500
ff652600
fffaf700
ffae3000
001b6ca6
00aab8ff
00c076b8
ffe11900
0033ecc4
ff88d100
00c8d903
ff975700
ffc04c00
fe789700
0092099d
fef85900
004bde08
ffe72200
ff0f2200
0165af02
ff6d5300
ff5b3e00
ffee4f00
ffeb5b00
001bf174
ffdf0300
fffb6400
ff870e00
005fe6f2
002f377e
006da35a
ffed0600
ffd7f000
fffbaa00
ffdb0c00
004bc06e
007d55cc
00563822
fea1e000
003670ec
005dbe0e
feeb6f00
ffe8b300
ffac8e00
0080fac4
ff193200
ff76e200
008b7dcd
00d4ab02
ff282b00
007ee68c
ffb9f800
01019898
006097c9
009fbb77
ffeeca00
ff82b200
00b260a2
ffa4b800
00257137
ff807200
ff560400
ff90f800
00994b73
00735726
009c1f75
ffee5600
0064fa42
00491dfd
fe912f00
00a548cf
ff93ae00
ff965f00
ff62ab00
0048a086
ff1d6e00
00a64e18
00489d50
fe70b000
00f82903
ffc86300
00402f4a
00a7b76f
ffd76e00
ff7aa400
ff657a00
008c34cd
001a0179
ff5dc800
ffdf8200
001b3f32
00200881
ff0a8a00
ffa19c00
0090917d
ffe2e600
00e5321d
ff74ac00
fff9a000
ff5aa400
ffd3df00
001df0b3
0069b3ae
fecddc00
0050695c
fee0af00
ffe24a00
ff53c600
003b9b46
fffcee00
00807da0
ff729800
0009b49e
005beb7e
ffabbe00
ffbbc300
fff19800
0068349e
ffada600
ffa64d00
ff2a6b00
003163a4
fffd1100
00a3cf39
0078e4f8
00813143
ffe9dd00
ff9f3700
00a67d86
ff1aa300
0081e5e0
fffe5600
004c17ed
ffeb0500
ffb74600
ff2cf300
01558342
ffcb6000
ff963600
005e4715
004a8b77
0087758b
ffdf8900
008314cb
ffe8b600
ff637600
ffd9e800
ff797500
00920e90
ffeb6600
008fbfbe
0090e902
00222a80
ffba3500
ff3be100
000424fd
ffcd2d00
ff32e100
ffa9e400
ff470200
00554bc8
0015e4ef
01997a20
ff2a9300
ff5fd300
ffba9c00
00a2f228
ff3d7600
002b8364
ff086d00
003e2b1a
007e5db4
00d7698e
ffe8dd00
ff9c7d00
0005cf53
00124008
004f112e
ff62c700
ff6d6400
ff66cf00
00c0cb48
004a190e
0052c45a
0002cdba
007e4a73
ff573600
001e37b2
ff698600
ff53b500
002c3135
ffd63d00
0127490c
ffbf8200
ff555600
006d5970
008e43e4
00699dac
00849705
ff4ec800
ffa1ba00
ffa1a300
ffe71500
ffae0900
ff73d700
ffc63e00
ff689100
002d6b3c
009ec305
ffe30200
00e331bd
0002dea4
00d0bd3c
00a62289
001f7765
0072ac84
ff6f1e00
ffa4a200
ffc03d00
fffb0400
00ed85ef
ffa59e00
ff560200
ffec9300
ffc38400
ffc6fc00
005b3a62
ff98bf00
fff78100
000d3e35
0024f711
ff5b5800
ffd1af00
00abe8a8
0020f731
ff7e2400
00652ca4
00a0a9ac
000b740c
ff621300
fffffc00
005315bb
005e9afe
ffd18200
0035ffe2
00447f1c
ff9b7900
0063bc3a
0050a23a
ff5a8000
003edb56
006aa68e
002ce285
ffdc9900
00403b1d
ff4b6f00
fff2d300
ffd52100
003fc4ca
ffec0200
ff6ae400
ffc22b00
ff59b800
0053913c
002a8e98
00a208ca
ffcced00
ffb3a300
ffdb1800
ffe6a800
ffd05300
ffca0300
0042db68
ff585300
00c1e850
005e4494
00a8ec5e
0024e6dc
00098ae7
ffa67e00
ffdab700
ffaf1f00
ff210800
ffb08e00
00394984
ffb6bd00
00123a05
00361f30
ff56ae00
ff3f0500
002a62a3
fff41200
010177ac
ff849c00
ffdeef00
003e28db
0048f3b2
ffa1a900
ffebb000
ffd88700
ffe6a800
003cabfc
ffda3e00
ff84dc00
ffb08000
0095e247
ff624b00
00611e00
002fbead
feee5800
0117b3b2
ff9e9d00
006084e6
ffaa7400
fff11400
ff3f7e00
00b83055
004a2644
00b6750c
ffcddb00
fff52d00
ff901e00
ffd15100
ffa67500
009e7fa8
009881e9
0021ddb7
004f40c6
006d1b15
ff5b6600
003007ef
00289b97
ffc45400
ff5bab00
fff0b400
ff1c3200
0075f9a8
001404a3
012e367a
ff61d600
ffdb2d00
00a8dfc2
ff989700
0133fdb2
0080bec9
00c4bc9a
ff2e7500
fff61500
ff80e400
ff9b1d00
004bc43e
ff520e00
007088f4
ffce5500
ffa02400
ff816900
0028a17e
0056796a
ffec1000
feb01600
ff917a00
ff7fcb00
003e992a
ff62ef00
ffad1d00
01b883f8
fec0bb00
007bb38f
00912b4a
fecd6b00
00d98636
004a5673
0052bf5a
fefacd00
ffd81700
ff61ab00
0019e447
00e8296d
009f685f
ffb6ef00
ff9c9800
ff6b5d00
00738784
00383d2a
ffa1cd00
fff5bd00
ffbd4b00
00593079
0067c984
003b5288
0097d99b
fefead00
00a257eb
fecb8e00
ff44b600
ff9fb700
0047aeec
ff41c400
00c0a4cc
ffff2200
ff24ec00
ff2ce000
fe761500
00a5b744
00efe8f6
0187c728
ff9d3500
ffeb6400
ffd5c000
00cc54e4
ffb52400
ff9b6700
00538502
fe7fe400
ff3aa200
0029afba
010f5e4a
00ccb430
0092e7a3
fed3cf00
ffe28900
ff5d3b00
fff10600
ff50f700
0081113b
00359bee
ff098700
0128b7ce
003a66fe
00804896
006646ac
00460b8d
008ae5fe
fe619000
ffa9ee00
fe4d4d00
0103dbb4
00b8a08b
00c685ba
fe939700
009ef03c
0039dc50
0050f659
00687b0c
0038f068
ff678700
ffbee900
003c3598
00162318
009f84ab
00a8e62e
ff9e8c00
00e2d213
ff7c3f00
00192c27
ffc41100
ffd46f00
ff334100
004bf1c2
0041b8ee
ffa27800
ff5c1a00
ff048000
00eb1f67
0079da26
013b455c
feb69d00
000be11d
ffaa3800
00dd00dd
ff732300
0099e51e
01267480
ffeda600
00678269
ff789000
ffe06200
00e7c8d7
005da7f1
fe953300
ff819900
ff627d00
000d06ca
00139e70
00a1f777
0087390c
fe703400
ff913800
feea3b00
01298536
012a23d8
ffb42a00
005241e0
fed63f00
ffee9400
ff7dc400
009c7be4
0105fa20
01093d8e
fe8e5c00
00a69e7d
007d21a2
00159d1c
ff87c400
000cdea2
ffffc500
ff8deb00
0018639f
ffa55b00
ffaf5d00
ff0c4b00
00b8d497
004ff040
ff6b6800
00266bdc
ffb47200
ffbfed00
ff055a00
ff761d00
ff827700
fe572400
004a6806
0020077a
01a2bd80
00c0f7aa
00d76c0b
ff0b5700
fe2ead00
004c473e
01ea29a2
ff699b00
013334f8
007191ee
ff94d300
00171d26
001bc9d4
ffb3b100
0027a650
ff96a500
ffa74f00
0027e435
fe49c500
ffcdf900
004ef504
001de6cc
00764615
003e37ed
000be968
ff063800
005c2247
ffc6e900
01628596
0060a9ba
ff276600
fef6bb00
ff39b400
00dbda21
ffe5a100
0087f4f3
feb30e00
007f8a6c
009b41e5
00779da6
0038c0b0
000cb17c
00063531
00141f9e
00ab29df
0077a5fb
0059a2f9
ffb60500
ffe08a00
ffea4300
000ff1be
00115789
0067071e
fff7b300
ff429700
00336c98
00bf8758
fdd80900
000104da
00605c90
012212b0
01038a00
0078c604
0014a9fe
fe2a2a00
00e73a3d
01613000
ffd92a00
00075631
001f3ca3
ff15a700
01695bf6
00581cbe
00257cef
00c88336
fefc4400
fffc7100
004b7ded
ffd00700
ff96e400
011c09c0
006ccd16
00abfc5a
ffe46600
ffb9c800
ffb49000
ff244800
ff89f600
00e57875
00a24fc6
fe853200
0083b6c9
000562a3
00564569
000f5a50
feaf8e00
ffd88b00
009647ed
0091dc79
0099c0d6
ff662e00
00053805
ff8d2b00
0021622b
ff682d00
ff6c4000
00234302
002cbc12
ff547f00
fe784500
01396fb4
ff55bd00
00362fad
00dd8bed
0081b062
ffe64e00
ffdf5d00
ff1e3600
ff3d6500
002fc276
00202789
008a5d42
ff691900
0076ba23
ff50e100
003e1c28
ff8f1500
fff98200
002e635e
0080d4dc
ff358400
00a52ee5
ffa97500
00930d2d
00e3f145
ff46d900
009a7875
0036b5a0
ffb7c200
0096cbf3
0079df01
ffff7800
ffa89000
ffeb2b00
ffab3300
0021812c
fecc8300
00b5961a
feaab800
00928a92
ff426400
0025f251
00450276
00088699
0098ee3d
ff963e00
0047a84f
ffbb5400
ffac0800
004fbd32
00254bd0
fffc3100
ff58b300
ff72c100
00a02cc0
009a94ac
ffbd4b00
ffa40300
ff125500
feab7900
00765484
0023bcce
ff8d7700
0051f82f
008a55b2
ffcb6d00
003b9ab8
0014df39
fdfe5c00
ffd27e00
0028fa38
00e6afe4
ff45c400
ffdbbc00
017216ca
01056c74
ff83ae00
0093a7f2
ff892600
ffa03d00
0013c4fc
ffe14700
ff9d7600
002a6a54
00fcb1b1
ff054300
00d97755
ffaae200
00ced938
ffee2f00
ff8cc400
00cf6a21
00203d34
0089aa3f
0108839c
00cadc36
fed79000
000175f5
ffd5c200
000558bc
ffb21b00
ffdd6100
005cc8da
ffb0ff00
0102d4e2
ff956f00
00e505d2
008a3482
001b0992
00961bed
ffe48300
0099c028
002c93e8
ffd3cc00
ffed9e00
00763780
ffa57100
ffc67500
ffde8300
fe58e500
000b7978
00477310
ffa10800
0003a874
00f79469
ff582100
ffabc000
00eb6d86
ff7b4f00
0087a491
ff9b5000
ffa09f00
fee3b300
0064fdf0
014e2fe8
00c9434a
ff020800
008bceb4
007dc40d
0022e9b0
ff67a400
00121686
ff972200
ff907f00
00b107b4
ffe42d00
005cf27e
004f333e
00cfe464
00b6c5bc
0031dadd
ffc78d00
ffd22900
ff4d4200
008bde4c
000d2c79
fe887d00
013bd11e
003cab06
ff1a5f00
0019a18a
002c5fd5
00483c46
006da908
00a3be58
ffbabe00
00c89f40
fffd4500
005a50f7
ffafb100
ffbddd00
ff728d00
0044ce29
0011e8bb
ffc96d00
ffdbb800
0037f61b
009e96ca
0048112c
ff727d00
fff6a800
ff2cdd00
00906dcc
007ee95b
ff911200
00874b86
ff416000
00b72a97
ff4e6000
01c6d26e
ff82ec00
ff8c0800
ffbe4200
00620140
00353144
ff86fb00
0017743d
007ccabe
00576098
00c386f3
ff60de00
ff7d9c00
007d327e
ff767000
00442042
000ddb8f
ffd9d400
ff923c00
ffd55300
006da45c
ff254800
00bf8279
004b0ae8
00262dc2
ffbd4a00
001a0851
ff459000
011b2a18
000112e5
ff8a0800
003d3803
ff8fe400
007b9ab5
00a6d71a
fff1fc00
ff748400
00362d05
ffcf7000
00017369
00417f85
ffebbe00
ffda5900
ff7c1a00
0041a3d4
ffbdb200
ff77ef00
ff6e0800
009bc291
000186c0
00d7cb4b
ff99c700
00125338
ff936800
ff67c900
ffad0600
ffa6dd00
0044e6c0
00f4b773
ffdc2a00
01aed862
ff41c200
ffae7b00
ff966300
ffe5a100
ff6fd900
ffe68300
ff7f1d00
ffa1fc00
ffe6d800
01294d3a
ff9fa200
0083585b
004f9581
ff33a200
ffaa7500
006ddb6e
0027c122
ff76c900
000565e2
00a580ab
ff1f7f00
ff85a800
006d34d5
0054c236
002f21ac
ffb38f00
ff5cf000
ff57e000
ffb1b700
0055d6f9
fff2df00
ffe6c600
001ba625
004eaf43
000edce9
00786d4a
005b99b2
00291508
ffdc1600
009da064
ff75b800
ffb64c00
0072f466
ff851500
ffbdae00
fff4bd00
ff910300
00621e18
ffe4c100
00b92c17
fffcec00
ff3a6a00
003cff2d
ffcf6500
0008df00
ff527d00
ffa7ab00
00b0baec
ffa53e00
004786fc
00d5c635
000e7457
0022d216
ffa40b00
ff906700
0040efd0
ffedb700
00b7a906
ffd9b800
003e9dac
ffc2c300
ffb3e700
0025f5c9
ffa62000
008a8459
004c870e
ff9f0100
ff4df800
0050319d
ffab7400
ff660600
00bac6a3
00a1ae12
0091ced7
00a148ad
ffcb7000
000e087b
ffb0fb00
ff895d00
00a65d77
ff9b7000
ff9d7e00
ffa7ea00
000d3533
ffe87100
ffe69500
ffc17900
003aa5ad
000c0230
0004ae84
004c0b85
fffce600
007c7e52
007de77a
009db198
ffe04a00
ffac2b00
00cec82e
ffaa8900
fff60900
002507da
ff9cfd00
007d1318
009fa31c
ff80d300
00ab5c88
006a8d3c
ff899a00
000d35bf
00334140
003a19df
007212aa
fff03f00
00a3a2f5
0006354e
ff747800
00070203
009e1c06
ffd26900
fff9b900
ffcf0500
009a9d33
ff9c2400
ff72b900
00040808
00b3bdd1
ff19ac00
ff48dc00
00bbe607
00c529fe
fff37f00
00b54dab
0109be3e
ffb72c00
fff7ea00
ff1e0400
ff4a6500
00205b8d
ff94cc00
008a90c8
ff7c7a00
001d720e
ff976600
00113e1a
ffe6ce00
009964e2
ffb4cd00
ff65cb00
0099327b
ff609700
ffc18800
00208610
0036c77a
0039d45c
0099145d
ffe0b300
0058531e
001ce985
009312f8
00b50fa3
ff4df200
001d9700
ff73f200
005b0cb4
002324c4
00706518
002a52ac
fffc4e00
ffc0b300
ff8dff00
00a485db
00952110
0151a620
ff175b00
ffd9d900
fea12800
001524ab
ffed7300
0032be98
00ef8cfd
ff67a300
002c97fc
0067e526
ffd2f100
001d316c
003547ca
ff345c00
ff20b600
0088d808
ffc0b900
ffeaf500
ff644a00
00bfd234
ff249100
ff945e00
ffa4e700
fffc6900
00788612
ffb70e00
00d74fb7
ff16ba00
0008c2ce
fe7cda00
003e21cd
0004ecfe
00b3de2d
ff4acb00
0038a7ae
ffabbf00
00788c09
ff840a00
00430e23
009baed7
00710f7e
ff82f700
009ba804
ff671c00
013e7ab4
002f8e83
00478713
ffa4af00
ff38c700
fef85f00
00a1705a
ffb2a400
008b7252
ff689800
ffde4d00
ff6f9700
febecc00
00554160
0028b558
01741572
fff63a00
ff84e700
fea78900
018f1f98
00193bec
fffd1000
00d0aa7e
ff469100
ff523800
00416158
ffe54400
00568bd0
00217ffc
fe967b00
ffda7400
005aea88
fed65900
01015b38
004d2258
00aa49ce
ffa1ed00
001cadd3
fef6d700
00b84ad1
00e7cd17
007c7c93
009f8316
fe5aca00
fface400
ff2d4700
00578363
00ac26db
011a8abe
fea5f300
ff58ec00
ffecbf00
00803eb0
ff89ef00
ff86ca00
ff9de500
00242ba9
008c7fba
00a1805d
ffb17d00
00d8de6b
ffe7b400
00874740
ff9aa400
ff55cd00
ff75c300
0096d893
ff251900
fff43c00
ff972600
ffa70700
ffa00a00
ff75ee00
018dc698
ff9adf00
00f95b5c
fee93400
fe58a900
ff025400
01491454
ff907700
00997cb6
006becee
ff94b500
ff49f700
004ad7c8
ffe54f00
00f6d56e
ffe93600
fef36900
00897b0f
fff4f800
ff698e00
ffdea200
ff686100
004450c7
ffb15f00
ff3e0700
feb88a00
01520028
005b122c
ffdbf100
011c02c2
fdf3c300
0088b046
fee83a00
010ff6ce
0038e8cf
018df568
ff1d1700
003c02e0
ffce7800
00314007
006113a0
0033d208
0000541e
007efe28
ff842400
ff7b7000
ffcd5500
ffa94600
ff9d1e00
ffda5b00
0085b07a
ffc81200
ff6fe700
ffddb200
0002c70f
00c8e4a6
000dc26c
ff671600
fffdb100
004c2641
01502080
007d73d8
009f2f68
fff92e00
ff158a00
ffabe200
0160ff02
ff3f4e00
015b6cba
ff3bbc00
ffb1d700
005905f5
00414c3a
004bd29a
005331da
ff7b2300
ffebae00
00e0038b
ff574900
00c11c1e
004aed37
ff548900
00788a4e
ffe8c300
fffeec00
ff2b2700
004df79a
ff4c2000
01465fa4
00bb2d29
fe690200
ffe7d400
ffde7c00
00124b63
00db42c3
00822c8e
ff04c500
ff622000
0000edf7
fff7f400
0085ee00
00746b55
001742b7
ff974a00
ffd0fc00
ff55ed00
fffa6a00
ff0f7700
ff023f00
001ab1aa
0014f9bc
0048cb56
0074604f
0081ff4b
ffd4bb00
00b0a921
ff03bb00
fee95700
ff775600
002a18b9
00862348
fff1fd00
0037ce56
0020e4e0
ff2e8100
008986c3
005d76c7
0020ab3c
01240d60
001a6658
00492b31
ffece900
00d2b723
ff9cda00
007c68b7
fea6fe00
ff560b00
ff9d7f00
ffc8e100
01717b34
013b8030
ffcbdd00
007f6f8a
006b1e76
ffd48c00
ff9cf300
ff71c900
ffa58400
ffed5400
00193d96
ff73c500
00b014a7
fffe1c00
002938a7
00e8eb82
00587ea3
0010983e
ff81f200
ffad6700
ffc9fc00
ffca2000
ffc68600
ff641f00
ffabca00
0060ecf4
ff7ea100
ffd6ab00
ff8b7e00
0131070a
ff98da00
001d8135
ffc16e00
003a52df
009bfabb
00092562
ffcf9600
fffe6500
0023ed8b
fe5c5700
ffa88400
0006ae5d
009dcde8
ff6be700
007638ce
ffc88b00
ffd6e700
ff84db00
0024a89c
0036bb62
0009139b
00629e60
ff6b4c00
005d7668
008f553f
0078a44c
ff189f00
00256774
006f3aa4
00edd326
00ab088a
ffc2ac00
ff15e900
002f1e06
000f114a
000e5968
ff8f4a00
fee06500
00979cee
ff739e00
ff8a9f00
ffbea200
00534fa1
0030ba7a
fff2d300
fff87900
000c0bca
fff6c200
00a920f3
00476255
ff9f1000
0096f723
00992040
ffa61100
ffe22400
0077b03a
007cd67c
ffb36e00
ff6eb200
007906c4
ff554c00
ffaee800
00075f6d
00ba2de7
0036e446
00170d2a
009320cb
003dbc37
00abe10e
fde59900
00e0f6cb
ffd1a500
001595ae
ff021900
008e1b31
00dce8dc
003f6a5c
fe98c200
01115cac
fffe3100
ffc5a100
ffb42900
ff6d4700
00259ef9
ffc5f400
ffb61f00
ffb8c300
006df6a3
ffdb2500
012dbfbc
00b689f7
fee78900
ff855b00
ff116f00
ffc86300
ffde4700
ff8f2c00
ff8f0700
ffbdb900
000da83e
ff0c5300
ffac7900
ffeeda00
00a8d94f
ffd29d00
ffa47600
0035a6b6
0096834f
ffba8600
ff9c6500
00610790
ffd05d00
fff88b00
fff6cc00
0035fbc4
007f1b06
006c55ba
ffeff400
0038d339
005d4c78
ff3a5f00
009f8bf6
0092b474
ffdf0000
0007de90
004832b5
ffc2e700
ff297c00
0069bc34
004c4777
01b10ee0
ff126200
005b6d60
ffb03c00
011704f0
ffe35500
ffd67c00
fe298e00
000bbf82
001252d0
ffe48400
ff863600
ff625600
ffbff900
004659d2
ff941c00
0001b444
ff789700
ffb2b900
00613682
01b9425a
ff979100
ffa06000
ff90cc00
ffb9a500
00506464
0071fb10
ffb0e200
00f6db5e
ff664c00
fe6e3e00
006d7b32
ff5a8800
00f8104e
002ee61e
0054ac64
00be28c0
007120f6
ffc07a00
00a78975
00191fe2
001e102c
0040f774
ff6d2a00
00046073
0074f0c4
ff630200
ffcbfd00
ffc23a00
ffa29800
000cdb15
fff87500
002ccfe7
00ac7ea1
0077dd4c
ff4d1100
0069b8ee
ffbb2b00
00557e46
006f785b
02786734
ff5b3c00
00b25337
ff3ef800
003206e6
001fc58a
fedff200
ff2dcc00
fff0ab00
00d15295
004bd38a
fffde600
ffdfc500
fff3d900
00837977
ffa65600
ff996c00
ffabbf00
002d5f95
00437191
017f9730
fec33700
ffed8a00
008164c7
0098a7e7
ffdd4e00
0015b975
ff48e000
00210ca0
fffd4d00
feb98600
009754ac
ffa25400
0084a64a
fffbb000
ffb56d00
00d21d48
00039696
fffdbe00
ff58d900
007db3c9
0090adf6
00367a31
005a4a00
0051a4e0
ffe3a900
ffe07200
0060a242
ffdbc200
fffbe700
00676ad0
ffed4000
0066e304
00349838
ffe5cb00
ff400b00
ff786900
003cb33d
000b8f7b
ffe03a00
01237f9a
00094323
ffed9200
000611ff
0099a61c
ffedeb00
ff9e0200
ff576700
ffe49c00
ff9c0f00
005548bc
ffe34a00
00733b8e
ffee3500
ff697000
fff5ed00
00582f92
004d14b8
0071586e
00574aca
004c74d5
ffb23200
0061a6bd
ffc8e300
000cf38d
ffe3f000
ffb03300
ff5c5900
0002c8db
ffd14200
005671d2
fff0f600
ff989200
00337499
ffb66300
ffd0ed00
005627a8
ff7e0500
00378c56
009ae74d
ffb2c000
ff7dc900
000e6f78
ff6dae00
ffebae00
ff9fc600
0057562a
00583ebe
ffc57100
00fe7f0c
0078cf78
0009948b
ff946500
00536ef6
0042dc49
ff904b00
ffed7f00
ffb1b300
0085ad02
ff5a6100
ffebb200
003428c4
ffce5800
ff9d0300
fffb5700
ff8cf300
ffe95e00
ff8f5800
ffe27400
ffdca700
0093d9d6
ff65d000
ff50b100
ff46e000
ff8c6d00
00425a36
ff9dff00
000cb893
007043e8
fffd8500
ffc73a00
fff4f100
ffcb6800
00ceface
ffb22b00
00b71625
ff6d1700
001343fa
ff8e5a00
ffb3ce00
00987053
ffd4c300
ffc5fc00
ff538d00
ff36ff00
00748f1f
000492ad
ff771e00
00154d14
001ed67d
ff839200
ffc35900
0060e518
004a0f8b
004f32c1
0020c409
0062adc4
ffdcdb00
0008f006
00910de1
ffd90800
0095caec
0081bf58
ffd7bf00
ffc39200
ffa12200
fff6e400
ff59e500
000109b2
ff4b3900
00e8af67
0137b8d8
ff55d100
002cff9b
00271d48
ff5bdb00
ff46d500
ff41bd00
fffde700
00c42bc2
fffd1b00
002ea3fc
ff9f2b00
ff851500
ffb09500
00cd5f5d
008e96a2
ff96c100
ffc5cf00
00579066
0039a6ea
ffadef00
000bd975
006c7b40
0013ea3e
003ab0bf
fedb2b00
ff5d0300
ff9ee500
0082a1e1
00d1ec01
fee01100
00451832
ff974400
000e9e31
ffcc5c00
ffc2fb00
0041cb5a
00101256
ff8c4400
ff5a2700
ff57f200
000aa423
003d61d3
001fe092
ffbaa300
001b109b
005bfe8c
001b0000
fff2e200
00755237
ff98ce00
ff8aae00
001724e4
fff69400
0069caaa
0027a893
ffeeda00
ffdaf200
ffd32700
ff4c4000
01d6551c
0007c067
0196f41c
fffe1300
ff67c300
fe0f2900
00247155
ff24e600
00ad2579
0005fa5f
001fdda3
ff79e000
004f6e7f
00426b5e
0091b38e
ffb3e000
ffef0700
ff660700
013049d4
ffd95800
0024d031
00b6b47b
01044e24
ff541100
0004a7d0
ff5d4200
00347a28
ff4ebf00
00ba84c2
00ee80b5
ff0b4e00
ffefc000
feeffe00
ffef0300
ffe33d00
ffac0e00
00330252
001555c2
005201fb
006db4e6
fffeb500
ffbb7900
ff8f2d00
ff973c00
ffd18d00
000fd0e2
ff64fd00
00af2d25
0040cbd4
ff81f200
ff444a00
ffdfaf00
ff3cdd00
00b0d730
ffc29300
0042a55e
ffc2bc00
ffb47200
ffe6e300
ff8b2700
018ca42c
ffccc700
0132db7a
ffe26800
feb4fd00
fe5d5a00
00d9fc61
ffc8e700
0032129e
00504953
ffdf8a00
ffdcd200
ffa63d00
ff21f900
ffeb7500
ff8dd200
fffc9b00
ffdc7900
007cff86
fefc1000
0002354a
ff6d3500
014a39f6
ffaf0000
ffd5d400
fed52400
005001ac
0093bce9
ffd5b900
007ba10c
fee88900
00b38365
ff81dc00
006dbe8d
ffbcff00
00011f47
ffc2dc00
ffc36300
001ff6f9
ff6b8d00
00921a2a
ff880600
00984fd8
008f0e37
0066cc05
ff689500
00287c35
00f0c519
fec09700
ff993100
ffa66d00
ffb3bc00
ffd5b300
00840f90
ff1b0100
0099c1fe
ffa20f00
00a40acc
fff89900
fffdb200
00e13d52
ffb6ba00
0198c4f0
ffd23e00
fe4b8a00
ff5c6300
0182b56e
002de45c
005f3da0
ff99c600
ff58d000
00475f67
002d788d
ff5d0e00
ffd66000
ff5abf00
00bd4670
003c5eb6
ff855500
004a9372
00912d7a
ff3d1800
00c426ca
00104f72
ff79d200
ffc34e00
0109c556
ff959d00
ff53e000
0015bd29
ff138d00
0029e54b
ffb05c00
00e8cd98
00c0a1ca
00306138
007404a2
ffafbc00
ff65c800
00a49953
ff642700
009e0b0a
001f90b6
0000f9fa
ffc5fb00
ff954000
ffaea300
0013a296
ff8d0700
ffe21200
00d70318
ff7b8d00
ffe0a500
00e8bf0e
ffa5d300
00bc123b
007065ee
00679b16
ffc8f100
0032ac66
00e3d336
ff825500
00bf692c
00fcddbf
ff00db00
fface300
00ce9d66
003c2f85
0019fbb7
ffaa0800
ff939a00
fffc9600
004d5cc2
002ddd99
0039359b
ff7e6b00
00767fd1
010a6448
fefb9000
002eb780
0035b8be
fe74c600
00e65775
00aa3807
fefabc00
01000ab8
00897b67
ff5e0b00
ffc70e00
ff02a900
febb2800
004f8e1f
ff1df800
ff7bc900
00c9b467
00d2c562
ffb98b00
ffd6d100
ffe17b00
ff930b00
003a692d
009241af
0034a798
007dcfd4
ffd73e00
0074ac66
00a91045
ff45b700
005e9f90
003ad5da
001e44be
004d92b5
fff94200
0098fe42
ff4dac00
00c6c989
ffdfb900
ffae9c00
ff44e500
ff9f0f00
00482685
ffa38a00
ff733e00
00740652
fef88000
0062ce6b
ff675600
00db54bf
004be408
ff89f500
ff771100
ff9bcc00
00435d62
ff905e00
004fb8b2
ff744f00
003bd8b9
0116d98c
ffe03000
00b8db8f
ffdee400
fe870a00
ffe3a600
00441578
ff178300
00db476e
0056ace6
ff804700
00cf373a
ff1c4200
ffceb200
00cdebbd
ffd32600
0000836c
00172e98
00b7f255
00a7eb2b
00777721
ffc8a000
003b897e
ff935300
00492082
003b808d
008126e5
ffd62200
ffd1b400
009e38d8
ffa05b00
0027f200
0051e688
0060cd1d
ffd52200
ff905100
00b382cc
00557a26
00235bc3
ff4d0100
009bf643
ff41e900
00c6c6e0
00e2b2ea
ff99d300
ffe3f600
008cc227
fea14b00
ffb20600
fef75600
003e54eb
ff521600
003099ea
0049248c
ff2f3d00
00b1c622
001c3bad
006c74a9
ffb11400
007b69d7
00a81413
ffdcac00
00c1966c
fefbf100
fec1a200
ffd81200
00c574bd
fee4f900
ff913000
0050fa04
ffb2a000
fed68a00
fee81400
ffbc1100
004bb890
00329745
ffdd5600
007ac11c
00f374df
ffc59100
ff8e9e00
00565b12
ffd95b00
ffa47400
ff8e0600
006fe3b2
00120b32
002a4b1e
00799b68
002d1f16
ffd56c00
00789ccc
009ee18e
003f423c
00cb6b56
ff81dd00
0050c99a
ff84b500
000b2735
ff5bd400
00220c5a
ffffa900
015b9966
0057a8ae
ff91ca00
ff987500
000f0306
00044976
ffcf5000
febcfc00
ffdb9300
ffe30c00
fffcff00
00cd9149
00532fee
ffc0f900
0016d78c
001c025f
ffb03800
ff634500
ffbaf800
009e7a9b
0175d024
ffef5600
feee1600
ffd44f00
00e16d6e
ff2e2a00
ff5dcd00
ff90bc00
00146974
ffd1cb00
fe248500
0039d6fd
004a1588
00271b3c
00b4c2c2
ffcdd300
007e8d5b
ff8f6d00
009ec6cb
ff6ca500
ffe95600
00478ab2
ffca7300
ff761500
ff77a500
ffa0c700
00a5ea5a
ff75fe00
0031be15
00191bb7
00810dfc
fffee400
ffd7e900
00d6016c
005cedc2
00173300
00ec7ae2
ff638d00
009de693
00f3b90b
01f447e2
ffc81200
ffc46e00
000bcb6f
ffd39a00
ffef2600
ff7c0700
ffb72700
00984ae8
ffb56100
ffb3ea00
0070fb26
ffade300
00c7d32b
0080c591
fef45800
0026c20d
008f329c
ffcf5200
002f6636
018aef64
ff32ad00
00a0de89
00865b46
009b34bd
ff33df00
00113a70
003fb8ba
00a14c92
0085aceb
fe612b00
00300a6c
fff80c00
00ce1b3b
00811568
ff1b9a00
0049c11c
ff451500
ffaaa400
0022a3a7
007dcefe
ffd1c800
ffdf6a00
ff5d1100
0066c5d4
ffa6e700
ffa73a00
ffffb800
ff928e00
ffaa8400
00601988
ff75a600
0018cf8c
001f25d7
00050d38
ff151600
ffdfcc00
00a925ae
ffb46a00
00dc15c5
00d1277a
ffaa1e00
ff736900
ffce5200
ffb3ed00
ff1aac00
ff916200
ffc31e00
ff93f900
00210165
ffe61b00
ffe90300
ffd60b00
00380014
ff693100
002c462d
009e8713
0058cfd1
ffe1f700
ffd5b800
00746e6e
fec3ef00
00992168
0048aaec
ffbd3500
ff31bf00
ffec9300
0080b3ff
00283a0a
ff8cf000
fff1ae00
008047a8
003c34dd
00550a7a
001bbf17
ff05eb00
00967ae4
ff62bb00
ff935f00
00a51487
ffde4a00
0008a4bc
ffe28100
ffe61100
ffd87b00
001cedca
00099fc4
0094cdab
0082988b
00963a26
ff708800
ff5a9800
ff7ada00
00b143a1
003931e8
ff49de00
ffa5cd00
008be972
0002d05f
ffde3000
001073bd
00781ee4
ffc58e00
ff723400
00002ebc
fef12c00
006c14e4
ff347400
00571f55
0024e5ab
00b154cf
004ac5da
ff794700
007fd446
00383120
ff779800
ff74c800
ffda3600
ff786000
00224620
ffbe3f00
ff715c00
005554b7
ffc6ee00
00512cfc
0020bd78
ffa99400
ffb15a00
00626574
fff10500
005e9762
fffdf600
0020b946
001b31ee
000a7170
004fe6e0
006a5dc4
fffdec00
001bd0d8
ffdbb300
00a44876
ff814d00
ff6ea300
ff9aab00
ffeea300
ff9a9e00
007c7e8a
007bab76
001cd441
ffe7e900
ffed4d00
00a54e8c
ffe73d00
008f3c4e
ffc19100
00cd56bf
ff750d00
ff960500
00439668
00c11185
000b0509
0072bfef
ff6a9a00
ff3f6200
ffd2e700
ffa86600
004e70e3
0029c8a4
ff8a6700
ffbc8800
ff430d00
00080b6e
005f503e
ffe63600
000a7f79
00487a7c
ffc19300
ffc83900
ff6e5000
004a96d8
ff486400
000a0dec
ffaf0d00
00503f76
006f8294
008268de
00058c03
0073848e
0064cdca
002e1991
00ebd16f
008bb747
ffa0c500
00588d10
001c16ca
ff7d7300
00267ee9
ff5d9300
ff828e00
fff47200
0035bd5f
ff822b00
004919a2
ff755700
ff9bd400
00701a38
004eb240
ffc47100
003006f0
006a9808
ffaac100
00c2bd1c
000a9d46
ff85e100
ff4e4600
0021261b
ffd71c00
0019a66b
0065ffde
0070ac3e
0059dd8b
ff9cc700
00409cad
ff363200
ff286d00
ff2afd00
00ac37b4
005b2a50
ff8e8500
fff78200
003a14ca
ffb69d00
ff47fa00
ff6d6100
ff8b9200
00bd19f8
ff229500
ffb46700
ffcd3700
00b277e0
ff929500
ffc34f00
00677e46
001124a8
00a303ec
008d60a7
ffc6ba00
0051787e
0080779d
0006fe4c
0007c1e1
007b0b44
ff48b200
ffdc0f00
0051b808
ffe88e00
00629212
ff61af00
ff6b8500
ffe86b00
ff894000
00542fb8
009e2db2
0077a633
0056d3dc
ff7e0700
ff76f300
ff843500
ffd39a00
00872c7a
ff6e3d00
005114a0
ff9ab900
ffd80100
ff265100
000e78e6
000c68a1
001e3bbf
003846f5
005acf1f
ffacd900
00f9daf8
ff846200
00a9135d
002d111c
fe6ac800
00684654
ff84de00
003c9cd3
ffd54c00
00551a28
009a697a
ffd22100
ffc17700
ff72b000
0053cf7a
ffc8a400
004f01da
ffb01d00
00991efc
ff627500
0158baca
ffa21100
009f07fa
ff4e1a00
005c5cbe
ff648200
0028c685
ff827900
fffcd800
0029b43e
fffe4b00
00568940
fff0c700
00b2fbf4
00d563f5
00296884
005f964e
00aa809c
ffcc9f00
00a5e628
006500e7
ffecff00
008abeb2
003259e9
ff683d00
ffd8dc00
ffc14f00
0053e104
00787660
ff3cf700
0166ad94
00977d6d
00119bc8
ffc64c00
ff458b00
ffb4a200
008f161b
008222c6
00bad1a4
008bd3aa
00aa4697
ff9a6900
00fb2c95
ff7de900
ff4b7100
ffa0e800
003e3977
ff62d400
001b08bc
fff5e000
00e756e2
00288749
00e62ab7
ff824c00
ffa30a00
ffa4e600
00095022
00407256
003dc96f
ff6e5d00
013e6d5e
ff6c6200
00a418a8
ff3ad100
ffffff00
ff52be00
00c89bc8
006eaf5a
0080ed83
ffce8c00
ffb41500
00ee8496
ffe72100
00402075
00d56844
fed49100
00675a87
0094ae50
ffb34900
ff5ed900
003c9cb7
ffb62d00
00a944b1
0090c206
fff5f300
fff97700
fffd3700
ffd60200
00084da6
ffcd0a00
00936906
ffcfcd00
008d745a
ffdc4500
ffab8700
00468b6a
fff8e600
00659324
0027195c
00249309
00fe0a21
ff1ecd00
00d7a7e8
00e55b66
fe8b7c00
ffd0c500
fffe3e00
001eca80
ffb3fc00
0057dd88
0044f2f0
ffc78900
00ed0a2c
ffc47a00
00b4e21b
ff2c8f00
ff854000
00b5f8c0
ffb2a500
001e7672
013dc510
ffad6600
00e5f17e
ff6cbb00
fef64d00
00272bae
ff83c200
ff3c6900
00d6f6f1
ff884100
ff4e0a00
00ce003b
000acac4
ff86bc00
00cf8af0
fef69600
0021448b
00008954
ff8bc600
fffbe800
ffe43200
ff8b4500
ff711e00
001b0664
ffc80500
ff9fcb00
ffe35400
ffd79f00
00df44f7
fff1d500
00d6021d
004dbe05
00c431d3
fff78200
ffaa7100
00cbcaa9
ff064800
00d99a6f
ff10f500
ffbbc700
0064b9d1
ff359700
0046a22b
013f33a8
ff066300
ff906d00
ff838b00
fffe6900
00a0e3d8
004a8b46
0086323d
ffff9f00
00905591
ffcb9500
ffe6d100
ff6c1200
00564e82
002f381d
ff1b0400
ffb8a600
00b6844c
ff36d400
01336d6e
fff1de00
feffce00
004da531
feb4d000
ff483f00
0042abb0
ff32c900
ff8a9c00
00bd038b
00056b66
ff708600
00e5d7f2
ffa78e00
00735b2c
0048739d
001aa9e2
00a4d909
00859b8b
ff6c1100
0081029c
ffbc4b00
ffd58000
ffbe8000
00195554
0004f61e
ff6c7600
0082851e
00407d5d
00207014
ffb20500
ffc9e700
ffb5f400
0111fc3e
fe962b00
002770de
ff4a3b00
ffd6fc00
0068b7ae
ff2ed000
ffe51a00
01926f72
fe9ae500
000c0994
fe9c1300
004db266
ff800700
ffe2e400
008e2457
00bb1092
00830fed
ffeb3000
00a64430
fff31100
00357fcd
00c38483
ffa0b200
0041addd
008c68d0
ffd36c00
0068fa3c
00409e4f
ff45c100
00388f81
fec3d800
ffdd9f00
0048172e
ff1d3f00
fffb2400
014bed8e
ffc5cd00
ff8ee800
01612cf6
ff6dd800
0027ea4e
ff6a7900
ffead200
ffb6e100
002db4ad
ff7eb600
00280500
ffa98d00
009ed16c
ffeba500
ff768700
ffaa9100
0020c9bd
011f2dc4
0086ff80
ffc85b00
ffc15300
ffddf000
0039a00c
00832d82
ff304a00
ff73ab00
00c8896e
007a7ba2
00239a1b
ffa74300
ffad7b00
01286512
ff3a7c00
0073e556
ff07e300
ff7d4600
ffb7f200
fffa6900
00bdd6ed
ffc87e00
00c3ca6d
ffc42c00
ff8ccd00
0069512b
ffa31e00
005a1159
ff907f00
00c73fb2
0021643b
0049ae08
00318fe3
fffb3600
fed6e600
fffcac00
ffc15800
ff4c9e00
0052b8ee
ff5b4f00
00a10396
00dd6e32
0062332a
ff450400
00558a96
00549b53
ffd26700
fff49c00
007e694a
ffb2c400
001ebf51
ffbdfc00
ff783500
ffc83200
ff95a000
0056cf8a
ffda5200
ff737700
0024e6ea
fff61100
ff598a00
00a252e8
00974ba1
00648f45
ff00fa00
0021b247
ff8f1500
ff9baf00
0197250e
0141eea0
005bcc35
fff23700
ffbd2100
0008fa47
fec13b00
ffb73900
febcc700
001b202d
00af26f1
ffb5df00
00420bcc
000f308a
00ad0a32
0098d13a
fff54400
00c32614
00745ea3
ffab5b00
00b1dab2
010db620
ffccfa00
002c2fca
0034091c
00b9624c
ff4cfc00
0034a52e
ffc8a100
ffd39600
ffdd2400
ffac1400
004190be
ffeb6f00
ffed8500
00258043
001a1a89
00272796
ff675100
ffe5f700
002e5581
ff78df00
006b9ff6
fffde300
000c489e
0025d21e
ff909300
0078fd1a
ffd2b600
ff17ae00
0090c2f5
00265164
fffa5900
0089eaf8
ffc2fc00
004c3988
fff0b600
0034c20b
007ac494
ffc00d00
00829165
0188bd16
ff8d7800
0016a985
002cb0b5
ffd46500
fea67400
ffa92200
feb35f00
000eb8b6
0016d12c
ff83c400
ffbc5700
003554ba
ffc8da00
00521cb4
ff935400
ffa83400
00a38cf6
ffccdd00
00663dd6
006d3b01
ffc23100
005ae9a0
003ecf24
006a435d
ffbb9e00
ff152900
fffb4000
00590838
001796c2
ff5d0b00
ffe86500
ffd1df00
000ec54c
ffa40900
ff16a700
00437bd4
0076b3e4
ffee8500
ff629400
ff97ea00
fffc3400
008e94fe
0040b014
00924183
ffe8d000
ffb64d00
000a136e
ffac1b00
ffa95100
00a0a093
0054a4d0
00026bf8
009aceb7
00833ae4
ff364e00
ffebec00
001567e9
ff896b00
00cf9953
00a99808
ffcaaa00
0065f0ce
00ac122e
ffa80600
ff3f2c00
00767c10
ffbfbb00
ffd01400
0027aaf4
0071ed13
0077d07c
fff18e00
ffad1200
0041a25a
ffc54c00
005985ac
002af14b
ff9d3900
ff95fa00
00c473b3
ff882700
001856d1
ffa72900
ffc94700
0059bf3f
ffe6a300
0043998a
ffa90700
0080bf60
00328bb3
007c98c2
00795204
00b7b432
ff740600
002ecfde
ff7c4c00
ffb36900
ffcf1300
ffb3bc00
ffabc900
0007c768
fff70b00
fff5a800
0075cac2
ff5b4700
0061d91f
003dddd8
009af446
0086545a
0087e473
ffc3ec00
ffb66800
ffecb500
005e8ae6
004d8318
ffc61700
ffb66a00
00394bd1
ff7d7100
003500e5
ffcc0e00
ff728000
006b8d96
ffdba000
000c1d10
ffe30200
ffe31000
ff8fc000
ffa0c800
ff764500
ff9c6100
006a8034
0096c841
ff63a200
ffd68500
ff4e1800
ff745300
ff7fe700
005acff2
ffa11300
ffb8bf00
009637c3
00a87d9e
ff91ac00
ffc11000
0010cecd
001a7b6e
ffd44100
00804596
ffbd3600
0086dd8f
ffed3b00
fffef700
ff525700
fff62400
009c3541
00a648ea
ff993a00
0060bfbc
005a9aa0
007aba27
ff8bba00
0043478e
004b1e90
ffb7cb00
ffb8c000
006b5740
008800ae
ff6ab700
00697f94
002dc230
00161114
ff771e00
00820928
fff1d100
ff9ba000
00b93a1f
ffba6100
ffe17700
005409d6
fff9a600
ffd69a00
004745e8
0043df99
007a30b9
fffd6600
ffd9ad00
ff833600
ffe55f00
005ca924
0059a8de
ff5c2e00
00945366
000f3131
ff8e4400
fff7eb00
ffbdbd00
ffe3a300
00087f04
ff9f4e00
ffe9a000
ff6ff000
ffe20e00
009890d1
ff911900
fffc4000
00070268
ff8a2200
00706c02
00058e00
ffc8fb00
008ded2d
0042e05a
001fc78d
0037a2f2
0006820f
ff6b9200
fffdc200
005be514
fff91100
006799ca
00940514
ffe55400
0032f27a
ffaede00
ff687e00
ff974200
ff69d800
00044c29
0004d704
002bfd62
ffec7a00
ffa94600
000888e2
00ae141a
ff113f00
003004f9
ffbd6d00
004d7572
0064d40e
008ac8bb
ff837400
ff40df00
fffa9700
ffce4100
ff482b00
ffe4f900
ffa6f300
005138f8
ff59ee00
001a217b
00856f6e
004e78c4
00511d5e
0002f074
ff929d00
ffa53a00
ff5c5900
002acd89
ffc98b00
ff79a600
006ac0dc
005841e2
ffac6e00
ffeb1c00
ffe8d200
0029e1d9
009d968a
005ba726
ffe1c100
ffcbcc00
00538210
ff7c8b00
ff697600
001ad8fb
ff8fe400
001466de
003ff9aa
003db6bf
ffd55f00
ff95fb00
ffec3800
ffc09300
00195c8c
ff7b7100
004123af
ff6d0b00
002046f2
ff597800
0010ed49
00284c55
ffcb7300
000b3970
ffbd0000
00778c8e
fffc5700
01196e96
00b2e422
006c4864
ff9a3800
fff69c00
ff78ba00
ffd41900
ff950400
00618ede
ff790500
ff28e400
ff60b400
00918cc0
ffec1900
00aa7c97
00056697
00239f5d
ffd82c00
00345c2c
00240bff
ffde8e00
ff79fb00
00bb6164
0013fd23
fff20100
ff4ce500
ffb62500
ff698000
00bbea5c
ff204e00
003ace99
0040c52e
0014d811
006e43d2
ffee4000
ffd59d00
ffeece00
ff73de00
0033a1f9
003a2cea
0079c988
fff3f000
ffc18f00
008eb32d
ffa72900
0000fe78
fff21400
002270c6
0018ca97
00169f40
ffa1c900
0058f1d4
ff776a00
ffa6aa00
01244478
ffae2900
003ef038
fffb0b00
00970492
004dc6a0
00cd0b98
0086d482
ffcccd00
00f86bd8
004692e2
fff2c400
0071ad08
fec00000
ffad4f00
ff420000
ff89a800
ff10b000
00358c23
ff207b00
002b72dd
001ec4c9
ffc94000
ffc53700
00bf3fae
ff7fc000
00ec88be
001a0189
0005e040
ff591000
ffdd3900
ff602000
0085835b
007cda4e
ffe49f00
ff8fc200
ffe37100
ffa3ea00
ffe7f800
fff51b00
ffd82200
ff8c9000
00834621
ff7dbe00
ffe47f00
ff812e00
001f82b2
0072508e
00a300c0
ff8d6a00
006135fa
009f89ce
ffc4ba00
ffd59400
ff5ea900
00595e65
ff753800
ffdf6200
ff156200
ffb6fd00
00c4c5cd
fef64c00
007b1fc0
ff9b8500
ffafca00
ff66a000
0126129c
001330c1
ffa7df00
0027ec02
00c693d6
00048893
fffc9d00
ffaf0b00
fe53e200
009c9037
ff040000
ff3ff400
0036b590
ffc8bb00
00e39686
00107567
ff7b4e00
00852fc8
00f387c2
ff2c4e00
0118e06e
00426408
00675034
0054c85e
00b75ce9
ffbd9d00
001c0c26
006f2c8c
ff50a100
ff4b1000
0040c6e4
0068f6da
ffef6300
fff86300
005d8df8
ff92da00
ff88dc00
00070534
007b7f93
ffc13700
00461e50
ffa9ab00
00969a68
00828c12
00758cd0
ffb73600
001e1651
ffd7cf00
007eb03c
ff735b00
00474a9c
ffa12300
ff9f5f00
00b1dbcb
00c1e3ac
fff1b600
fff4ff00
00316fdc
ff97a900
ffd60e00
003c5b4f
00f0ee68
ffcae800
00ca29a4
007e6cb6
ff8ebe00
00d606d1
0061196b
ff04ea00
00bb9a60
ff299b00
ffa66000
004cea79
ff59d400
0037e74f
ff804100
00449f8c
ffbd5a00
00acbb64
ffbcfd00
ffd88a00
ff66d900
00971459
ff740500
00f5e7a9
ffa38d00
00e32be8
00744f7d
0033e36f
00277114
ffcc5400
fff5c800
fff62a00
ffdcb300
002ee2b6
003e50ef
00330609
ff4d7200
013782d0
ff6b4000
00e42403
fff8fa00
00012ced
ff5aca00
ff7a9500
ffd38000
003986d6
ffd2da00
ff9f5e00
ff962700
00481502
00256974
ff688400
ffc1e900
ff6ce000
fee14f00
000d086b
00804e8d
00601bf7
ffd97600
009d2719
0154f7ca
000b3b31
0007f72e
00952b93
ff890a00
006490f0
00b96049
fe9dae00
0126b1da
ff225b00
ff80c300
ff5a1100
fff19a00
00128df5
005522dc
006621ce
ff72ad00
0067c010
ffbbd100
00d5a8d8
ff815a00
ff6ddd00
ffa69800
ff9b4800
000fc54c
009d2620
ffc30300
ff976c00
ffc30300
0020441e
ff96a100
ff6d0900
ff235d00
ffc06a00
ffb0b200
006127ca
00145edb
012015f2
ff45e000
00a9687f
007ddcbf
0061305e
ffcc0d00
0067b1fb
ffa1f100
0027d13d
007b2853
ff734900
007e5745
00943b3f
005e487e
ff7d2600
ffa5cc00
0046c6bc
ffa57700
0026ab58
ffccd300
ffff8800
00142d5f
00ab391e
006bcea0
011159d6
00eb4ec1
ffb0a100
ffb46400
002b63ea
ffe08400
ffe2ff00
ffc07600
fed2c800
0030988f
ff87c800
ff597500
009e82b2
fffc6600
00704599
0015b58a
0046806e
ff4f6200
ffec7d00
00418852
ffedf400
ff6fee00
ff48da00
ff8db800
001c6cb7
ff6ba000
004b6052
ffa49d00
fffb6600
ff47f100
00db40b5
ffd74f00
fff92f00
007af202
006b7500
ff36ed00
010c1a7c
00994346
0025ee22
00863cae
0040070e
ff5b1a00
008348fb
fff4b600
0099c4af
ffd40a00
fffe6a00
00369461
008504ea
ffa34900
00285d6f
00b96291
002be5a3
ff12c600
0091716c
ffbcf800
001aca9b
ff4dcd00
01302758
ffaed000
00090d21
00ecb3e9
ffbb4800
0063f5e6
ff9b3600
ffb14700
fec1b200
ffc31d00
00068818
0047c0af
0022eae3
ff683600
0070538c
fffb4100
002e89b4
ff67a500
ffdb0d00
0012ff85
ffd6d800
00470c02
008940f7
ffde7f00
ff4d8900
ffad9a00
00b608bd
00664f50
ffb78900
ff48df00
009dfd49
ffaaf600
0081b7b8
0004e72f
ff6cab00
ff95f000
ff5c2c00
000364d9
fff1f900
fff84500
ffb1b700
0063e99c
ffeaed00
ff955d00
0031f48a
ffbfca00
0066ff44
ffd2ac00
ffb6bf00
000c88d3
0007817b
fff95f00
00631270
0079938c
0027df91
0054e81c
008fb1dd
ff76a100
ff495b00
001cae2c
0028a5cc
ff9f7000
00d1d27d
00b8a6cb
004645a2
00d65a81
0022cb5f
006da2da
fe7d8700
fff9e800
00017794
000a64cc
ff656600
009424a7
ff97fd00
ffd3cc00
0043e9e8
000a5805
ffad6600
0009fe98
0038a9fc
0040f0c6
ffedc600
ffa66100
003e936c
004a08ac
ffdfdc00
ffe3ec00
ffa12c00
ff362000
00a94cce
ff8fdb00
ff90eb00
003b99ab
ff5b8900
0051ca95
00655ff6
00873d5b
ff9f7e00
0014fd73
ffc03000
001aafb0
fff90300
ff60ca00
005bd136
0040e0a4
ff7e2300
0022e0b2
0058a756
ffa78400
002d2f32
ff40b500
ff8ba500
ff940f00
00183dc8
fffc7100
004cda39
ff8f5400
ff07a200
002c5ddd
00a21c4d
0035790e
fff72300
00c8ed6f
ffebb200
0020a059
000eedce
ffc7b000
feed2200
00403730
00dd18eb
ff8de100
009f0e15
003f5089
ff7a6100
00618c67
004625b8
0036ba53
00009ef9
000c4a15
fff1a300
ffa6f400
00c25f4a
00657f24
ff675d00
ffa42900
00011cc2
ff796100
006aabc8
ffe96d00
00241b5a
ff466d00
ffd43f00
00a3995c
001e496a
0021b180
ffc81700
005164ce
fffc6000
002f4a86
ff8ba700
004137f8
ffae5200
005e8ba2
ff78a800
ff797400
ffb24100
00806937
0080451d
ff7f3800
00310ecc
ffe28f00
0076dc18
002b57b1
ff7bfb00
ff9b7700
009196e5
008c115a
00730b88
ffb17500
00b5fec9
0038b928
00526460
006efc56
ff8ada00
005b942e
0011c949
0048c7a4
000402fb
00307c17
ffaafc00
ffe56c00
ff5a8e00
ffce1300
ff92cc00
00709a7c
00480170
0030caee
003a2166
002065d0
ffae3d00
ff6b8100
ff96ee00
ff8e5a00
ffd8fa00
ff9b2500
fffee800
0087ac75
004f452a
ff71cd00
ff6ea100
ff6a4000
ffc38b00
ff8fb900
fffddb00
ffd98700
ff6e4300
0015ea5a
000ddc79
004a25e5
ff7f1e00
001e70bc
001944bd
002aed4a
00709386
0034e288
00568c58
00073f71
00123dc9
00379e2d
001eefbc
