00000000
00000000
00000000
00000000
00000000
00000000
00000000
00000000
00000000
00000000
00000000
00000000
00000000
00000000
00000000
00000000
00000000
00000000
00000000
00000000
00000000
00000000
00000000
00000000
00000000
00000000
00000000
00000000
00000000
00000000
00000000
00000000
00000000
00000000
00000000
00000000
00000000
00000000
00000000
00000000
00000000
00000000
00000000
00000000
00000000
00000000
00000000
00000000
00000000
00000000
00000000
00000000
00000000
00000000
00000000
00000000
00000000
00000000
00000000
00000000
00000000
00000000
00000000
00000000
00000000
00000000
00000000
00000000
00000000
00000000
00000000
00000000
00000000
00000000
00000000
00000000
00000000
00000000
00000000
00000000
00000000
00000000
00000000
00000000
00000000
00000000
00000000
00000000
00000000
00000000
00000000
00000000
00000000
00000000
00000000
00000000
00000000
00000000
0189898a
028a8a8b
00404040
00000000
00000000
00000000
00000000
00000000
00000000
00000000
00000000
00000000
00000000
00000000
00000000
00000000
00000000
00000000
00000000
00000000
00000000
00000000
00000000
00000000
00000000
00000000
00000000
00000000
054d4d4d
08000000
01a9a9aa
00000000
00000000
00000000
00000000
00000000
00000000
00000000
00000000
00000000
00000000
00000000
00000000
00000000
00000000
00000000
00000000
00000000
00000000
00000000
00000000
00000000
00000000
00000000
00000000
00000000
03ababac
08000000
03737373
00000000
00000000
00000000
00000000
00000000
00000000
00000000
00000000
00000000
00000000
00000000
00000000
00000000
00000000
00000000
00000000
00000000
00000000
00000000
00000000
00000000
00000000
00000000
00000000
00000000
02bababb
08000000
06767676
00000000
00000000
00000000
00000000
00000000
00000000
00000000
00000000
00000000
00000000
00000000
00000000
00000000
00000000
00000000
00000000
00000000
00000000
00000000
00000000
00000000
00000000
00000000
00000000
00000000
03838384
08000000
05454545
00000000
00000000
00000000
00000000
00000000
00000000
00000000
00000000
00000000
00000000
00000000
00000000
00000000
00000000
00000000
00000000
00000000
00000000
00000000
00000000
00000000
00000000
00000000
00000000
00000000
067e7e7e
08000000
01f1f1f2
00000000
00000000
00000000
00000000
00000000
00000000
00000000
00000000
00000000
00000000
00000000
00000000
00000000
00000000
00000000
00000000
00000000
00000000
00000000
00000000
00000000
00000000
00000000
00000000
01515151
08000000
08000000
00000000
00000000
00000000
00000000
00000000
00000000
00000000
00000000
00000000
00000000
00000000
00000000
00000000
00000000
00000000
00000000
00000000
00000000
00000000
00000000
00000000
00000000
00000000
00000000
00000000
01f1f1f2
08000000
08000000
00000000
00000000
00000000
00000000
00000000
00000000
00000000
00000000
00000000
00000000
00000000
00000000
00000000
00000000
00000000
00000000
00000000
00000000
00000000
00000000
00000000
00000000
00000000
00000000
00000000
04ececed
08000000
08000000
00000000
00000000
00000000
00000000
00000000
00000000
00000000
00000000
00000000
00000000
00000000
00000000
00000000
00000000
00000000
00000000
00000000
00000000
00000000
00000000
00000000
00000000
00000000
00000000
00000000
05858586
08000000
08000000
00000000
00000000
00000000
00000000
00000000
00000000
00000000
00000000
00000000
00000000
00000000
00000000
00000000
00000000
00000000
00000000
00000000
00000000
00000000
00000000
00000000
00000000
00000000
00000000
00000000
058d8d8e
08000000
08000000
00000000
00000000
00000000
00000000
00000000
00000000
00000000
00000000
00000000
00000000
00000000
00000000
00000000
00000000
00000000
00000000
00000000
00000000
00000000
00000000
00000000
00000000
00000000
00000000
00000000
06f6f6f7
08000000
06363636
00000000
00000000
00000000
00000000
00000000
00000000
00000000
00000000
00000000
00000000
00000000
00000000
00000000
00000000
00000000
00000000
00000000
00000000
00000000
00000000
00000000
00000000
00000000
00000000
00000000
08000000
08000000
03ababac
00000000
00000000
00000000
00000000
00000000
00000000
00000000
00000000
00000000
00000000
00000000
00000000
00000000
00000000
00000000
00000000
00000000
00000000
00000000
00000000
00000000
00000000
00000000
00000000
01090909
08000000
08000000
00c8c8c9
00000000
00000000
00000000
00000000
00000000
00000000
00000000
00000000
00000000
00000000
00000000
00000000
00000000
00000000
00000000
00000000
00000000
00000000
00000000
00000000
00000000
00000000
00000000
00080808
060e0e0e
08000000
05757575
00000000
00000000
00000000
00000000
00000000
00000000
00000000
00000000
00000000
00000000
00000000
00000000
00000000
00000000
00000000
00000000
00000000
00000000
00000000
00000000
00000000
00000000
00000000
00000000
00202020
08000000
08000000
05050505
00000000
00000000
00000000
00000000
00000000
00000000
00000000
00000000
00000000
00000000
00000000
00000000
00000000
00000000
00000000
00000000
00000000
00000000
00000000
00000000
00000000
00000000
00000000
00000000
00a0a0a1
08000000
08000000
054d4d4d
00000000
00000000
00000000
00000000
00000000
00000000
00000000
00000000
00000000
00000000
00000000
00000000
00000000
00000000
00000000
00000000
00000000
00000000
00000000
00000000
00000000
00000000
00000000
00000000
06969697
08000000
08000000
0189898a
00000000
00000000
00000000
00000000
00000000
00000000
00000000
00000000
00000000
00000000
00000000
00000000
00000000
00000000
00000000
00000000
00000000
00000000
00000000
00000000
00000000
00000000
00000000
01111111
07efeff0
08000000
05f5f5f6
00000000
00000000
00000000
00000000
00000000
00000000
00000000
00000000
00000000
00000000
00000000
00000000
00000000
00000000
00000000
00000000
00000000
00000000
00000000
00000000
00000000
00000000
00000000
00000000
01e1e1e2
08000000
08000000
026a6a6a
00000000
00000000
00000000
00000000
00000000
00000000
00000000
00000000
00000000
00000000
00000000
00000000
00000000
00000000
00000000
00000000
00000000
00000000
00000000
00000000
00000000
00000000
00000000
00000000
021a1a1a
08000000
06e6e6e7
00000000
00000000
00000000
00000000
00000000
00000000
00000000
00000000
00000000
00000000
00000000
00000000
00000000
00000000
00000000
00000000
00000000
00000000
00000000
00000000
00000000
00000000
00000000
00000000
00000000
00000000
00000000
00000000
00000000
00000000
00000000
00000000
00000000
00000000
00000000
00000000
00000000
00000000
00000000
00000000
00000000
00000000
00000000
00000000
00000000
00000000
00000000
00000000
00000000
00000000
00000000
00000000
00000000
00000000
00000000
00000000
00000000
00000000
00000000
00000000
00000000
00000000
00000000
00000000
00000000
00000000
00000000
00000000
00000000
00000000
00000000
00000000
00000000
00000000
00000000
00000000
00000000
00000000
00000000
00000000
00000000
00000000
00000000
00000000
00000000
00000000
00000000
00000000
00000000
00000000
00000000
00000000
00000000
00000000
00000000
00000000
00000000
00000000
00000000
00000000
00000000
00000000
00000000
00000000
00000000
00000000
00000000
00000000
00000000
00000000
00000000
00000000
00000000
00000000
00000000
00000000
00000000
00000000
00000000
00000000
00000000
00000000
00000000
00000000
00000000
00000000
00000000
02b17988
ff3f0400
fc4cae00
fba94500
fe276600
0396355c
fff8f600
fbea2500
fc88ee00
fd868700
058b58d0
04105540
004f020a
fe92d300
fd757700
039404e4
029663ec
025ec53c
018bf2f4
fd907900
0151caa6
0100429c
0234bd6c
0292d1b4
020c06c0
fda93400
fef8ee00
fed6e500
fcdef200
fe451600
ffee6a00
01be69da
03040a58
0055f2da
022b040c
0248c3d8
016cd58c
0521a300
04691e00
014671de
00616646
fed55f00
0073c84a
ffb97300
ffaca200
ff754a00
fb62c600
fbf13b00
fe87fe00
017876ae
008bc49a
fffb5b00
05f13908
0682e180
06e26a78
05cebd30
065b86c0
007c9c6a
02daebac
0362d114
02971a3c
013ee284
fb66e600
fcedcc00
fcc9bc00
fc881e00
fb2b3200
fafb9e00
fb558900
fa02dd00
fbb0b600
fca0b600
fc9a1a00
fd1b1400
fd9ec400
fe55e300
ff5c4500
01572024
f9c72100
fc6bb000
fefa8600
0466ce98
06499618
fac59000
fd1e4300
00e3ff24
06a90520
031cb8b4
fc366500
00fc2d68
04ca5958
069793a0
01fc6862
ff201f00
02ac1a6c
03e19b64
0421eed8
fe812700
00deef91
01a6e472
042a18d8
015d2016
fee56900
fbfb2b00
fcef4e00
fc729d00
fe6c7e00
008e1203
025966c0
fe502300
fd3bdf00
fd920100
01fc075a
0499cb18
fc185a00
fdad2200
fc502a00
035a5f68
0659be78
fddcad00
fba05500
fd2d3b00
03dbd3a8
05cfd258
fb999800
fad72700
fd929800
02c6d57c
04d92b58
00544a2a
fffece00
fe145600
fc9c3a00
fda83700
fddc1300
02964a30
007e2300
fdfd4500
fe246a00
fda6ec00
02d56fc4
0191e1a8
02e05668
024091ac
01da60fa
0415c8d0
0637e600
05d51d20
045f6a88
04dfeab8
039d0bf4
03e1d6e0
045dd368
04053c90
03411780
fff75100
ffa3d400
ff878f00
006c4598
00519428
0004d6a9
ff638a00
ff9fc800
ff8e2a00
ff702600
ff8b9500
002a6b74
001d7799
ff757a00
0097ca92
ff6fbb00
fff25100
008a0515
005cfe50
00693c8c
ff89fc00
002e5ea7
006ffa51
00000f03
ffd77300
002234e1
008df12f
ffe9e900
ff65c800
0068bcf6
ffef5f00
fffc2400
00939d56
0088ed3b
ffb1f300
0075d672
fff42e00
ff685500
ffd04000
ffdb0f00
ff11bc00
00b1d21d
00273acc
ffd02400
004748b7
ffe32300
00396a9f
ffc88b00
00570f10
ffacd500
000af9a9
006791c6
ffe74600
0035bd66
fffadc00
ff653100
ff867f00
003add51
0029d6a5
00555e00
00410535
0038e16a
00093a5c
00795052
004df7cb
00788de4
ffc0ad00
008b1875
fff64900
ff709200
ffbcf700
007a9e08
ff430300
ffd97700
fff78000
ffea2000
0069095a
ff885f00
006ae506
0042f850
ff9e9800
ff899500
ff82b300
0061f1f4
ff7f1b00
0086e855
ffe2fe00
ff752c00
ffd60200
003b0178
ff42f200
ffba5a00
ff989e00
ff781600
ffa1db00
ffc31300
00689de2
0095e392
004f3d3b
0067fbaa
0008f5e6
0009206b
002df865
0051e67a
ff672200
ff7b2c00
ffe62b00
00379459
ffe6cb00
ffd47600
007db9c9
ffd4ea00
ff873700
ff9d2a00
ffba4300
00c394ff
001e17de
ffa25000
0006fb72
001f14cd
00272e58
ffa50300
00b9f40c
ff718400
ff72df00
ff68a500
ffea2800
00a03479
00609194
ffc18400
ff71a700
ff6b1a00
ffdc5000
0012438b
00ab7b17
ffd69700
ff951300
fffdf000
00e4e9ed
006a1294
001ab62b
ff807f00
ff62f900
0008e3b5
ffc86100
006b73c2
ffbb8a00
ff710700
ff644f00
00067ac1
ff8c9500
fffa3800
ffd6d300
ffaa4e00
ff40ff00
ffd61800
ff9feb00
00703f44
003ac032
007e3a76
ff5e4a00
ff98e400
ffb4a600
ff419c00
ff4a2300
ff71ec00
00849540
001eb2c8
00465c34
ffcc1b00
ffea2700
ff02b200
ffb62000
ff4d4400
ff819c00
ffd06400
ffa9f100
ffe64b00
0054c384
ff680f00
ffd24000
00ebd62a
ff6d6400
ffbf8900
0039ee81
009497d6
00fbc55e
00b95eca
ffbb5000
ffdac000
ffdf5d00
ff97b600
00cbcc1b
00950a72
00006c14
ff501700
ffd6ef00
fffe3e00
00f1e14f
00926dda
ffad8400
ff2b5700
ffdff200
005cb26c
ffe5f300
0094f6ca
ffb39800
ffaecc00
ffecb200
ffc2af00
00446942
00d639bf
00117f38
007b620e
00280cc4
0009f2dd
007deff1
0009996e
0045424e
0076ecd7
ffebdb00
ffef4400
ff58ea00
ff656000
00844d40
00376edd
ffb60300
ffb23e00
ffbb8000
000f8cd7
00613738
ff79b300
007b3080
0026aea1
00517ae8
00563b7a
0062a73c
0077ee15
ff931300
005257ba
ffc46600
006d5ad2
000d7b80
ffc1ce00
00996be8
00368414
006b65e6
ffb32a00
0038b6b6
ffc23b00
004be354
ffc38200
00237bbe
0039ddb7
003a007a
ff572400
fff4e200
ffa07a00
00248504
0109c5be
0052d62f
00292aea
00c51452
ffcb7900
000822a4
008cce24
00f3b7f6
ffbaaa00
ff879a00
00668b72
005e836b
00cc6ea3
00965ef2
00353879
004b6e7d
0128d610
00de9b52
ffd21500
00092327
00159ffb
ffaade00
0014e4f7
004956d0
009a70eb
ffce9100
ffd93300
001d1174
001ac4f0
fff70600
00792c9b
fffe0c00
003167d0
007bdc29
ff914700
004bb8aa
00aad58d
ff852a00
0056b1f7
005ea68f
0008229b
001b5707
ffc2bb00
ffc3d300
ffe6c600
0023b2ea
00901d11
ff975d00
ffa5e000
ff5f6700
00455010
00904a05
0037cc4b
ffe8ec00
ff5bbc00
ff6d9d00
ff8e3900
fff69800
000576c9
ff8f8700
ffec6800
ff937a00
ff7c4600
0008954f
002efca0
ffb51000
ff90a300
ffbc1300
fe74e000
00172731
0087d634
ff3df600
0011d12b
00716cb0
ff738300
ff6f5e00
0091ec4f
ff35ab00
002535ce
ffb58d00
fefe5600
00aa7017
00b5f7b7
ff37db00
00f8f7f4
ffe03c00
fe84d200
fff23700
00e045e4
00317411
009ba078
ffbf2a00
ff333700
00c754c5
012e263a
00de6825
fff9f400
ff587600
ffb37a00
ff972c00
00079b93
000cb9f1
ffa03c00
0096f84e
0087fe49
fff73c00
006cec55
ffdc8400
ffc30e00
00cc7cfc
00006f9a
000ed4de
0109faec
00510722
ff829600
0071b2d9
ffac4b00
0099f8c6
fff42d00
0108a492
007f94f8
00122e66
ff5f9d00
01131a24
00448c3c
003c82a2
ffbb4d00
fffd6500
ff7dd300
011702b8
0032975b
00f73678
ffa5c400
ff967a00
fee95800
ffb4cb00
ff52d100
004bb7e7
ffe55400
ff0fb800
ff7f2e00
fee7c300
00b811d9
fdecfa00
ff097200
ff05df00
fe932900
00b3b74e
00341450
fdc53000
0040bdbc
fff08a00
ff398600
fff20400
0027bffa
ffb40000
0021f7e0
ffb5ed00
ff9ee300
000ab1a3
00b0f79d
002f1b3a
ffc61a00
001ebf92
ff955800
00fb7e59
00b81d5b
006399c4
00199d55
ff8fad00
ffaf7600
ff8f4a00
0039d674
013c42aa
ff6f3b00
ffcaba00
0014e0fa
ffb34600
003d08a3
00444482
0018a92d
00bcccd8
ff823d00
0083f5b1
fff87c00
0027c04f
00859aa1
00b058da
ff4d3900
010d8c9a
002c1798
ffff0e00
006a33a6
0098ef1b
ffa67b00
0143ce6c
012e3a54
004e904e
005c2cca
ff81fb00
fefa0f00
009efd7a
00d7f36b
ffbdc600
0068eaca
ff527f00
ff1d7d00
ff68eb00
0093305c
ffb91e00
0029974a
fe8b5200
ff485e00
fef95900
00d31e5d
fe11bb00
ff504800
ff7b9900
ff446b00
00e8330f
003924ae
ff311900
ff750c00
ffac3f00
feb51800
007892be
002e1c0a
002c99ee
ff7ee700
006371c0
0050851c
00452280
00749cd9
00d7c068
0017247f
002c3d1e
ff67cb00
0162f71e
003b3f2f
005e6c2d
00388acd
009fc121
0023ca08
ffd31400
ff75b200
00b5574d
ff926e00
007646fe
ff79f500
00623926
ffd8f200
003d0f7d
ff8ae300
ffe46700
00263f07
00e65da9
0046106b
ffb96a00
005644a2
00a5ac76
ff051200
00763378
005e8c9c
001f663e
00744e70
007f9054
ff3dd100
00c78e42
0039fe52
00d164c3
ffbce000
ffa92800
ff124f00
00943e0d
ffd14c00
ffc74400
004baf33
feefb600
fe945800
ffaac200
00b76ac0
001f1ff4
004f88c1
ff0dc300
fed27400
ff80ec00
ffa70e00
fe8e8600
ffe5a700
ff777100
ff1cdc00
00cf4c39
00121647
ff47df00
003876ac
ffd15b00
ffc6a100
001581bf
00c679c7
00c014cc
001a76d6
ffbdb600
0006b7d0
0093a000
00b43c43
ff6d9900
ff958e00
0082f23c
ffa63400
00e34ba0
ffe5e600
ffaa2f00
00033657
ff6dd100
004fe863
ffd4f600
002ed320
ffe4c000
0009f92c
0095a2eb
ffc28c00
008e4f1e
00e689cc
004497ad
ffe74f00
004244ee
00626c96
00cf7116
005debb2
ff762500
ff819700
006b38b8
ff35ce00
00367880
00a2e20d
ffe28f00
00236eae
fff1bf00
fed4a700
002d6ac2
0040a967
002e0d9e
003df9b6
ffabe100
ffa12d00
ffec5800
01068474
00db05d1
001f63ce
005cb47a
ff193600
ff721900
ffa28100
005baf00
ffa66d00
ffed6000
ffaeee00
002203a0
ff860900
ffb94400
ff0eac00
0087873e
fff58600
004c75dd
003fface
00183dc4
0019a99c
003ca974
0033f2f4
ff76cb00
002486bd
ff995600
0031a212
0079254e
0013d462
00bdd5c4
000d3258
fed98f00
ff55a300
000b36ee
00565ab2
00c7af9f
ffbfb900
ffcd6b00
005659b7
ff9e7b00
003ed4c4
002c7eb6
ffd46e00
00077c7b
ff6cbd00
002ba92e
ff80fd00
00502d08
ff901100
00091f74
fffd2600
00109069
ffedb500
005baad0
ffb0fd00
ff933300
ffe31900
ffeee700
ff153800
ff637a00
000124fe
0043053c
003e1cc2
ffd52c00
ffcf7f00
00a0921e
00200542
000b7e41
010aa58c
0054530e
ffd73700
00519042
0057660f
fff7cb00
0007995b
ffff4800
0081f380
fef24a00
0004a61d
0090d5de
00119321
ff9cf900
0048028a
fff6a000
ff36d300
00f9d2b2
ff487400
0006ffaf
00c4e700
ff92d300
feed2a00
0027d90d
ffa21700
ffb32100
ffe1d100
0092758a
ffd85500
ffc50b00
ffa7dd00
0014dc5e
ffd7a700
0038deae
ffc79a00
ffbe4900
0060316f
ff51f400
00940a0f
ffbfb700
006c5028
ffccb200
ffb90700
007092cb
0058d0e6
ff8df500
ff591c00
ffea0200
ff75da00
00129840
fff6fa00
ffea9400
fff91c00
ff66c900
005acc9e
ff8fd200
0066fe7c
fffad100
0013b4ee
001e2d0e
ffdb3400
005532d4
ffec3300
ffd8f100
ffb32d00
ffaf8800
00148e9b
00692c1b
0011cfcd
ff83bb00
ffad1800
ffc1d700
0110ece2
0090e10d
006573a0
009bd9f2
ffe7d400
004bb819
00d27309
0017b408
004ea59c
ff31a100
ff17ca00
006ce092
ff331300
00d0f224
0095792a
ffd7ba00
ff5a9a00
00aee7d6
002e6002
ff9aa300
003e7fc8
fff50600
ff30a100
fffb2700
ff9f2100
ff73a800
000f9e5c
fff31800
ff33cc00
0013c2b9
ffbb0c00
ffaea200
ffabaf00
004519ba
002a33ba
feeee200
ffa3da00
00659a76
ffb4cb00
007a6caa
ffa4ab00
ffb72e00
0090b654
ffa41100
009a3d94
ff812700
0092de10
000ee279
ffec8100
0022694f
004e95d2
ffb2cb00
0074180a
ffcff500
ffcbe800
ffffed00
008605c1
009e028f
00191c67
fff26d00
002aa9d4
0056ed0f
000a175d
ff5d7100
006133b8
0047b914
0024393b
ff7b6900
00cde1b1
ff9a5700
ffc77c00
ff98f200
0064dd72
005c9cd2
0060d43c
ffe81300
006ba674
ff48b800
ff314a00
ffc63000
00a42982
007cbfaa
ffeb5c00
ff9af600
ff477e00
ffea1f00
0037fa3e
ff073800
ffb65b00
fff53500
ffa67d00
008f2971
00ec2037
ff316700
ff5ba400
ffabb500
ff7ce000
ff4e5a00
ffc86800
ff3e5d00
ffba1e00
00036c6d
0010a0e3
ffe31a00
0099aa0a
ffa61100
004c61b8
ffd22600
000b4047
ff844800
ffd2d600
ffd3da00
ffce5500
ff2e0600
0043acd2
00a43c89
ff643000
fff5c300
ff5c3500
008dd14f
0082ad72
ff7cb100
ff8ce300
ffec3900
ffa1de00
003bef4d
ff892800
fffa3700
ffd61800
ffe67700
00998af9
00620734
00656f64
ff9c7600
007d8f92
0029cd2f
007bb5eb
ffec2100
00601168
ffcf5600
00379e3a
00732b41
ffbe0400
ffe11200
ff96fc00
ff6bad00
0009cb65
ffa40d00
004e0324
004ecae6
fff84000
004c4440
ffe06100
001b6d9c
0143fd24
ffec3f00
ffe91800
ffc6b800
ff8e1300
000fc34a
0037fb6c
000b523a
00896153
ffb0c500
00884105
005ab4f6
ff92c800
ffd78d00
ffc80500
ff72e800
0042eae2
0057214f
fff45f00
ffd1b900
ffa19800
ff7be100
ff9bf700
003a6209
0027ba56
fff54900
001d5755
ffa43d00
ffacdb00
fff31b00
007a7c04
ffa80500
ffcecf00
ff538f00
0024ac5d
ff8c5c00
0022ae0c
ff7fd200
008e1da1
00802c4e
008262be
003a3d9a
ff76bc00
00266471
ffca6c00
ff775800
005adeac
ffd71f00
ffe03b00
009d3b7e
000b84ac
ffcec500
ffc60e00
ffeba100
001dec4a
ffc4dc00
ff7ccf00
001b73ea
007c5638
ff6b9800
0083c153
0044b801
0002c2e8
00673d91
ffe12500
00ac3074
007b93ff
00154e0b
ffb46900
ff888f00
fef9a900
0144fb96
00c5f420
ff73ff00
005e49d2
00380911
ff63aa00
013e35ee
0132d672
ff3ff600
00163cfc
ff034700
ffec3e00
00e6493c
01628356
ff1aec00
ffc46c00
003a39f2
ff7d9a00
004e4617
012903aa
ff360f00
ff8a2300
ff891400
ffe12300
007a2e03
00175a7c
ffcabb00
008907aa
002875a4
0013ae81
ffd55e00
ff839e00
ffdaad00
00b2963c
0004f0a8
ff59ed00
002bf0fc
00374ac0
ffbc8400
00194ad0
00566a40
002ac3e8
008d7d72
ffbb0000
fff43a00
009fb6e5
00002726
00a18137
ff757600
ff5d6c00
ff94c900
003b3140
0061fc78
009ed2b5
00335072
00816223
0027ae4e
ff697300
ffe78c00
ff8caa00
ff527e00
002dfeb1
ff1e9700
ff76ab00
ffa5ce00
ffafa100
002c74da
008d43d4
ff9a5200
00722e9b
ff72a200
fe67c300
01159864
0084cc6e
ffd4ba00
ff818e00
ff4c8900
fed87100
00e82adb
0081bf08
ff6ea100
ff83bc00
fe731400
fe82e600
001ab3c1
00e081af
fffeee00
00131193
fede4800
ff2e7700
0163a95a
01133bde
ffc26800
ff5e2200
002bb9f8
ffeea600
00664794
ffc8d700
ffdd3000
ff7ac200
ffb20500
004ed6de
00559307
ff93b700
ffab3000
006b9e1a
ffb1a500
ffeb2c00
000acdeb
008c54f2
0049f019
008af88e
002da5f2
ff909000
ffd48200
ff56cb00
ffc55900
ffb61500
006def28
000e122e
ff4dc800
009c8bbc
ffbb0900
ffe13000
fff96100
0053d733
feeff100
ff745200
00342e96
00437f00
ff519b00
006d6611
001382ee
ff851900
007c4489
ff838e00
0002b147
ffd2f000
ff58e400
ffa18800
0075794e
000933e1
0009a7a8
fe5a2500
ff316000
ffe2de00
fffdb500
000c2c38
00623b39
ff500900
ff987700
00c3b16f
01dff704
00190529
fed0ea00
fe9f7300
00291cbd
004c5eed
00a00422
ffaa9400
fff2dd00
fe611900
ffe9fc00
009190b5
ff55f200
0070d322
ff976d00
ffe4df00
ffcd0a00
00b1cb94
ff199500
0007ccf3
0021b846
003961bd
ff2a7500
000f7d3e
ff016400
00107b98
ffcc4a00
ffb27b00
ff2a6a00
003ce069
ffb0ff00
00a1fc2d
0069484d
003473c0
00156bf9
0048e882
ffd9aa00
ff8a3000
004549d0
ffbe2c00
ffedc100
ff814100
ffb9e900
ff668f00
ff571700
00cbad18
ff8a8900
ff992900
ff588d00
ff8f7d00
ff93d700
ff7f9400
002c0707
ff7e8a00
ffbf1800
ff82c400
fff45e00
005add39
0053a05c
000bf1e7
ff462c00
ffc97a00
0097a170
0027cf93
0091138c
0070f4f2
00ce95fc
ff04fe00
00971ca7
ffea2b00
01307248
01e7d42e
014ab2f6
ffdf8a00
ff508700
fe7fd500
ff985d00
000dc802
00cba2da
ffa2c500
fee73500
feb3a700
005c0a11
0063fa08
ff9c9e00
ffe0c400
ff83c000
0011d791
fff0db00
00676ef7
ff3f7a00
ff588600
ff2ef500
0038ca66
ff65b300
fffb9f00
001f423d
ffd5fc00
ff93da00
ff961800
ffdf8100
fffe9400
ffc46200
ffa13a00
ff96d700
ff9ec900
00703609
0069e276
006da784
ff8d3500
ff8e5400
001486a2
004a9972
004b9770
ffab8f00
006acf76
00480eff
ff929400
000c2e88
ffe21d00
0094ef25
0023de9d
ff9df700
00161c03
ffee2b00
ffdaf800
ffd16f00
ff6c6700
ffe11600
fff7c700
0089b74d
009a2d81
ff07f300
feecc600
ffe3ca00
ff7c0b00
01cf782c
00940bc0
ffc3fb00
00137eb1
ffa53d00
ff568900
008513da
00b0de4e
005bb36c
003bee77
ffaf8800
fec11c00
00c4732f
00b3c983
001aaf12
ff464900
ff809600
ff5cb900
ff9acc00
0009fdcf
ff6cbc00
0017bbc7
0067128b
ff484c00
005f252c
0021e3c9
ff000100
ff7ff400
ffb6c400
009f08e3
005aeaa5
ff602700
ff2b7200
fff00200
0077a420
004b87be
006fac52
002a2e3d
ffdd0f00
001ee912
00318ddb
ffeb9a00
ffa6dd00
fffd8600
003e7445
004dacbc
ffc43000
ff688100
fffd0200
0062e088
002470df
ff9ddb00
ffdc6200
007ccda9
00243a22
008f5ecb
fffc3e00
006d7d79
ffed2900
00b4b138
ffcd4800
00833f11
ff227300
ffc70800
ffa14300
ff662c00
008f2d96
008de9d7
ff281400
ff06df00
00035212
ff514200
0175bbd6
013e5de6
feeaf700
ff7b2600
00139cbf
feb9da00
00958d3f
005d70e1
011a82e8
00921dbb
ff5dfd00
ff644900
009150c1
ff7be500
ffaf8500
ffa84500
fee81000
003752bd
feb9cd00
ffb4a100
fe414500
003a972b
ff23af00
ffb67d00
fff09200
00384f07
fe999700
006881be
0089d538
003d0fda
0078100f
0050cca0
005921ac
ffe95e00
ff950400
ffd9fd00
004ee656
0030c7d9
ffa39100
000253f4
0017c6dd
002d3a40
ffccb100
ff479700
ff3d5500
0001a12d
ffa21900
ffa9f500
0004c632
ff1f0600
fee52e00
ff90ad00
ffdb5e00
005fd33c
ff57d900
0001e4ca
ff575200
ff790800
000482f3
003f4f43
0065514e
002430d7
ff1fb200
00428ed8
ffef7800
ffbe0800
ffd2e500
002dd48b
fecbb200
ff0d4f00
00743d42
ff1fc500
00f7174f
01293bfe
00063c05
002a4cee
ff44db00
ffe50b00
ff5cc600
013254be
00e2f92e
00bb3923
fee09200
000deff5
fefc7f00
ff4bf000
ff3a7600
000399c5
ffc2a900
ff348200
ffccb800
002532a0
ffb33700
003a0486
ff688a00
000a2457
0022a5f5
ffbb2900
00039e86
00486a40
ffc9bb00
0080a98a
00679880
ff9d3200
007d91e5
ff9c3000
00199507
00716ee6
ff99ae00
00a3c3d3
ffcdba00
ffa83500
ffc29200
ff755600
ffaf6000
005f3c0e
ffac8b00
ff6b1b00
ffc4cc00
0072122c
0001b512
008c40c3
ff9c6e00
0061516c
ff986f00
00182833
00cc9379
002b1a6c
ffa20e00
ff52bf00
ff39f300
004d4e08
006d1e7a
ff6e4100
00f5df5d
006ba744
ffe5e300
fff06f00
0007355c
ffae4300
ffb87400
ffd16e00
001a5d5f
ff556200
00d0e4c3
0127ec54
008a378b
0099a51a
fee96200
ff5a3c00
fef97c00
fff01700
007b89c4
00632423
ff458f00
001b113d
ff011d00
00032861
009f9525
001befb1
006e4531
ff519800
009fe7c3
006331c2
0114db9c
00d7b31f
00275f43
ff7fc300
ff802400
ffc22900
0174fd44
ffa4de00
00cd9e52
fff85600
003f4daa
00a72e88
0088f040
005e390a
007c63aa
004c9b8c
001074d6
fff50a00
fff81e00
00658370
ff844900
00838f72
ffff1400
ff9ee500
00675dfe
0002f866
00f43252
fff41900
00dfc775
0022e7bb
0125a838
ff68d200
00a55fab
ff9d9c00
007a4af2
003b2326
01133ba4
ff360b00
ffe41800
00734d42
00d28026
004d5978
ffd07600
ffd92e00
00e6cf87
ff133d00
004fd6ae
ffdb8900
ff948300
00520f96
0025ed62
ff05b100
ff7e4b00
00fc5a67
fe876500
00eff305
fee4a400
ff587d00
001b61dc
00d7e88d
ff382e00
ff62a800
00bd1495
fffaa300
ff1cc600
ff9c9800
00b92e32
009e7be0
002309af
ffda8300
00793352
ff8c3100
0040b1e6
00abb2f1
0022628c
0065a942
ff8f4100
ffb12d00
00203c0d
ffe06300
002bdd9c
ffbfcc00
ffbc6400
ffed1c00
006ece0c
0033bd6e
001d8a06
ffe22400
00364161
009d7871
0096a065
00006443
00658c22
00bba9ba
00ec1758
00b59907
ffb57f00
ff8dbf00
00a58982
00a61711
00518820
ffe13400
003192a6
ffd23a00
0031a6a7
00467f2f
ffd77100
fff4ff00
0012b7d0
0089b172
ffcd8a00
00165823
000f5a98
00d4acbf
ffe20000
001b2491
ffdf7f00
00447540
00538d58
00ea05ad
feee9300
0063b019
ff929a00
ff173a00
000addf4
0129c9ae
ffebbd00
00711a54
ffaaca00
00219507
00134898
00686c93
0059b2fa
ffd50000
002f280b
00b31573
00036d9e
01078cf8
0055329b
004a85d8
0090f09c
008e599e
ffe70700
0084d2d8
0040a824
0057dcfa
ffdc3b00
00db779e
00339d27
ffd9ab00
ffcf8400
ff96ab00
003d4d3d
ffa93600
ff99c200
009d2bdf
0094838c
ffc9c500
fff22500
ff9d4e00
005f729a
ffeba800
00739c93
00a2a591
ffd9a100
00643514
ffb00f00
ff925d00
0027f887
ff6aa600
006ede5f
00798f8c
002fd9c9
008ee950
00529b86
001eff32
003cbb03
0012b543
ffec2d00
001ef0e8
ff68e800
000359d6
0052a990
005763de
003de7fa
004065e0
ff95a200
0062ceb8
000aedfe
006636cc
ff4af600
ffb1d100
ffeba300
00294ceb
ffdf0100
ff6cd000
ff740e00
ffe10a00
ff440a00
001d6588
ffcfe600
ffee9b00
ff109100
00482023
ff66b900
0089a4db
ff3c4c00
0013ee60
000aec95
0063a270
ff061b00
0024a35a
ff807e00
0028c3ec
ffb32300
00936c8d
003ed7fa
005b6677
ffd88c00
006cf0e6
ff8e6c00
ffcb4c00
fffa3c00
00911e00
0010652d
00952a2d
ff783b00
0059c142
ffa3ac00
ffbe1d00
00483c56
ff948d00
002bf99f
001def60
ff657f00
0037c4ae
ffb5fe00
008b8469
00569478
00754511
ff799200
00295206
ff8fe900
00a347d0
007314d2
fffc1e00
ffbad700
ff9fae00
001ad6a7
ffb01000
ff5c6000
00b715dc
ffa06f00
ffa90200
004dbd49
005d811a
0051a274
ffd0dd00
009bdee6
00ca980a
003c91d1
ffc89200
005026c0
ff9a0b00
00b43c0f
005e598c
00befd2a
004a289a
ff51c600
ffcfa900
00858b93
000aaefa
001f9c3c
ffacf900
ff357900
005fb5c2
00d3b992
fff71000
00b52305
00150221
ff8c7000
ffa4c000
00adf90c
0054f81e
ff544200
fffe4600
0041e6b4
fee95700
001f8b58
ffae2200
ff406f00
001c019c
006f6332
00462e64
0041dc48
00799f6a
ff77af00
ff6b0100
ffb55500
00736c57
ffc4c200
ff73a600
ffaa9400
fff69300
00938591
ffc4d200
ff596500
ff67da00
00213d93
ff90e700
ff8c8900
ff907600
ffd5a600
ffa95400
0075f1df
ffb95f00
0011cf79
ff595500
ff6b1100
ffea5e00
000ce33e
009281d0
0066ca6a
0032e26f
001a553d
ff950800
001d960c
0090b7fb
ff93df00
fffaee00
fffb6000
ffe31f00
001cb73e
004e06b9
ff64ec00
fffb8300
ff2cce00
00482b7a
00c45a95
0093cccb
ffaf9f00
ff6b9400
006d90c2
000ca93a
ffdd7900
00e0939a
ff202c00
000b01f8
ffc99800
00dddce6
0077a2b5
ff686f00
feeedf00
ffca6700
ffc06c00
01349a1c
01221646
0042779c
fef1dd00
ff173d00
00f0fe59
0116edc2
0001d333
ffaf8600
ffd8fb00
00073d27
ffc72100
0011d389
00067299
008e07ea
ff64b100
0034e0b4
ffcde900
0052577a
000e4f7b
00764260
ffa06500
000f8f61
fffd4e00
ffca3c00
00891085
ffa1a800
ffa9e200
00241fad
0039af30
ffbc1c00
fffc4c00
001379fe
004c51ee
ff744900
005ba17c
ffd0db00
0040f1b1
ffed0b00
fefba000
feec2f00
ffad8900
007f7ca8
ff95e400
014cb026
0033a42f
ffc12a00
0043853a
005fe08a
fff5c500
008a413d
ffa1aa00
fff65000
0082f28d
00e98a4d
ff9aeb00
00da595c
ffea5d00
ff9f6100
012a3024
0037dbac
00c89aa2
ffefd500
ff919e00
005b7f94
001ceb8c
ffc91e00
00aa1808
002a2d1a
fef0b300
005799a0
003f1b00
ff76c000
ffb8b000
ff9c6100
fe268200
0063400c
ffbf8700
0060ff60
00afcd61
0011587a
ff69cb00
00acf666
ffb98600
007ee650
ff9d5a00
fffee400
ff242400
00b08c9c
0038632b
009ddeb2
ff1ba700
ff9c0500
00148a85
002bf700
ff4be600
ffbed500
000fca23
ffc94f00
ff67ee00
ff75a600
ff8ac200
ffdeb900
fff93b00
005a6c94
ffa67e00
febd5c00
ff9cfc00
00aeacfc
fffd6100
00fcf60a
ff89c800
fec90100
ffcfdc00
ffe7fa00
00054be2
01a24ab0
004cf3ad
ff24cd00
ffa18c00
ff1aec00
ffbdec00
00b9ac96
ff7b9a00
ff2da200
ffaa1b00
ffa99f00
002f4e13
00c076e8
0023acf7
ffae3700
ffe1f600
01258968
0018c861
00b0212e
fffebb00
011cfd22
ff592600
005cf319
007cc714
fff67c00
ff4d3200
002b29eb
ffe0a300
008a9b6b
000aca5d
ff1ca600
ff3d3a00
010ca01c
003dd1fe
002cb470
ff9b2a00
ff84b300
ffa8e400
00c60ade
ffb89400
ff847200
ff651b00
ff00f100
ff7bce00
fff7f500
ffa0c400
ffd1cb00
ffb84d00
fff20a00
ff35ed00
ffeacf00
004d654e
fff79500
004f8dd0
0091cac8
ff478d00
fff74600
ffa48c00
00b34855
fff99d00
00459070
fe6a5100
ff68fb00
ff03a500
ffa63d00
ff997a00
0090e12b
fe6f2f00
feb60400
fff96300
ffb6e000
ffae2600
016376d4
fee7df00
fedceb00
ff9fe300
ffa94e00
ffdc5f00
00e38251
ff137900
fee30c00
ff871700
fff40800
0057ff8a
01448c2a
fed6d400
ff07d900
ffe64900
ff6a9400
ff995200
006133d5
fff9fe00
002cbb0e
fff98200
0054c7fb
ffafcc00
ff6f3b00
ffa62b00
01a468d2
fee88000
ffc65800
ffb34f00
ffc3de00
0045664c
00eb96ac
ff11a900
00185e9e
ff822300
fea9d100
007ae842
00a0b580
ff35e300
00424f4e
ffa44000
ffe01d00
ffea7200
003eaa52
ff879c00
ffce5000
0030f6ae
ff995d00
ffd1fd00
005fc09a
000882da
0093b70d
ff8f2b00
00a427de
0005d7f4
0032ecaa
ff4b9200
00e2577d
ff7f4200
0150d282
fed4c000
ffd38b00
ffe04600
00338468
ff82e200
0254a10c
ff5d7300
ff575c00
010bef16
fe780e00
ff81e200
02668be8
ff550a00
ff0f8900
010b30e8
ffdb0d00
00538e71
014604c8
ff9e4500
fe77a200
00a6632e
ff695200
0015eb89
01c2bb58
ff69bc00
ff546100
00508a85
004b349c
ffb3aa00
00632cde
fff1a200
00808219
00189300
fff3ed00
ffbf2e00
005e315e
005176ac
0039ad9b
ff1b5100
ff902900
ff353200
fedaa400
010fc98c
00f634d6
fec98c00
fffe8900
fff5c400
fff3e200
0000dce1
fffb5800
ff4f3200
ffb74f00
0027deec
ffb79700
01198370
fffcf500
ffbd0c00
ffb28a00
ffb3bd00
00900a25
004c127a
0033b561
00c6d48d
00901337
0041138f
0020e071
006435d8
004292fc
00e55164
000ecdd6
ffddfe00
0014393f
00177415
002b6e61
0073790c
ff758e00
ffc54e00
00cf8fcc
ffef2d00
ff9d0700
00c1a66c
fee78400
ffda3a00
01e6d068
00768bf4
fee9b300
00288fd0
fe903200
ffea3300
008362ad
0189997e
ffda8e00
00403ab2
feb3df00
003980b9
00e53085
0110697e
ffb98200
009cc1ae
0027b13a
000cfeaf
ffff8800
0084e90b
00924282
00855b0a
fee1a400
ffdab800
ffa18f00
008aca7d
ff802800
ff406100
feefc000
feb1e400
ffbdd700
007a7748
ff986800
ff623400
00246960
ff65dd00
009cd5b8
0099f591
ff1e2300
003ab88e
ff76ca00
ffb68500
002dc50d
00489bee
ff5c3700
00ed0075
00168f19
002690f8
0081c8c7
017a1406
009c55a3
015e6f50
ffea5100
0071a2ab
ffcc9f00
fff09f00
ffaf1300
0125c32c
00070b2a
00a70698
000f9dfa
0054b1e6
009cea24
004ba7bd
ff9f2900
00b645de
ffa76b00
017774c6
0052af8e
007c98c0
fea10c00
001fab8b
ff881600
00e58672
fff42800
003a080d
fe6baa00
ff987a00
ff7ee300
018a1f56
ff8eed00
0095a2af
ff8e4e00
ff8dde00
00a9ee33
0092f006
003e9f16
ffd76700
0012fb16
ff605a00
009a0827
00b41039
ffe4c200
ffc69900
ff576c00
ffc50f00
0045a6bd
0093cd4e
ff0a3400
ff281700
ff501700
ff783d00
005215c6
0075e300
fe7fe500
0033eb2e
ff358d00
ffe3fb00
00c1d267
fefdc500
fe888c00
00856d86
fff81a00
005dc6d0
019459e4
ffbb4400
ffc61f00
00088b04
ffde2e00
008ce71f
017431b8
01608684
000d1f88
00e238d5
ff727500
ffcdb800
fffc2d00
00f20d69
006d3cb6
00ed6ce7
ff9a5900
000ed00c
ffc77b00
00e74804
008b6964
00c8da22
ff664900
006dfbf9
ffb68200
00e792a9
00107aa8
ffc9d500
ff128800
005d8644
ff15c200
01bb8336
ffb97100
ffe71100
ff2c9400
0006b873
001973c2
01b16fda
00692a14
001b9aab
ff7aeb00
ffc1eb00
00969ff1
00bbb80b
ffaa9200
fff16500
ff7f9700
0005ab9b
00a4516e
ff741700
ffbdba00
0073bed0
ffd77600
006f93d8
00e623a6
fff5fc00
ff914100
0063ee38
ffc7e500
ffc7a600
00ecba99
fec3ba00
ff0a0b00
018de596
005d5c34
00b211a9
0240ab34
fea62500
ff789000
01304952
00cd5f2f
014d38f6
01570794
ff977000
ff7e1e00
00b5cdac
ffaeb700
008a454c
0048e876
00d57b55
00239806
00931c8c
ff6e5600
00941ffc
ffb21f00
00de54a1
0055c31c
004726fa
fff9c500
002ceb96
00862a44
002dbc2b
0050d137
ffe01700
ff6fcf00
005ebe9e
ff347600
006749ae
006b7340
00582398
ff5af000
002f1e30
ffaa3b00
00b9375b
ffc86800
0070144c
ffd8cf00
ffcb8d00
ffa04900
00a6acb7
ff70ac00
00012a3d
ffc61f00
00519338
0048eb63
fff10100
ff480600
0070ad1e
006d115e
ffd76200
00e79801
ff79c500
ff19db00
ffacaa00
00f246eb
00a89e3e
0109d576
ff586400
ff121800
01266a50
00ef94c6
00f7f747
018d7a56
fe728300
ff053500
01672340
00ae7ebd
00be7f0b
0175e7d6
fef0c500
0044713a
00bbdd8e
009e27b1
0118855a
0171df30
ff577700
00055e3c
011a3556
002c606d
fff7dd00
0066ac5e
00cbc555
0016d678
fff5f100
0041e213
ffeb1a00
00b5ad45
ffd45a00
001c969d
ff601900
003aa95c
ff96b900
ff68e100
00404a38
003e770b
ff759500
ffb6b600
001b3c03
ff1ae300
ffd4bb00
001be605
ffd92500
0085d587
ff6fac00
ff966e00
ffa99600
00501b5d
ffe97a00
ffb86200
fff0b100
ffa41c00
0049be0b
ffeba600
ffbe9200
ff1ea300
007027b9
001c2bd8
00260dad
ff829d00
00c9bf16
0072fcf8
008674ec
00ea6804
ff23f600
fee8a300
0025218c
009f1082
00148061
007280d5
ff6fb800
ff452000
0193e880
00ab1980
005ac736
01108db8
ff89d600
0006bd7e
00b781c8
00c5d976
0057c25d
00f9d65e
ff003400
ffcbc300
01581bbe
0059d2ce
0017c13b
fff82c00
0021a605
ffc92f00
0085daf0
007e3b12
0090ab87
00a9396f
ffc84700
fff6d200
00577812
ffb9de00
002b6040
00af8f7d
ffee9400
003a0104
ff6a1300
ff6b3500
ff0ca600
00a8aa0d
ffb99500
ffbdbf00
001d6926
008980b9
ff7f4000
ff960800
ff8a8500
ff21db00
feebd700
ffd9f600
ff8ab400
003abef4
ff7d1200
fff93100
fe856100
ff4f1200
0058ebb8
0015b379
ff5e6500
00187948
ff7da600
ff196600
0064912c
ff9b5e00
feddc100
ff282f00
ff39a200
ffd19b00
ffd59d00
ffdcef00
ff953a00
ff589e00
0008fb77
ffdde600
ffdd1700
008311ab
000cb152
ff201900
009dc386
ffd75b00
00951ddf
008cafe2
0011133d
ff58d700
ffdafb00
004de172
00308060
009a7bbb
ffe30f00
ffcb5400
008cfcd2
000ddb9c
fffdf400
007e4b4c
ff884b00
ff666000
ffbaf800
0076ee46
ffc41a00
004536ba
0082522e
00aafa34
002a8faa
003606b7
ffd1b400
ffc54900
ff5f4f00
ff77b100
007d51f2
ffa4e400
000ba984
ffd3dc00
00205cca
ffbcaf00
00dd5b25
ff999400
fffcdb00
ffd74900
ffe64700
000de3a0
00b72a08
0037e5a0
00163b85
ff54da00
ffbabf00
002b0e0b
00aac00e
00254596
ffe42100
ffe96700
00588463
003a201f
00a3e999
ff916800
007cd3b5
00311d93
00aeb21f
ffa6af00
0086eca5
ffc4b700
007552d3
ff3d6100
00d3343e
005a8336
0067990a
00b8fbbc
00380978
ff74cf00
0097613a
ff2a5200
00fca665
fff14b00
ff9e1000
ff44ef00
006f8bfc
00126cd4
0077da1b
00a47a21
006688d4
ff470200
ff8b5700
ff646d00
00d52c68
00615d00
ffb20200
00255fa4
ff831300
ffe3e800
004d56e7
0055fb1a
0072f9cc
ff4d5300
009523c9
009fa40a
000604c0
ffa8a100
00b9124a
ff802000
ffad2400
ff970300
ffa5ab00
0055dd02
00553b12
ff9c0500
ffce5300
00422e7e
fff24800
ffa7c300
0013c071
001b3e4e
ff876a00
ffe70f00
ff768300
00733540
00a66ce8
ff85fc00
ffa0a600
002286ac
ffda7200
007808c8
0070e78a
00c12f72
ff207b00
ffcbba00
01015d28
00a879ed
00b50f06
0083b327
ff420400
ffc52300
00c2ba32
00d786e4
0103d172
00dc22b1
0024771c
0045f31c
0099d81f
ffbf7b00
000ed5a1
fff8cd00
ff484e00
003eb7ae
00d2141e
00fd7bcc
00614afe
ffc26c00
ff322f00
ff676400
000cb56f
004128e4
ff66d900
ff904700
fffaaa00
ffc1ad00
00094d8a
004ef50d
004d35ee
00710450
ffa67b00
001cbbed
003df269
0074e684
ffc85100
ff6c8900
ffeaa500
ffd2e000
001ac1de
0061dfae
ff8de400
0093c10f
ffc61600
001b5aa6
ffbc6e00
ffb09400
00762bf4
00301c4d
00107754
fff72600
00941c47
ff8dc600
0070edd6
00736d34
feb31c00
ff0e8d00
0047ff9e
003e03c8
ff763b00
010b2d06
ff258100
ff923f00
000f138a
00954529
00099e66
00ec2b34
ff169500
feba8900
00b894b0
011b0772
0120d70a
00ff07f8
ffbfae00
ff532500
00a85db3
0033870f
002f7306
ffce4c00
ffcf3a00
ff7b6d00
00a15183
003b4bd2
00a468f3
ff46ab00
ff870a00
0019c915
0065e936
00203285
00731518
fecea000
004e2cfb
004e79ea
ffea9f00
00db1caf
ff597e00
fe943f00
ff210d00
00d94477
ffe69600
ff887500
ffb71600
000ca43d
001ccd54
00096a71
0029e6fb
ffdc0200
ff18c100
ffef4e00
001bd7fd
001cb1b0
feedd900
008677de
ffe11200
ff80d900
009ad3ce
ffc0d700
0025ac8e
00677ebf
ffd25000
00a36a7f
ff5ac200
ff3d4900
ffe51800
00947059
ffccb800
00eb6854
ff320200
fef30100
009e812a
ff23d600
ffc05600
01471a1a
fef16700
fe444c00
ff946300
fe758b00
000d4063
0154ef0e
fec50300
fdb7cb00
ffd80d00
fea40100
00bee3d8
013d2c3c
00a3e941
fe643500
00a6af69
ff872f00
0045c2cd
00757b08
ffdba000
ffd7c000
ffa80e00
ff850f00
ffc87000
ffab7c00
008686a1
ff817d00
ffbf1c00
000f906a
ff34f100
ff1ecb00
000b4357
0064aac1
ffbb4a00
00618e9a
ff4b3400
fee86e00
010b137a
00c71616
ffc48400
ffd8e800
ff67d100
ff84c800
00420af7
fff5f600
fff68800
fff37600
002e1ef8
ff735c00
fff39400
008c47e3
ffe0de00
0096017f
0020f836
ffa0db00
00953f96
ff9efb00
ff9d7100
0091625f
0096502d
009ad51f
ff474900
ffa19f00
ffd56e00
003bf53e
007a2910
016d00cc
ff36e100
003579a4
ff8b1600
fec59f00
008509c7
0153bec8
ff9ee200
feb4d600
ff9ed400
fdfdb100
0006686c
01f1f6b8
0053a7d3
ff104500
ff762800
fdd80900
0093af45
016bbdd4
001ba33b
fe256300
fff70100
fed71500
ffc75d00
010e2baa
0104f03e
ff19c100
0101717c
0021c706
ffa48f00
007289d4
00b1afca
ff231e00
00a3d27b
ffc1ba00
0062d22c
ff8fb500
0139ba2a
ffaa7500
ffcd4300
ff5c5a00
ff231800
ff7d3500
009e106a
ff2ff100
ff336b00
001724ae
ff2fe000
ffd30400
00291a0d
ffe12f00
ff7dad00
ffefb400
ff8a7200
0010f032
005875d8
00591e7c
fef04600
005999b8
ff362b00
009a58a6
ffcfc100
004bbad6
002f4406
000dc2a3
fffa1f00
00923799
ff673400
ff98e300
ff83d300
ff1c1900
ffd26f00
00d75596
ffb00900
00409804
ffc46000
ff5c4a00
001785ca
00a0c398
00bb2de6
008751b0
ff15e000
ff070900
006af2f8
019536ae
00506794
00425042
ff595f00
fe5e7b00
00544efd
015c240e
017d2de4
ff312400
004d459a
ffb50b00
fff01a00
014e7468
007d88c7
fea72d00
013b3c4e
fffbdc00
fff15c00
00a5483c
0019747f
fe524c00
0111af9c
ff5f6a00
fffe4200
00baf49b
00523374
ff479600
0059b31d
00770283
ffc27b00
010577aa
ffcd3f00
ff82ee00
ff943600
ff407000
ff54bd00
00ba053c
ff0d2100
00278ef2
ffacc800
00373d9e
ff727100
00052f1e
006f206c
00091275
ffe66c00
ffad7100
ffa44500
0001f72f
0017990b
ff619b00
00657bd0
ffac9100
0028a128
00ad56a9
ff860c00
ff9a4900
0053f6fe
00757098
ffe83a00
00471808
ff83a700
ff4f1800
ff91ee00
ffba8800
0066c4d6
0073501a
ffd16600
ffa70300
fe6ec000
ffbe3800
ffd43700
0114c98a
ff311a00
004b06e0
ffd88600
ff417900
ffbd6d00
00dd5baa
0079fa4e
ff1e1500
000c938d
00b8ae30
009feeee
00847190
ff5afa00
fe9b4000
01034104
00230f84
010849ee
012099ce
ffad9000
ff027d00
004811e1
00bf0ccc
009d0de3
01288516
fee0f200
ff581700
fff79600
01130f36
ffcee700
ffd83300
ffa2be00
00235538
011199aa
0025048c
005f7964
ffc72100
ff810300
fff5df00
ffce8300
ffb74b00
001c2a5a
ffac8000
ffaed700
ffc46a00
004d2b40
ffd71a00
002ce5b8
ff8dc200
000a236b
ff776800
00a604d0
00c69ac3
ffa49300
ffaf7600
feecb200
ff607700
ffd1ed00
00829e66
0033a7d7
00279116
fec38600
ff3cbe00
ffa41d00
00a3196f
006d7f27
012f5d18
feb2c100
ff8c9600
ffb33100
007a9c60
0067046d
0022b3e1
fde81500
fea11300
002359e4
00a75355
00d86d91
0113706a
ff550b00
ff17f800
014da5f0
00903060
ffe7c100
0156eb96
ff4e0000
ff9cf200
01b68b34
ffbeda00
00dfada3
006ae6aa
ff7c8d00
ff4e1900
00d42140
fff1f300
005291f9
000daa00
ff8e3800
005f521a
00b940d0
005db12c
001f48e7
ffba3c00
ffbae900
003cfa3c
005ca44e
ff846a00
ffcd2e00
ffb56c00
ff745e00
fff8ec00
ffe70e00
00b25e0e
ffc7b700
ff36e000
0043a220
00188087
ff8d1400
00325e1d
00762a46
ffd11f00
ffeedb00
008cce91
007c9d39
0038f296
00bbd5ea
001bc98a
ff2b5b00
ff9cf000
00e4c3df
005a41ed
ffc86000
00b980f7
fe93c700
ffb01300
00a348ad
0052d4f6
ff7dba00
0089010a
fe0a3200
fe418800
005a0737
00ddd6c1
00408547
0167e38a
fe838700
ff0ab900
ffa32300
fffef600
ffd23d00
00cb108c
febf9700
fe822f00
004b8fa4
003bb66a
002ac366
00db5a56
ff856400
fe968e00
014e1efc
ffe87700
00657575
00136247
004de923
ff415a00
007990a0
0013fe36
00a510b7
ff527900
fff86e00
00877785
ffc34200
003c1717
001b34f1
fee7d500
005f1af4
00ae04a8
fee68100
ffe09400
ff298900
ff088f00
0081197b
003be895
fff4f100
008117d8
ff559e00
fffc7b00
0042f05e
00543efa
ff98be00
00349e37
005bedb0
ff772700
ffd18900
ffc6bc00
001e4f7e
00d09613
ffa31e00
004fcd2c
ff85c600
0045c412
002b28d0
ffdc3000
00a3b22c
00e2b48c
ff260a00
ff4d8200
008fe75c
ffbc0500
00671ea4
00b6c1fe
fe8cc200
feebd100
00c73b9f
00061070
ff3b3c00
010f9098
ff039200
febf4500
01483814
fe85ee00
ffdfad00
0112599c
feb6fa00
feb93f00
00b40a90
ff99f400
00140217
0086df56
00284906
ff1f1a00
00886625
ffc63d00
ffc33f00
00aa11fc
00e57159
0073bb7e
0059f7d0
ff905600
ff556100
ff94f300
000b6637
fffee900
ff729f00
ffc2cc00
ffe19f00
ff474a00
009e7d9e
ff9a0200
00220dca
ff9c3100
ff6e1600
ffb3af00
007e04fa
ffdeb300
ff292600
ffcc2000
ff939800
002337c6
00637f96
007b863e
ffa7e000
fff01300
00388455
0017ef06
008df9b4
001434f0
00651be6
00749a6c
0098cee9
ff482f00
ffaf6e00
00949bf6
009a89b4
00d4e502
0019381e
00b38688
ff6ac000
ff7e3500
0108a826
ffbdf800
ffaeb200
010dab84
ffdd7600
004b1f45
0140bcca
ff325200
00ce6074
010d6666
ff91ed00
ff0cda00
0157cf04
ff126600
00557462
01432dca
00be37bb
ff4e0d00
00c63271
fef21000
ffa41400
013fd7fc
0097713f
ff57fe00
0071ff0c
ffb20100
ffb12500
004b6046
00f08a91
0067ced4
0046527c
ff4c7c00
001e47ee
ffdeb100
00c33d89
ffa93200
004f0aab
ff663600
ffc8df00
ff85f300
00349901
000d6c6a
ffefbe00
ffbbef00
005a0ec8
ff94e800
00976043
00928180
ff2a9f00
ff7f3c00
ffbee600
ff468000
002ef6ca
0017fa69
ffb3cf00
ff602000
ffd74600
ff5dac00
0031d5e0
ff82bd00
005319a0
ff6b4e00
0041876d
ff9b1800
ff916600
004eef01
008b09ac
ff915500
00ed1d6c
ff6b5000
ffca4600
ff9e0500
01677b14
00533ffd
00afabc8
ffef2800
00918f5e
ffa7de00
01ae6710
ffcd1b00
0091660f
fff4d000
0075cd00
ffe7e300
01df3582
ff3f5000
00841002
006cbb71
00c5611e
ffa21c00
012a80aa
000fbbdf
00be0640
000e3d08
0052e160
ffb77c00
00d2780f
0009c082
00062a07
ff6aad00
012957ba
0038f746
ffa3dc00
001fcbe8
004013d8
ff562000
008e1f63
ffbf8200
ffa82c00
008b91b9
ffd2b500
ffeeb100
009baf60
00159aa8
001e8c29
0094e3c7
ffff4c00
006a0ed0
0022908a
ff89e000
0019efb3
ff7f0b00
00318a6a
ff7d9a00
ffc70200
ffc52900
ffaaea00
ff93d900
0019a140
00214bb8
001db563
ff647600
00a1f739
006552e3
ffd91f00
007bf570
005a58df
ff969400
0055ddfc
008aa649
00690c5f
008fa62c
ffb75500
ffd80400
001a0ba2
ff8fa400
003707a3
0035a86c
ff123600
ff774500
ffc2a900
0064c212
ffd36300
ff820200
ff785b00
00530d72
ff876800
007b1645
003eee7b
003a8f13
ff0cbf00
0081e03c
ff045100
fff76e00
006f43a8
0056abaa
fef5da00
ff91f700
ff86c900
ff69ee00
ff912f00
ffe29000
00505fda
003dc80a
ff72e800
ff3c3200
0054e3cc
000d50ba
ff527000
ffcf1400
ff5e3d00
0063c5e7
ffb95b00
ff8ca400
ffbca400
0067edbd
0019c41c
ffffb300
00242065
0047297d
00af5c51
00aa44ee
008582fe
ff882500
ff99b900
ff6ef900
004fcfa2
004b4e4a
00762096
ff7a7c00
ffd2fb00
00542d55
ffdf7500
ff8b5700
ff754e00
ff959d00
ff951a00
004cf346
fffffa00
ff7e8b00
0059b864
ff7ac100
001b7b46
002dc2d9
ffcff300
00ab466f
0070cb7a
ffbe7f00
00824a75
003043ae
00354a6d
fff32500
0092a3af
00c8a6fb
0040a3f5
ff54a400
ff2a1300
00c54273
ffe9e800
009ae836
fff74600
0029654f
0028fb5c
00f70997
ff503e00
0009d9bc
ff4eb200
ff13e300
00b427e6
013eb5f0
fee0bc00
00484324
ffb02400
ffc58700
001f474c
01736bf8
ff026400
fff6f700
0015b2b5
000fb41f
006202d6
018afcf6
ff2d7b00
0048b254
ffcbf300
006d9aee
ffd25200
0069a9cf
fefc0700
009028d8
fff51300
004c54e1
fffb1b00
002bc342
00bf2d30
00b0ab11
ffc75200
ff659000
00310e11
ffbf1900
00e14f85
003c7744
ff666b00
0088894c
005d003f
ffc99f00
0048468e
ff804000
009f6a66
ff40ca00
00d5b79f
ff920000
00b37232
001226e8
00800352
ff6cb600
ffbe9d00
00f22aa0
004671da
ffffb200
00157f58
ff594d00
ffde1000
00af7160
004dd7a4
ffd9ee00
0009b10e
ff2b0b00
0160b738
0202d710
ffb33200
00427cde
ff5d7300
ff289000
01623ab0
0274d420
feea8d00
ffd12700
ff1c9000
fe60f600
01318666
020f203c
fe3d8600
ffc38f00
fe425500
ff20a700
0163af2a
01aa0a48
fea3b100
ffbd0700
ff37f000
ff693900
003c4a0b
0173eb7a
ff80a500
ff0be100
ff35c800
00288e6c
01062800
01979890
fff18d00
ffed7800
ffd63200
ffcedb00
0110a0a0
ffd90e00
ffda2c00
ff8d2c00
00622258
00775330
00714502
00433928
00c8df0f
fff33a00
0065ea67
ff4f0700
006ceabc
000877b9
ff5b5100
ff808400
0069c3f4
ff5e9800
00268d14
000b23e6
ff4c6d00
0080b0d3
ffec7c00
0057b2c5
003c051f
004051a2
008ad235
002364f6
ff4c0100
ff1a9000
00db1c20
00dd7310
fff36700
008a509e
ffa02f00
fe38d800
0080e5d5
015e2fbe
0045fd62
00be026b
feeff900
fe1b3300
00e8a6e8
0131aec2
ff517900
0020bcad
ffa6cc00
fcab3500
02096c4c
01d6f5fe
fe817400
007e5c2b
ffd5cd00
fdb0ca00
0201a878
01b48caa
fea80700
ffba0500
ff2edf00
fe6e3900
01615078
023b03e4
00155b4d
00476a6a
ff52bf00
fedf1e00
00dc1ba2
00ba1d84
fee07f00
ffaaa000
007bf172
00348eca
010cc9f2
ff768300
ffad1e00
0059515b
008b2ec8
ff918000
005f13e8
00902a1a
ff585200
ffa4f800
ffa2a800
fface500
ffa89c00
00503d07
00168377
0021c40e
ffbad200
ff7e9d00
00537c5d
001fbc6f
ffc0f400
ffb73e00
ff73e600
feeee900
004529d4
00791288
0000f236
fffd4100
00808258
ffa39c00
005dfc1e
016aaefe
0120963c
00fa296d
003ec12a
fea9af00
015d2086
01a607b8
00d1a062
ffa9ba00
ffd25300
feb7d300
00a21415
ffe34c00
ffde0e00
00498f6e
ff29af00
fe6c1d00
00c17d5f
009917e5
fe277b00
ff899900
ffbb4d00
fecd3300
00af165a
00f80b1a
fee15700
00ab94c7
ff876200
fee9ed00
00761ae8
01480b4e
0082ac8a
0027e1fa
ff2ffb00
ff9f9000
0096af03
ff945e00
ff7ac200
ff613400
fff43a00
ffc72700
005a3eaf
fff01600
ffca1b00
ff7c7b00
0045f576
fff01f00
0044c4cc
ff746600
ffd16000
0096b15e
ff7f3400
ff4f1200
fff32b00
ffcb1d00
00837025
0041d07b
00a6b448
ff6f6e00
008408f5
ffc56600
0024b4b6
007b2a52
00596024
ff86bc00
013141b4
ff8df300
0031f282
0098a611
008c13cd
ff7c2300
00bed88b
ffe62000
005de171
0051a99a
ff682100
feebc700
0043bd6e
00596b8c
009f8144
00fc71f7
ff852200
ff02ee00
ffacc900
ffad4100
0086b212
007fd2a2
ffb88500
fe3a4a00
ff84cf00
00ea66bc
ff6bdd00
0047df05
00564332
ff04a700
0024b232
002e097a
fff34e00
010951be
001de4e8
ff231b00
009363c9
00a4126d
00b36ec7
004b4b50
006d2be8
ff4f2a00
00352a1e
ffefc300
ffb56c00
0003498a
ffd0d000
0051bd74
ffb8cf00
ff4c1e00
0070010a
ffc0d100
00739af6
007e83bc
0025bcc8
009085d0
ffc84c00
ff60b900
ffd1c300
ff464700
ff869700
fffb0d00
0074cd40
0004e7dc
0035ac58
ff9fe400
ffe1de00
002c7b76
007e6c50
009ac5ba
0027af44
004e0034
005177ee
004b42ea
0133fd6c
00797014
ff769b00
0029c7dc
ffa99900
ff1af700
0015866f
00978bd5
ffc18500
00184c4b
ffca8e00
fff34a00
004262c4
ffa7f100
ff95e900
00c2c050
ff28d100
ff61fd00
00ad6ec1
ff224a00
0048887a
ff97fe00
002ddd9c
0016a5fe
0082c750
0038f3db
007846d8
00651b12
001a1c09
005ac314
009de3c8
0032bf02
ffb32900
00445d59
006c5872
002e56b4
00eebc39
ff2d0900
003185d0
00d6dc64
009905d2
00a96ab0
003ba684
ffe0e400
ff79fe00
000d1680
ff8f4100
ff539500
fff3d200
ff6ba300
ff9f9200
00927e00
ffd42f00
ff69b700
ffd15b00
ffa60200
ffc28d00
000ec6f0
ff9e3000
005858f6
ffa46b00
0009f652
ff852a00
001c3e54
ff784d00
ffb95400
ffca3b00
ff641400
ffc24200
00547b1a
00658d18
005cce86
001451fe
00847c07
0072c4cf
00cdf87d
ff5bd100
ff595600
ffba9c00
000283e8
ff53e800
007df972
ffb06900
ffcaa600
ffc7e000
ffd94100
00a43ed1
0085b277
ff78a700
ffe4a600
00b3cd1a
ff7e4f00
0114a2d8
00901e0d
0179c71c
ffb28900
007fa8b6
00aa2a70
005d73c2
0082b368
000befea
00562659
fffdce00
ffba6d00
00762a01
fff88e00
0033e075
001e5bd9
007e200c
ffdf1000
00a9fa21
005dab08
00260c02
003c5d92
009f27e1
004f3098
002d9e5a
004364e6
ffeb9600
ffed1f00
008d59b6
ff8a9200
0082b0f6
ffaf4300
ffed0c00
00665a2e
ffd1f600
ffcde600
ffaa4300
ffd19a00
0049de32
ffbaf900
ffcae400
ffcdcf00
ffd66f00
006ebd74
0036893f
ff5d0700
ff3cf900
ff8c0000
ffcb3a00
001ed1a0
005eec2c
ff7cf600
ff65dc00
ffdcef00
ffaa6e00
003da5b4
fff8df00
003ad6fb
0019c923
fffea900
fff10700
ff23f900
ffea4700
00542b99
ff375c00
0042e72a
0044e802
ffba8b00
ffe7d800
ffd17200
ff073000
000725f5
00b498cb
ffd6d700
00550a78
00d2c2d0
006894e8
ffb83e00
00825d52
ffed1800
ffddd500
000b0415
ffe84400
ffbde600
00057bb4
000f4c42
ff3a8300
00019b1c
ffd9bd00
ff845600
00973e05
ffffb500
000e7dd1
ffbe3e00
ff982900
0069d612
ff868f00
00a151e1
ffb1e100
ff5a9800
ffb0c900
ffe6cc00
ffff3f00
008b547e
ff534700
0030e1fb
000f10c5
ff655400
00991a5a
00455084
ff686c00
ff8f5200
0016c9a9
004ef770
002b46d9
00a35073
0055d081
003c2c68
005880c4
000711dc
ff8b5c00
00243d2c
0082f749
ff8a8000
ff931100
fef9b900
ff53a900
00271987
0041f38d
00b34b40
ff1fae00
ffa35a00
ff0f2900
ffb04400
007e4fce
0060723c
ff2d0600
ffef5e00
ffdc9d00
ff528e00
004868aa
010731ac
fe63f100
ffce2f00
ff85e700
ffdc8600
ffdfad00
0081ac1f
ff57f600
002fd30c
ffdd2800
ff617d00
ff2ff700
0071b4ea
ffa1ff00
0035052e
ff914200
0072a044
ff809600
002d1907
002de914
001b5a64
ffbd4a00
0062b6db
ffdc8900
ffca4a00
005750b6
005ca4ce
ffb54b00
004b5062
ffc73200
ffadb400
00f07d48
ffd61300
0061e32a
001f5576
006d8efc
008abb5b
ffdc5d00
0088c75f
ffeb4f00
ffc23600
ff6fe800
ff85e800
ffe96d00
ffd44d00
ffeb6900
ff753100
ff2af900
ff67b800
ff4adc00
ff794200
ffe05f00
00670223
ffdfa300
0055b51b
0061084c
006000a0
002548f2
000b49ac
0017c46a
00d80df0
ff920000
0056b7e7
001188b5
ffd3dd00
00b8446d
001bc057
ff582200
fffa6f00
0022dafd
fec87c00
00976adb
007376a6
fffded00
00f9867e
ff0e2100
ff03d600
fffae600
017cb864
ff451400
006ab9a8
ff029e00
ff941f00
ff903000
0154be60
ffc92900
fffc5300
008302bd
ffd75400
00b56807
005b373a
ffc80e00
005d21b4
0061c994
ff7e4000
ffa0e100
ffa4bc00
00bf8514
fff76700
005cd0e7
005bf02a
0068cd62
ffa1f000
003a11d8
001d15e0
0035d8ff
006d3530
ffd89800
ffd7ee00
005cf1a2
ffa63000
ffe57900
ff777400
ff4d1400
0054d499
00405738
0011765f
ff965200
002c1335
fffa7000
ff703000
00877d6a
0066f70d
0008c579
0084d867
00939c67
fffeed00
ff2b9200
00a986b6
0092732f
004bcd39
003e3808
ff988000
ff4cbe00
ffb54000
001eb64c
ff98c700
002d442f
ff6c8d00
ff4b4400
005c00e2
ff738100
ff941b00
ff67ff00
0003beb4
ff0ea600
00c5327f
ffb56000
fff32500
006868d7
ff881600
feb48500
00b506ee
0066715a
ffba5700
ff984300
ff8ad300
ff93be00
009bc8aa
fffdf500
00383008
00549d2f
ffe52d00
ff66f500
ffe8e900
ffe07a00
0012c781
003fc0bf
00015e2c
ffaa7900
ffd18700
00b6383b
fff2fa00
ffe9cf00
ffa7ab00
ffe63600
ff6c5d00
00299de3
ffe81300
ffebd200
0087fef3
00868c06
fff1cf00
ffa8c200
ff9c4e00
ffbebe00
ff9d1600
001cbef6
0099fad2
00461c78
ffed3900
ff57ce00
008f6744
ff1b6a00
ff914200
008e46f7
0091e258
0054a98c
ffa7e300
ff3b1b00
fff93200
ff6b0400
0074cc22
fffa9900
ff96ac00
ffc59f00
ffedf400
000c2a14
008b02cd
003d1180
ff9b3b00
ffcb4100
005e95f6
ffc25f00
ffeb8d00
ff880b00
ff0fa000
ff779f00
00679346
0029036b
005980e4
00a36b11
0061ed50
ffcb6f00
fff4f200
003b3a90
00107135
0091f4f5
00ad3144
00e1d4df
0054ebc2
00479aae
ffca5800
00d106c1
ffdb4300
0101ba2c
ff867a00
ff9a1d00
00447595
001bffc9
0062dcd0
ff9c6a00
ffcfa400
0060ce04
ff6c1200
000fd83c
009cd792
002bab36
ff98d200
ffe69c00
00666176
001569ad
006372aa
00ff7317
ff4bed00
ff77a500
ff994200
ffcd5e00
ffffa700
ffdeff00
ffc69c00
ff361f00
0096fad1
0075d246
0098648d
00453cbf
ffd0af00
00801096
009fc11d
00565bd0
0068a5ef
000a5560
000b9161
00807cb0
0027db4c
00b70b73
0041657d
0061527a
00c1ffb4
0068ff4e
ffc44200
0096cc8e
ffed8900
003fa479
ff5eff00
ff8dca00
ff9b2f00
ff4fd600
ffd14a00
ff58e200
ffb28e00
fff94700
00655fc4
00feef49
ff96c200
ffee5a00
fff77b00
ff952900
006e3f3b
00620311
ffa48500
00334db6
ffe63900
001b245a
00d188b3
00105987
fecac000
ffb00b00
ff7b4800
ff872400
000d832f
005b0b38
0063057f
ff1c0f00
ffd2c400
ffc99f00
ffbe6b00
ffee7200
ffaae400
ff17d900
000b9a8c
009bd837
00c46071
002dfbc6
000467fb
00078577
ff597600
ff6fa900
ffea1f00
ff81ac00
0008d711
ff1f2100
ff9ba300
002535f6
003c2120
0016ec3d
0066ce4f
004b4d6a
ff58c800
ffdc1700
feefae00
00aa9feb
0008b8b3
ffdd5d00
00a8b0c7
00c7cc93
ff0b4a00
0077a354
fffa0d00
ffc28c00
003c1fab
006665dc
ff31e500
00dd57b8
ffca7b00
ff4d0300
fffc4900
fffea800
ffbb4d00
ff8cfe00
ffaeba00
ffa03b00
001076c6
ff9d3800
00952c8a
ff921e00
ff250500
0076cdd2
ff90c500
000e9c10
017692d6
0087973b
fe465600
00ddf567
ffbe0a00
0008290b
01484888
00c1caab
fe402800
01aa9ec2
ffce0000
00529094
01daec68
ffcfb300
ff362a00
ffc6b700
feb4cd00
00210ec0
01d3a428
00d2b214
ffd14900
008d3603
ff1b5000
00a83968
014d3896
00d9f9d0
006730bb
0149f61a
ff92a000
00087b02
ffb06300
ffb37500
fff3bf00
0020c9b4
ff972700
ff874a00
ff654b00
ffcc9c00
00195aca
ff6cee00
ff5d1700
000c4c3c
feb7cd00
00a156da
ffb95e00
ff658000
0010454c
003605f2
fecbce00
00396edf
ffe78c00
008b63ad
00826409
006f9704
ff313300
ffc2dd00
01514e36
00561c48
00f53e1e
ff602d00
ff9c7c00
feef6d00
ffe9f700
ffb89100
009d0ef1
000eabcf
0166ed0c
fdf48800
fe63fe00
ff73de00
00527a62
00885fd9
02218ff8
fea64d00
fd557600
0055807a
ff1d0700
00df7638
0212bd94
feadfb00
fe091100
01090df8
ff572c00
007bcc78
02ba61d8
ff3e0900
fe576600
ffc6e500
ff255800
00b1dfe7
01b97df4
01377a34
fffce300
00d69f0d
ff2b0400
008145ff
00a46cb9
0228db58
ff587e00
01cc8b06
ffa39400
0030b9ee
0014a1d3
ffca1800
ff67c100
001004d7
ffe7d500
ffb7a200
ffa7c700
fffb6b00
ffabf100
ffd62700
ff7efb00
ffced700
ff582200
002ad9e9
007e7984
000c8c14
001693e2
ff766200
fea2aa00
ff666000
00ade70f
ff3f4c00
01119d0c
ffcf9200
ffb99d00
ff0cf500
0100e56a
004430b4
004db1ec
006447c8
002d5efa
fe44b200
00ff476b
01114562
005a5386
fffb4c00
007e282a
fdc58600
ff88e800
00d359c2
ffd09100
0000887b
014d3faa
fd9cf400
feb20e00
0043b06e
007e40ec
00f355e2
0198c6f4
fd98a800
fed62d00
ffffc000
0045841b
00c573f3
01bd9178
fe18b600
fea7f400
00d929b1
ff409500
00ee3bb9
0161fca6
ff75ab00
ff843900
ffe03400
ff136300
0086a04f
01a30d52
01a4dfca
ffa1d800
0030ac61
00066043
ffdcbd00
00203949
fff0b500
0045d87b
ff309d00
0090ce1c
000ad23a
ffe7e600
ff515300
008ea51c
ff0c6500
0035add0
ffcb9b00
ffe79900
002e7d6b
ffdfdc00
ff32fe00
000aca58
00932ee6
ffa45000
ff355f00
00727ac0
ffc70700
00d6d7fd
0023c6ca
ff63f700
ffdb2e00
ffbf8d00
00945f81
00c292a0
00918b8a
00ca7b91
fe785000
00388346
017d3636
00742d28
0014dcbf
010611b6
fe4b8300
ff7a6f00
00d219e9
00bb8fb5
00304cfc
01e3d312
fda65d00
001debc0
000762f8
00058903
ff968c00
01c66c44
fe14e600
ff64a900
00b0d205
00c00ef8
ffdfd700
0106ec62
fde76500
ff018900
00686a90
ffea0400
002c4292
01cf6c5e
ff02b200
ff469200
004e8e3d
ff438700
ffb08a00
00a4a47c
00295f93
ffcc7300
ff57cb00
0002b076
ffd08200
ffbd5a00
ffdba900
0034cbb2
0038b941
006e63ac
ffd53d00
00d1a136
ff06fe00
ffe9e800
ffb1ac00
000923b4
0045f026
013d2c18
feeee000
ff93a400
ff9eac00
000ca607
ffa0a500
00580708
ff504d00
ff469200
ffc24200
00e6e364
010634c6
0049d1de
ff5c1800
00702ba6
fff36a00
013e07c0
ffbf1000
00f208a7
ff38b700
00450730
00ee792a
005d475e
000df482
0058d076
fe57cb00
007dad34
ffac6e00
00f2d73a
002b919e
00bfa59d
ff092400
004155d2
ff80ff00
003f77be
ff773000
000c7b02
fea22300
001e029a
ffcf2d00
00faf58e
ff8c4a00
fface600
fe871000
0040ba56
00b13863
0060e864
fff32600
007a6600
febf8c00
000e153b
008da63e
fff2a200
ff993f00
ff6ad100
ff5c3600
ffdaca00
003d2e76
0079e495
fff8b300
00909a7f
ffad5200
0064c6a0
ffbbb200
0038f669
ff8b5d00
003f645b
ff4cbe00
005364d8
fff7c500
0096edb2
ff7b8500
018f36d0
fe556900
ff95b900
00002edc
0051c736
ffa80300
01ae4a86
fee3b800
ff5d4a00
ffeaa000
010827c4
00228f3f
00afa9b1
ff775200
fe9b9e00
008a7d97
ffc02e00
0094e9a3
00bdadcc
ff94d400
ff674800
00ab19b1
ffbfa500
001ba326
fff15c00
ffa9f000
fffb0e00
00672d42
ffd85e00
0061e63e
0074a898
00211d56
fffe3d00
00041f81
fffec500
ffaee300
fff9c100
ff6b8e00
002cca4e
008595b7
ff984d00
ff6e8a00
fee69b00
0010203d
00363832
ffe62100
0060f1bf
ff698900
ffe49300
000352ba
00c71d2e
ff962b00
ffcdc300
001f9db0
007fcbc4
ffbeb500
00828d1d
00be7b9f
ffad6100
ff7f6300
00785846
ffcb6f00
ff98b500
008beafc
ffd57000
ff9aff00
001d9cf6
ff744200
004bc346
00ce08f5
006f9ac7
0016cd91
01a0a430
fec9ad00
ff72ca00
00a8cd3d
010eac9c
004baaf7
01adf978
fe3ee900
fedf4b00
00e51c40
ff786800
0052fb74
011e0d78
ff704100
ff1ab900
0058d17c
ffc62a00
006a0ccc
00a77c1a
ff51ac00
ff60d400
00a73e45
fff02b00
ff5bab00
005e873a
fffe6f00
ffe11e00
000ece45
004c7f8f
fff6db00
0050767d
00c704b4
00239375
006f4cec
ffc08700
ff6c3200
ff297600
ff840b00
00d24406
ff3bae00
003413d5
ffa37a00
ffd03100
ffd44200
00ef9369
006f168d
002de020
007d691e
0025d876
00131528
00a16eb7
ffd65e00
008854d4
ff635f00
005ebfe4
ffac4b00
ff7cef00
0081a193
007b299e
0084b942
00c1f3bc
0064d4d5
ffbd1200
ff8dd100
ffd39600
ffae0500
00afd63e
ff625f00
ff285200
00457f4a
003ccc99
0096dd40
0124bf4a
ff557800
0063b578
000bcad2
006a2042
0040a0e4
021ea7a0
ff60b800
00367526
008d1b73
ffbeae00
ffbaff00
00fdb61a
002c59f8
ff92a200
00d27735
ff3ac900
003ec578
0113b73a
009f3545
ff25b700
013017a2
feff3600
ffb23d00
ff93c100
00010374
ffb2c200
006dd99a
ff880700
003b8e4f
00660d42
01150340
ff952700
ffbe4300
fff0f600
00440f19
ff67d000
004f95b0
ffce9300
ffa25c00
ff98bc00
ffd21a00
ff256600
fffab200
00aa3cdd
ff86aa00
ffd7db00
ff8ac000
ffd8aa00
00ae16af
0002ebe5
00c147e8
0096e864
ff737d00
ffc2db00
006dc41b
003f5757
000e5931
ff89fc00
0066a0fa
00a2c01e
ffaf8200
004f3dc6
ff78b300
0077cd84
ffec8700
002c3ca7
ff73d100
005c6f4f
002ae8f8
ffcbdc00
000b9dda
00ebbb31
0007b1fe
ff8ee200
009ceb83
0029320b
ffb8a500
00cf8d3f
ffa03500
ff8a5500
00e286db
002fa28d
009141f9
00d1a19b
0077fbf5
ff21a400
005c89c0
ff058d00
002f0ca0
00ab18f5
fff71700
ffb4d900
00c3bcbb
ffc51900
000a0603
0045b59c
00709b07
ff797d00
00821a43
ff6e8600
fffd7800
0044de7c
0025b43a
009dd031
01090d28
ff80cc00
ff939700
00413236
009388db
ffd27e00
001b8bbe
ffccc400
ff98f700
ffe82100
0105a62c
002c6cb4
ffb3fd00
0050d819
008ed266
004cfcc3
0070c75d
0059cd1c
ffe1ae00
00a62d33
ff86af00
007b5a57
fff7da00
ffda3500
ffd68a00
fff77f00
0052fc92
005f8483
ffef9400
ff82d100
fff8ca00
007d70ef
ff7cc800
ffb8da00
ffab2f00
fff56a00
005a7f78
0056440c
ffadfb00
00534aa0
ff6db800
00cd04e2
ffd1ba00
008646b1
fff13700
fff7d900
006e388c
0082098c
0028d007
ff99d800
004fc37d
00090e3e
fffe9600
002e3773
0125aa8e
0055ffbb
01255a12
009d4720
0005917f
006ac966
00712e69
ff676700
011a48fa
ffe40000
00a50c56
0059e1e2
0073ec84
ff934400
ffe8ed00
ff3f9d00
ffd53200
ffab4c00
00a74a6e
0071072b
00395d9c
fffbf100
ffb22600
0068d670
ffecb200
ffbcc200
ffc49900
000017cf
00390516
00a5287c
ffcd7b00
00274b3c
00019cfd
004ff0b1
0088af1f
0002e264
ffe4c800
ffbbf200
0077127a
00211441
ffaf9100
ff8cf300
003b1bb3
ff63a800
00706fdc
0069b850
007f1d86
0048b2fc
ff823900
004365cc
003cbba6
0032d799
ffe8dc00
ffb7d600
ffbddc00
ff93cc00
0002b449
ff4b3200
0005917f
00b33bda
006feb70
fffcd300
0064fafd
00789f51
006a483d
00950d9d
00ac7672
ff8a8900
ffccf300
004fcd93
00850f37
009f3b33
005d1379
0067a4ca
ff921600
fff97500
00f8ba70
007a60be
ff25ae00
007fd644
00126ac9
ffc84600
00293284
ffffd100
ff056500
ffcafc00
007b70ea
ffb65c00
fff8e800
0017ecd0
002375b0
000795eb
008b9508
002ca516
0010e3a4
00c92579
0008b756
0015c565
008df6ef
004e5d3b
00722280
007a8fda
00b8025b
00650fec
009f4ce8
006019a8
0035dade
00129a05
0093a11f
00b46da8
000faa62
0067e2d4
fffb0500
008fdc47
002b9db7
ffa89600
ff8c3a00
fffebe00
ff9ae700
ffcf7600
ffe94d00
ffacd700
ff8ea600
ff700600
00dd3faf
ffdc4f00
ff8dc600
00590c74
000b1122
ffafe800
00e2bfef
00b48ae3
0005bf16
ffafec00
ffd9ea00
ff3cb600
00d9492a
0042bdc0
ff188400
ffe62500
ff676100
ff513800
010df56c
0078977f
fea30900
00130594
fefeb600
002968bb
00a78444
010a9092
ff397c00
fef72b00
ff8f7f00
ff723800
010d426a
00c88959
ff27f900
feecab00
ff9e3500
ffe0e600
0051754a
ff9df000
ff308400
fff44d00
ff719900
ffa04200
00c43d7d
0070985c
ff569300
ff027800
ffa18300
009a0af9
003dbe3c
fff7cd00
ff675400
0020d369
ff717b00
00099061
008781aa
00445eb3
0038b8ca
001b5004
008836bf
ffdb9f00
ffd2c000
ff529100
ffd8d700
ff8f2300
00323480
fff6f300
00138e3d
ffdbac00
00a5f5f7
00806e1f
fff70500
008452af
ff8e2100
0014df1d
ff717600
0055382a
fffa7a00
ffef7200
0083aa36
007b29e0
ff7b4f00
ff8d6e00
000a6739
ffbe1f00
000c7ed5
00cb8b01
0023ba2c
ff294e00
ffa0fd00
fed9b000
00518268
00cea771
ff9eb400
ff229900
fec86b00
febbd100
00211660
00bd1047
ff30ea00
fef32600
ff568500
ff589300
002d4182
003bc608
fe1e9000
fe7d4600
fef62700
0000c923
0012e555
ff718600
fef49e00
fe9fba00
ff322c00
00cd223c
ffc1bb00
ffe05f00
ff2ff100
ff8c9400
00273915
00c760ad
ff6c5000
ff9fa800
ffad7300
ff15c600
ffce3d00
ff736b00
ff87b900
00391eaa
fffbc400
001f5d37
004a81f8
00031f7d
fffc7700
ff95c800
ff849400
002752fe
ffac6800
008335bf
ff7c4d00
0008886f
0022aa5a
ff808b00
ffd11a00
ff9b1300
003562e8
0099fc77
003d70fd
ffaff600
ffd32b00
ff87b800
0058e1ec
006b6dfe
ffa8a900
fff7a200
ffd88900
ffe99400
00bf5264
008cb1a3
ff536d00
000d7601
ff096d00
ffaf4100
ffc1bb00
008ba88b
ffa16b00
ffc62900
fed40d00
ff79f100
00a2721b
fff17e00
fe8c9100
ff61f300
fecea300
00281258
ff999700
ff93da00
feaa4200
ff32c400
ffab7a00
0180d628
ff519a00
fed2d200
fe794300
fee2c600
ffd6e800
0197d9ec
ff4e5600
fe780600
ff32ac00
ffc09800
00a515e8
012eabc4
0021a4d0
ff627100
ff9bf300
ffe8f600
007b763f
013a264c
ff54a100
ff3b9b00
ffa56200
001c1c16
0024f0db
00201ae7
0031e803
003a18be
ff994200
ff661600
ff919500
ff8ac200
008daa7d
0019281a
ff69ec00
ff915200
0017b2ea
ff31a700
00c18a18
ffbf1500
ffd0ed00
ffce4f00
ffc29400
ff5df900
0094f61f
005ed6e6
00e43f27
007524b6
ffd31a00
ffe00c00
009aa2ca
00ad4c49
ffb2f600
ffbe8800
ff736800
ff9bfc00
00a76492
005656a6
004ecbb2
ffb53000
feb0a300
fecb4400
000f1428
ffa2e700
ff5a6a00
ffd76900
ff4cd000
0004e8d6
ff905a00
0058041e
ff102000
ff93aa00
ff668b00
012af2a0
ff6ed400
ff111e00
ffc05400
ff1a3b00
003e839d
01046862
ffe8f800
feec5000
ffab2a00
ffd45800
0118448c
0176f758
feeb2f00
fef0e100
01094d08
004511fa
00e7dc25
00bfa068
ff6b5b00
00358ea6
0172925a
00deb426
0074af50
ffc8e500
002b9d73
ff71fc00
0034e2a7
003a00a5
ff83b200
0025162c
0052ec19
ffaa7200
ff841b00
ff460a00
009ad458
ffd2e500
002ffb65
00c45999
ffaf0300
0052539a
002ba474
ff9c4c00
01a3c716
01620a52
ffb01f00
0032bcb3
0011c857
fefd3400
01491e44
00d28da9
00ca8add
ffb33300
00334ab5
fe93ff00
013f9b56
005767f2
fffcce00
ffed3400
ff636b00
ffccda00
ffb03900
ffbd6c00
fff5fd00
ff6e9c00
00927a64
fff79400
ff510500
00676f91
00dd66d1
002ae0c6
00056d40
009a530e
ff51af00
ff514900
00f69c5f
ffe76700
006e3645
00d0bf6c
ff12b700
fef63100
ffd0e700
002e6552
006e8be4
001775d7
fff7c700
002f61d8
00876612
00981216
00d9c8f0
00255516
ffdba700
00b519dd
01a094f8
002a59e9
0038394f
fedcfb00
ff854b00
0079b752
0090cd98
ff4f0e00
0050e758
ffbea600
001fa4ea
00aa72a9
ffb58600
ffea7b00
00be0fd2
ff3bff00
00fd17ce
00c824c0
00bae2da
ffd8db00
001cc847
ff84ae00
010f40dc
003cbb37
00d0fcc7
fffd8a00
00569482
fe622900
002ea511
00f9a3cb
005571cc
ff646b00
ffc5de00
ff0b2d00
01741bca
0069dc24
00707f40
00631d27
ff4bbb00
feeb3600
00d06237
ffdf9300
0038420e
ffaadb00
ffd85100
00a40dfb
ff992000
00bebd24
007f345b
ffdb1000
004a3454
00552c3e
0040a4f3
ffdaed00
00675b95
ff7e3800
0037c3ba
ff840e00
ffe67800
ff9b1400
0051512a
002b6a6a
00a4acd3
fee77d00
002cfdf1
00d4808f
00b806be
fff1c200
ffcc1d00
ff808300
0128c570
00a955cf
002cd65f
0076d722
0005437f
ffbc0d00
00559902
ff89c100
ffd6f100
00043ef7
fff65700
ff668b00
ffa2fa00
0069f65a
ff740c00
ff587000
ffa6de00
ffdf4300
0041653a
00202754
00315074
ffad9e00
00309755
ff610900
008a563b
0089f6bd
ffd5dc00
ffe93e00
ffea6300
fe066900
015c8988
00b0771c
00d50f15
0012ae36
0041ddea
fe323400
00fed8dd
0178eac8
0027c5ea
0050b815
0077d3b0
ff91d500
00dc21d2
006d696e
fffea500
001ce72e
ff53a000
00564722
004b87ab
00577b34
0060d77b
006dcc22
00953a02
ff6e6400
00203214
002f9de5
00f51e3c
000a2201
ff944800
00224177
ffee2900
003d936f
00c8241c
00183dcf
0001205e
ff936300
002f9cdf
00592352
003b9820
fffd5100
ffae0b00
ff548000
007d6420
0045895e
ffe38b00
0042bb9b
ffc38900
0003e824
ff8b9000
0048adc7
ff6a7800
00955d0d
00792a22
ff80c900
ff5b4e00
0078429e
0052796e
006b1d79
ff702400
002e5dd0
00dd1635
00abef39
ff126500
ff593600
003e252f
ff03e700
0087a465
ffc28100
fee7e800
00f6498e
ffcde800
fe838800
0019156c
00fb1f3c
ffd40400
00c9da24
ffb4db00
fe835600
0028c36b
00c3c668
000c718e
00d1fd2d
00b6031e
ff894500
ffb1bf00
00b2b2db
00828ff4
001ddf73
ffda4700
ffac2e00
ff20cf00
00609c28
00be3949
00804969
00e7ca2a
004d800f
00b70025
ff99cc00
00c726f5
ffbd6800
ffc77000
00b10f4d
ffa66500
ff987400
ffe18900
0048be65
00305aa0
ffc01a00
003d772a
ffba4900
ff776500
001dda81
000ab6ae
000a654c
ffae9e00
ffbf4100
000a9899
00865170
007e848d
ffb83500
ff6dfa00
0016bc1f
ffa86900
ffc74d00
ff56ef00
ffa5a500
ff600c00
006deafc
ffa5b300
003e6193
ff468b00
0067002c
ff651300
0005a233
ff82d300
ff631a00
ffd02f00
fff4c100
ff90e500
00ac9731
ffefe700
010a3436
002d2118
ffedde00
008918a8
ffb69100
ff97e100
0160801e
00bb205e
ff0ff200
00d7cc84
0082885c
fff03d00
00473993
01121ebe
ffa95300
ffd5ea00
ff3e5700
00920f7a
0043e136
0064bf3c
0090ef97
ffb11200
fef51100
00fdedaf
0038c0fc
0022067e
00795b5c
ffe23000
0034af0d
0059909b
ffae0d00
0065274e
fff54100
004b9c30
004a1a54
ffed9900
ffc57300
ffc78f00
ff9c7500
0073872a
000d6e94
003cef83
ff56ce00
ff925f00
002e3eee
ffb57600
fffad500
ffbcde00
00267e10
001c2473
00431efe
009bce1f
ff6c5e00
fff60a00
ff6ac000
ff7ce200
0055603f
006d89e8
008ec3ea
ffb4e900
ff6bf000
0026fbce
fff36b00
000aa900
ff71b300
ff3ed100
ff8dfd00
003bf424
ff64ec00
00050162
00824bf2
ff4e5700
ff833800
ffd74d00
00273c07
ff9faa00
ffeddd00
fecf3f00
005e6759
00040950
0077ee82
0021d0b2
ffeb5b00
ff9fff00
00432b57
005cf87c
002f381a
ff58c800
000d7701
ff901d00
ffa0bb00
00665f86
00aa94dd
ffe25900
ff09c900
00d37e1f
007778aa
ffe6a400
007b170b
00288f88
ffb1a300
00086790
ff992500
fff5ec00
006ce69c
0075142c
ff4dfc00
ffbfee00
ffce9c00
ffad8c00
ffba3600
00d5933c
002a3ce6
ffb26100
00514272
ff761b00
003f6022
fff44100
ffe54400
00276585
007e6482
ff9c7b00
0093e1f1
ffff6e00
006c4fb3
ffd8b100
ffe7c600
00103d8f
000bf678
ff995e00
001d36be
006ca20a
004c3733
fff42100
ffb45b00
ff8e4900
ffb15000
ffd93e00
ff9b0b00
ff7d9500
ff879800
ffd37400
00111538
001cc3f3
ff950f00
ff7aaf00
ffd2a700
ffe81800
ff78e700
ff3d4c00
ff823c00
ff891800
ff781f00
ffbaf000
ff34cc00
001363e0
001a88ca
ff04b200
ffb9fd00
fff4f300
0065a72b
ff7d5e00
ff8ed700
00425ec8
006519cc
ffc7bc00
0045236d
0022c97b
ffb16700
ff576900
0085c003
00564637
fffe0100
ff5bc600
ff8afc00
004594c8
005c4ae0
003138d2
0020c293
ffd1ff00
ff7cbb00
004d6128
00519b3a
00001415
ff6f0b00
ff5b4900
ff676c00
ffe4e600
ff978d00
007a512a
ffbfcf00
ffda3c00
00955842
0064b157
00048240
001e5608
ffcd6500
004cff1d
ffa2bd00
0044a81c
00282536
fffa6e00
ffc30b00
005ce9b0
0028b779
008e9d4b
ffa3ab00
ff93bd00
ffdb8900
004cddaa
ff9eec00
ff5c9800
ffa3bd00
ff7df500
ff97f000
006d8282
00932954
ff7a6100
00326060
ffb10f00
ffff5900
ff84b500
0045a299
004e69b6
007b060a
ffc59100
ff3bed00
ff8ff400
ff6b9700
001e7d0c
ffe19100
ff484b00
ff377800
ff986800
ff786e00
0049a44a
ffbe4e00
ff7dee00
00694a0a
ffcbdc00
005af1ae
ff570b00
fff41200
ff7f7b00
ffe71300
ffbcaf00
ff2f5100
008b3dde
ff8df600
0017ea52
ff5f1100
fe962d00
ffbefd00
00635d56
ffea0300
005cb75d
ff6dcb00
ffe66900
008fcbf6
ffbe2c00
00441c6c
00905476
fff0ec00
ffa56500
00602836
0000293a
ff9c8500
00a451b5
007cf09a
ff53e300
ffa35300
0089a905
ffd2b500
ffa31f00
002140da
ffc16f00
0013f6b8
0008022e
ff878900
0029ecf6
ffdc7300
003cd042
ffe2ae00
00682f87
006de10e
00315195
00077f1d
00a3660f
008c95e9
ff95d200
ff748b00
ff8f4a00
00d4aa53
0043ceee
ff8c1700
00192c0b
00a56443
fff55f00
ffa36000
0080ba18
000b1c8a
002dd453
ff83af00
00503ab0
ff018400
004f1200
00a9b57e
ff611600
ff998400
00717847
fec0bb00
ffb24200
00ea0868
ff08b500
00a06eed
ff996900
ff438300
00a555d0
004d8e4b
0044f5f0
00448f5d
0006710f
0009bf4f
008b49aa
ff436900
ff84f200
0082accd
ffecb000
001f9b3e
ffaa4600
ff5d0100
ffbd9900
002d2d75
0054bbfe
005137c7
005e5ee1
ff694b00
fff7c300
000af666
ff5f9300
ff889900
ff458500
002c7131
00222689
00189292
ff90ce00
0070bbfa
ffde7a00
00aee33b
ff93b100
002c8148
ffdb5700
00082b4f
0058b59d
006ed72a
ffd64e00
0057fad6
ffeaf600
ffe56b00
00b66c0e
0089c8d4
00789bec
00f1d3ab
ff716d00
ffda9200
013021a6
01472e96
00bbdeda
01672f88
fff9ae00
ff5f0b00
00286202
00f34486
ffe30900
008e8f96
004345bc
ff737600
00e85c26
000d5806
009d31e9
00839a05
ff428800
ffa07d00
0002ba2c
ff61fe00
ff947900
006b4ee0
00530bac
0033da77
00dabf4b
00631b26
00570f4b
ff7f3f00
ff57c000
ffab8600
ffd9f400
00081af3
ff695700
ff850e00
ff940a00
004dd749
0042fb58
009af38f
ff9ee200
ffe0fd00
fffcbe00
00af782f
005df628
ffc89000
00106e98
ff85ac00
007acbde
000298db
0025e5e9
ffb34100
009c84de
ff741d00
00a85521
000c2d22
010176b4
fffd6600
ff9b1800
0002e9f6
0011a2fe
ffa3de00
0083fc32
010750a0
ff851900
0115e4f2
ff07f500
ff515000
fffcac00
01580a1c
005036cc
005c2cd2
ff86f500
ff990600
0055f546
01c0997a
00c95094
017b3ff4
0016096b
ff363900
01619782
00e4afba
ffb2d000
012ebe56
ffe30600
ff316900
01940754
fff94300
0091ebf6
018d8b22
0034adc2
00803d3e
00da4592
002668ea
003307ff
0154d3f0
00374185
002bc429
011afd96
00200bf2
009111c5
005e8812
00e753ec
001ba7b8
00dd9cfd
0044c280
fff6ce00
ffc87b00
011bd08a
00c4930c
011f2f76
ffa6f200
ffbd4700
ffeb6b00
00429694
ffe2d400
00b6915e
00261b38
00183844
ffcde400
ffb08d00
0074d4fe
ffc1f600
0034dbe4
ffcebf00
ffe66d00
00553e88
ffcfcb00
0024c262
005f5733
0049d910
002bb974
ff2bab00
fea43d00
00f2153c
0091c468
fff79800
004d8532
ff479600
febe4500
ffc3e100
005a48d0
ff91cb00
00920448
ff7ff800
fe331300
00c6c61a
ffc3d700
0022eb82
00d887b4
ffacb100
ff886500
00bc2589
ffb74e00
ffd93e00
00faa129
0015892a
00f05607
001f6ca9
ff365c00
0037d827
00f46cf8
00834aca
00a4cc73
ff39cc00
fff86600
ff9a7500
ffd6bd00
0074894e
00dec4d6
004576bc
ff949800
0060eee8
005f3282
005a6344
ffa98900
0060d648
ff83d500
ffdc7800
ff3ead00
008e4e86
005b4b16
ffff3e00
003e0952
0083d3e3
ffd79c00
ffc5cb00
000165c2
00439d65
001bc3e4
ffeb2600
ff826100
ff6e0000
001961b4
ff780500
000e8993
0093157f
ff9a1e00
ffbff900
001ab074
00d515ec
ffc09800
000dd8da
ffe83800
ff5c5800
ffc38d00
00345084
ffbe1d00
ffbb5e00
0051ceba
ff4b8c00
ff160700
0017f11e
ff24de00
ff9d2c00
00ed3436
0014b6c1
ff6ee200
fff17300
fe5f3300
ff56c200
0142ce02
001e13a0
ff21c000
ff979c00
feb84f00
ff70d700
ff84d800
ffda1400
012a2026
fed20700
fe739b00
ff5bba00
007ba18e
00f1c490
01420278
fe12a900
00c0c5b1
ffef6b00
ff9daa00
009874df
000caf03
fff2c200
ff9a4500
009fba12
ffdbf500
00232ef8
00500a34
001ff948
00234661
00266b99
00842451
0026d0a9
006e5b88
006e8b8e
ffc75300
001eaa91
ffb79f00
002d6548
00124b6e
00906cf4
ffad9400
ff238200
ffaa0200
0074bf08
0045fe3c
fff51500
fff2a300
000da013
0066d0b6
007cf897
ffc47800
ffc61300
ff7f6300
0041ad34
ffcbf000
00085a52
004c6c0e
ff4e3000
fea0e600
0078fa7a
00d26d1b
fff3f700
ffbc5c00
003cd4a3
fe7e3f00
004e5e78
02050b54
013b9844
010ae9b6
ff7aca00
ff6f5900
ff971900
014d13f2
ffcd4700
010264fa
fec3fa00
ffaee000
fe578100
ffbda000
00033804
0041ea08
fe720700
ff079800
ff873d00
feae2400
008589cf
0000153b
ff032c00
ffe28300
ff963f00
00345248
00a38557
00058af8
00347690
ffcc7900
004bd6bc
00973172
ffc76d00
00cab433
01aa6ba2
003535d7
00a26a11
004e36b3
ff9cae00
ff876500
0107ff34
fff0e600
007e5408
ff625200
ffe50d00
fff55400
00a46e60
00183ff5
ff785f00
ff7ee600
ff61c600
00b23ba8
ffbbc800
0094a963
006e8472
0023ff90
ffd1e300
0071fa45
007dd0e6
001cfd36
ffb5ed00
fff96200
004237aa
00456abf
ffa87b00
ff6c8700
00d1f25f
00ccd5dc
00ea8111
0105973a
005489bc
ffa88400
00b02c18
01583032
0184ecee
00b48147
ff820000
ff737500
0006184e
00b9cd71
01043728
01553e8e
ff083f00
ff657200
ffb35800
feded600
008cd196
0073c912
ff65ff00
00026060
00190736
fedb6400
004c9ccc
00e4ae35
ffba7a00
ffc66c00
ffbb2600
00bf0c58
001283a4
0052580a
002f7208
0039ebef
00ad84d7
003da662
0001039b
00df2ebd
00d94c4f
003ee716
ffdbb800
00d15ab1
ffedf200
003ba176
00029a03
006982b9
ffb58c00
00b100b1
ff5d2700
ff7b1c00
00046c3c
ff939600
ff85c700
ffd15300
ffbf3500
ffc0a600
ffd2ba00
ffc2ad00
ff955000
00443faa
0032b8e9
00177185
004ad5fa
0041847e
0080c0f1
0045f784
ffc85e00
0085d943
ff1ee300
ffd5b600
ffb27600
00207f6f
00128d14
00dc759b
ff28fd00
ff60de00
000bb248
00bfad45
00dcdfca
00e89f5e
ff0c1a00
ffd89a00
0009fee8
ff132800
0005c660
00f279d2
ff159200
ff886100
ffda1100
fed63c00
002a30f3
00ef4f50
ff401700
ff55d700
ffb28700
ff958400
ffc37c00
00484794
ffa3c800
ff8def00
0088b53f
ffc12300
000c2753
004e2cd8
ff4d6600
ffe29a00
ffd3b000
007c023c
0094bb7d
ffddad00
001a21ef
000e560f
ffb10200
009963fe
ffd6ee00
ffc37200
ff63ef00
ff7bf900
004d3e87
ff8b0100
ff97b900
00639975
ff453100
003a3b5e
00245384
ff9d9c00
004ca90a
ffa12c00
ff43e200
ffc1ed00
ffdc3600
00106b8a
ff9b8500
00280674
0078d287
004efeef
ffb73c00
00a9ddcc
00508b72
ffd54500
ffdca500
0040984a
ff5a6a00
ff9c8300
0007b142
007a6e8a
00381706
ffd9b500
ffa6ef00
003895d2
00a53cc7
001b2407
fff88300
fec64d00
ff1eb400
feab3700
0036240d
00c09c0c
fedad300
ff221000
002f89be
ff528e00
003dd9e0
00cf028c
fe348000
ff4fc000
00054e1d
ff35be00
ffe36800
0081db01
ff8a6900
001a416c
ff915200
ffe96f00
ffa3fb00
00c02749
ff731d00
000bdc24
ff302800
ffd3b100
ff6dd700
008464d2
fe6d1f00
ffedbc00
ff643200
00ca7f22
ff66e900
004d7fec
fe3e7100
00093f5e
ffd87200
001a0fdf
ffe9c600
008d3c3a
ffc2f000
ff51ea00
00048b69
0028010f
000e9799
ffe35500
ff15b400
fffc8f00
003ee8d1
0033fe8e
ff549400
ffe55c00
002f9723
000ecb0c
0087f253
ffdaac00
009abbdf
ffe75600
002f9fb4
004685b6
001956e4
ffa50200
00d93770
002d9603
003b9c1d
003a3efa
0003932b
ff1c9d00
0050fe26
007337fa
00492a35
ffd4fb00
ffcd0500
ff084f00
008c119c
00ee07f5
fe0e9d00
00477568
feb49900
ff2c0c00
002d1e46
01667bc6
ff0d6000
006340f9
ffadb500
ffadb300
ffa9bf00
012caf9c
fe772500
ffee9b00
ff8aee00
ff91b200
fffc9c00
00c6cdf4
ff884c00
ff73d700
fefeb000
ff506400
ff119b00
ffac6600
ff652500
000dac94
ffd84700
00064e17
ff266d00
00341e39
ff4e0700
ff4d6b00
ff7fb300
ff70f200
ff0de900
00542d5c
fed86200
ffee2500
00784ab4
002efa0c
ffb79500
ffca4600
ffd89100
ff765e00
005e6338
006bb812
00974f12
008f1c76
ff775b00
fffced00
ffe8e000
001a503d
00241061
ffe41300
00a8111f
00719676
ffe7e800
ff834500
00f28ed9
0002bdc6
00784b9e
009fef27
ff5de800
0031eac5
00b41a44
01083512
007fbc66
008c8c03
fff11800
ff2cd600
0110517a
005b27a0
ff8cb100
00a7ecd4
ff2ea600
ffface00
00198360
014aa7ba
ffdd9100
00f61391
ffc0c800
ff977800
00841d0e
00a1b646
006063e3
0059497c
0027302a
ff7e8100
00b4f687
01000abe
ffee9700
00146b06
fffaa600
fffcd700
ffaa7400
00b45a71
00220f1f
002a2022
004cf301
fff43100
ff839e00
ffb72600
ffe75a00
ff7e8b00
ff996100
ffa2bc00
ff3bd700
ff9cd500
ffd7e200
006b7dde
006a8cd9
ffd38200
ffe86800
00b6d968
ff9a3100
00986da1
00371bfb
002e1ebc
ffe2d800
0082838d
00927951
ffb4e800
00987451
003e7a5a
ffc9e200
ff699b00
00486e6e
006833bf
002636ac
ff34cb00
00509306
ffcaa200
0099dcb1
ffc39400
001be924
005498e2
00ac7ab3
ff88ae00
fff6a700
ffb6b800
ff688d00
fffa8d00
00671630
ff677b00
00871d8f
ff51a300
ff76ba00
002bc4af
003bb429
ffac8000
ffd49900
0084a59f
009baba3
006adce9
ff5c0900
0047a3fd
006eb9a8
ffd67a00
ff9c4e00
0020812b
005f460a
ffe98400
002b56cb
ffddc000
ff7c1e00
ffd6c000
ffba0300
ffd6be00
ffb89400
ff9cf100
ff652000
003fc3d4
00112c51
001aac2f
00b08d10
ff833200
002d0372
ff51ed00
006c1d2e
001870c9
003060e3
002d9445
0053d91e
ffd41a00
00236008
ffe1d500
ff606d00
ffdae000
0048424a
fff92600
001882f4
ff778200
ff5bcc00
005e8d38
00505f0c
ffbc2600
ff5cfe00
ff952a00
0007dc27
ff492100
003a59b8
ffc44b00
001c9f2e
ffad9400
ffccd700
ff8df500
ff66e900
0039f5c5
006b542c
ff4eb800
0042b164
0024f8e8
ff62be00
ffd88200
ffd4b700
fffe1f00
ffd07000
0087cd54
001a987f
004465f9
ff53cc00
00163b7f
005d3bfe
00403cf4
007f9edc
ff7d0d00
ff7d8000
ffd21c00
ffc0d000
009c83d5
00a2c3ca
ff351f00
ffb0f200
ff9cfa00
0060d70e
00902d03
00acb341
0000d671
0054eeae
004e66a8
008c4cf9
ff8ae400
006b9c18
fff6ee00
0006eb9b
ff7d3800
00571138
00de1ad5
00fa3d72
ff98c200
00228eee
ff53b600
00b35ca1
fff5c200
0061de24
ffa4ef00
00894065
ff6b8900
ffccc800
ffa80b00
ff504500
007119a0
001e866a
fff3c100
ff8cc500
004d7a46
00162240
ff8eae00
0056af67
005087a1
ffda3c00
0025042f
00103d74
ff451c00
0009f6da
fff71200
00b03df7
ff2b7c00
008b1f83
ff95fb00
00549cee
0051c224
ffe87d00
ffe1de00
00b94047
00342541
0047663c
005739f2
ffe09300
ff2c5d00
00c780d2
003aa24c
002cf7ac
ff7ded00
fffd3b00
0035bd4d
00c888dd
ffc53900
00754ff4
ff774800
ff661500
008f93c7
01354e0a
fffa4800
005fd4b4
ff1f1500
ff9c8800
0070cdd0
00d0a66c
00638478
fffedd00
00673565
009c787b
00e3d626
00990cec
001dc69d
ff3ff800
00060cf3
ffcc9b00
ffc9e800
00463dba
001a6652
004400b4
002172f5
ffdf3800
ff749c00
fff1cb00
0024f77c
00993d96
ff89c400
00f26ac6
0062a1e5
ff827500
ffe48b00
00a9d8a4
00303534
00ba40ba
0008f3eb
0060cf3f
ffcc1000
00da00a9
001db603
0004f85a
00604c34
006f843c
ff8f2a00
00b817d5
00684caa
fff29100
0057f36e
0025270e
ffd88400
00ceba83
0052a5a4
0044bf28
01161c58
00207dea
ff510700
004569c0
0096c599
00bc09da
001f53fc
016d58c8
002bd2ec
ffc55a00
fef82b00
ff6f5300
00ed21e9
00b339d9
ff983e00
ffb68500
fee0a000
006d4622
009d1513
00e39192
ffa94c00
ffb4fb00
ff6a1f00
ffbb6100
012e7b78
00a92608
00bc1722
ffd55200
ff9f1e00
00959f1f
002d24b2
011c9ece
0023a49c
ff9b0100
011a67d0
00e771d6
ffb1e300
0040a500
ffac8b00
00acd743
002ec940
ffd7fc00
ffccd700
003b8e66
ff62ea00
0029e6b8
ffaed400
008ff6f3
0098e7b7
ff74d800
000ac5d4
ffa42d00
00354598
fff17f00
005ecd1e
ff8d9a00
ff2cce00
00e1680a
ff7ef000
ffbfb500
00ad0ccf
fffa8100
fefa6200
ffc65900
007e74f4
0034dc72
01537b96
00c54c02
ff250d00
004d5df8
0009d246
ffd72500
01b77fea
0055b968
ff378a00
ff244500
005aa521
ffdc5800
01819d48
0122a802
fffe5000
fef18a00
ff977100
0079cb4a
01a592cc
00984c06
00443506
ffa24f00
fe801200
00431a34
00ee0baf
007030da
005fb2da
007bbfca
ffb27d00
002c0150
007462d0
0018e46e
007933dd
0165112e
00928b86
0055f2bd
ffe1ff00
0017a6e8
00a67694
009e23cf
ffcac300
ffdad200
fffa4600
00473270
00a2a74b
01407526
00557633
ffc96a00
0093dfa5
ffe00f00
00344b29
ffdb1300
005f7d86
00674b11
ffec3300
00a3d618
005f820e
006aa2e6
ff5c1f00
ff9c0200
ffcf4200
002a2911
0001d91a
ffe9e900
ff618b00
003dde7e
000f1df0
00882712
ff686c00
fef51c00
ff9a5900
ffab1500
00c755bd
ffe9b400
ff22e900
fee38000
ffb40900
00f3354f
01e0d408
0067bfc1
ff3a6d00
ff45f200
009190ef
ff9d3300
0103f4aa
01aca868
ff638c00
febf1b00
ffe8df00
ffa3ba00
007994cb
0140c0bc
ff974e00
ffa28e00
ffa78700
008af7d2
004d0cc5
00519a78
ffadeb00
ff809d00
ff994300
004bdb9d
002f763e
008d565a
0066635a
00a2daf6
fec07e00
ffc63c00
ffbb5e00
002c0d7e
00516090
00b67a7f
ffcf1b00
0038e7dc
ff470e00
007f01b2
001bed38
00ecdb82
ff7d3900
ffde9700
ffb64d00
ffdbdd00
ffee4000
004fc833
ffb82c00
ffb92600
001a9974
001b6bc2
000ad700
ffa7d900
006f471e
ffce7f00
0023b315
0024dee1
ff8a5d00
ff598d00
0041767a
ffc55600
0044c486
ff87ac00
000daf02
fff9c100
ff7b6100
0147e284
ffd38600
ffda8200
ff901300
ffd00e00
ff656000
00236bb5
00106248
00b7eee4
0008682d
feb42900
ffa4d900
ffa6e200
0103f4d0
00b409c7
ffbea700
000b392e
004252ac
005dda32
000f3fcf
00db8879
003c1d1a
ffd8b100
ff226500
006a75f3
004acb34
00c3202e
ffa51500
ff4c8b00
ff691200
0024183f
006103fc
00bcfe0e
00c4fc9d
ffdefd00
feda8300
002882a3
ff921900
009fc3bd
00f87ab0
ff137700
ff786400
003e5504
ffdc8600
ffc2f100
00054bf9
ff871400
ff593f00
ff215700
ff4e6800
005baf2e
ffd41900
ff6a6800
fff69c00
002d71ca
ff70f400
00042d22
ffd65000
ffde7600
fffb0a00
000cd6b4
ffbf1700
ff6a4b00
00628630
0051dce8
003747f0
fff19000
ff6b9400
009dc858
0050258c
00e4433f
00d667e3
0032d60e
fe9b6400
ffcdba00
0038fc8f
013548d8
0092811d
ffd5c700
ff864200
009ef102
ff4f8d00
019aaab0
016b04ec
003492ae
00c4d8e0
0063c190
ff8b9e00
00536343
ffa7d200
ff1e4300
0120dd1c
ff853c00
ff834e00
ff08cc00
ff9de400
0026501a
017876fe
0037c86e
00aa69f4
fef08800
0022ad14
00cba1b3
00ee478c
00c56807
0110940c
feba1300
ffa4af00
00e8b8a0
ffc6b400
008070c6
00658584
ff4ea100
003b7541
005dff62
005eebf1
ffe82000
004e0f26
ffc4fa00
ff7a0c00
00046bab
0002370e
ff94fc00
ff35a800
0006b7b6
0007d5cd
fffc5700
0092b56c
005bdcab
ff8b8700
ff50df00
ffde9900
007de3d0
ffa8ea00
ff8c1100
ffcfc200
00f6caeb
00a46288
007f00ca
ff26f000
005cde72
feace500
019d83ee
0007b36f
00305b4e
0027cc66
004d4d4e
fee91800
0201a7ec
00bbae90
feded900
005df2cc
0064a3e2
fe1d1500
011c1d66
01a30a62
fe34ff00
00820318
00487fcc
fefdf300
002479b0
009087b7
fe85c600
00b7eb1e
003e8a7c
ff445a00
ffde3300
fff2fa00
ffae4500
00e91326
00de9edd
fff03600
ff5e9600
fff78c00
00962cde
014dfc44
0044ddce
0052c8f9
ff86c700
ffc5ec00
0014e200
ffd29600
ffa7c900
ff5c3200
ffaab900
0099a24b
0063765c
00921189
000eb892
fff98800
008c4dc4
001aea27
ffe59300
00cc4dec
002a20a6
ff331200
ff79cb00
ff725300
ffa91f00
ffd52500
00150f83
ff855500
007967b6
ffbe4700
001fdfd7
ffc0de00
ffc8fc00
ffe30600
00975d28
00932eaa
006029c0
000dcdeb
002559a0
ff1c1100
00521d36
ffd1d900
ffe34900
00538db4
ff67ad00
fde23700
00b6b5c5
0068186c
ff242000
00c39304
00a35963
fec40b00
ff9d6900
ffd29500
ff740f00
00a01b7b
00e46bba
fec2f400
ffc27600
ffacc500
ff9c9300
00ebd4eb
01327ecc
ff255200
ff90f900
ffe4a000
003ef4be
00b2bfb8
005ed99c
ffda8900
00185d90
ffd59000
ff876f00
ffe33000
fffc2d00
ff57c900
000ccd16
ffcca000
ff1ad900
002f4ad7
ff9f6e00
ffaa6e00
007b6a64
002b6555
ff652400
003425fc
003372f6
ff8e7700
0018583a
ff866500
ff795000
007254dc
007ea326
ffbc7100
0009d75c
ffba9d00
007dbc8e
00947084
003b24d4
005c9e34
ff74a600
002c9e16
fffd0200
ff60ea00
0037abc0
0037df91
00772f36
ff307e00
ff4d4d00
006d0554
004cbfde
ffa41900
000beb00
006845b7
ffa0a600
00966c27
0088f36f
ff5c1a00
fea41000
00216c45
ffacbf00
0108a546
00d23449
001206d7
ff94a300
ffbd6900
0074b1a9
0066ce50
011e4416
00c4fbd4
ff9bd600
fec03200
0052a6dc
ffe09a00
00bb0130
00211994
0083b950
ff20a500
007a1297
ffc2a100
00b1f6f8
009d9279
002ef4f4
ff486700
0001d252
ff7a6a00
ff2d1900
ff473100
00e97a3f
ff883800
ffed8700
ff80ca00
ffc1b600
00196acf
00623b8e
0018ab7c
0066df63
ff7c0e00
ffd19000
003d456c
ff7f1500
ff307400
003d6bd2
0029182e
009734ef
0069a62d
fffa3700
ff8ad000
004ccff0
0018ee0b
0040cde9
ff36da00
ffb53e00
001da3d2
ff814c00
000873e2
ff000700
ff216800
ffc96500
002af806
ff84a300
ffae7f00
ff631400
ff952a00
ff4c3e00
006e4370
fedf9900
fff17100
ffbed500
fffb1800
fee47300
ff5bce00
003f7798
0034708d
00a4edb8
009ada0b
febc6a00
ffd4e800
00c531c1
ff890c00
0011af91
00aa1505
ffdf1700
ffb34000
000c2749
00086c0f
ffdbf600
007cba04
00828d35
ffbd6f00
00da4a3b
ff884300
00667c6f
0004ae0b
008fe200
ff808200
00319900
000a1362
ffb9bb00
003fde4d
00b9f737
ff9aa100
004596e4
0093e5e9
007136ca
007ae208
00461dc4
00305c3a
ffe30900
ffe1e000
002cd8c1
fffcec00
ffda1b00
ffe79f00
ffb37000
ffd94300
ffcab500
ff5e6e00
002e791e
000d77b2
003bf472
ff908e00
00122fea
fff1fc00
0019ce90
000aee95
ffb79600
ffc21400
ffbaa100
ff5cce00
ff719400
004884b8
ff515800
007b0bb6
ffde8a00
006a5e6a
ffdc2a00
ffd84700
ff3b0000
004f0b8e
ffd34300
ff5b8200
0025b54c
002fdc06
fff6da00
ffcc1a00
0042183a
ff610c00
005368ce
fff96e00
006d720e
00465344
ff5b0900
0095a9bd
000eb561
ff538000
003d4808
ffd49e00
0042e0a8
ff598500
ff8e9b00
fffc7800
00130416
ffcced00
ff808700
ffc3e500
006ecc6c
ff9cbb00
ff76fa00
fff04500
fffaf600
ffbd9e00
ff784d00
0012e5e4
ffabdb00
ffda3200
ff85c500
ffeab800
ffd4c200
ffd4ac00
ff148800
004a3105
ff9e1800
ff63f500
fff85000
0062d4c4
ff0ba200
ffa7e500
ffc04700
0085c450
ffe94e00
ffedb900
ff7bec00
0052d2c4
005e29f7
0081b6f4
ffa2d800
ff660100
ffb3a000
ffca5300
ff957400
ffa6f900
ff8ad200
ff503300
002fad8a
0082c9a0
ff632400
0097c491
004f5518
ffb4ab00
ff835000
ffe75200
0042252b
ff663600
fff42700
ff2a6b00
00487960
ff9acf00
ff1caf00
006431cf
00537e74
ff6ec500
ffd92200
ffae7400
0042a0a4
00090f3d
ff6afe00
fee30c00
00b7ae0c
fff16e00
00699988
ffe7e300
feabc900
ffe4b200
0070dbcd
002442c9
ffd24e00
00c3c11d
ff72fa00
00232562
005691bc
0005041c
ffe1cc00
004a13c4
ffbd5100
fffd6a00
0031b7d9
ff95dc00
004641f3
ff9f5500
0080f3a3
fff2bd00
00e94d63
0097462d
003fecb2
008762ab
00639d6e
006a7252
000c557e
ff999d00
ff600f00
00523238
ffb65600
ffdcd900
ffa1f200
00055d13
ff8de100
ffa0b200
002943b2
ff575d00
ff9e8d00
ffef7c00
ff23a000
ff513400
00562d53
ffc23800
ffe93700
ffaa5300
ff890900
005b8bfd
00061fff
002f4168
ff964700
feaf2500
ffe82800
ffb45600
004e4aaa
ff6f5f00
ffeb7800
ff72af00
fff5b900
ffaab600
ffaedd00
ff527500
00575cc6
fef29a00
00cbea86
0131ad3a
ffd30e00
ff925400
01058214
ff8ada00
0152270e
00ebc2d6
ffb8e300
ffad2800
018e039a
00e6cb5b
01444cba
0083739d
ff901400
ff663e00
00f5ae28
00dd380e
00af809e
00df394e
ff685100
ff6fb300
004d3848
00219e78
ffef1b00
ffd86b00
ff8a9b00
ff760500
00e1a4a9
ffe32800
fff99900
ff3e5100
ffabb600
ff2ce700
001de64a
ff7cd600
ff5f6500
ff7c7b00
ff90e400
00730af6
0045e2cc
007946d2
ff702600
0088fdde
00371114
00c25906
00672cc2
ff274300
00176b5a
006487c4
00ea9532
000c445f
002315a0
ff8c2c00
004847e8
0022db0f
0101b45a
009b8158
00296652
ff63a700
ff989700
ff71ba00
001ad583
ffaea800
007bc8ee
fe69b200
00c7289c
009c179b
00f27517
002a3b62
0032fde6
fed6c700
008bb1e6
ffed9f00
0032831e
ff3d6500
fff04500
ff5a1100
0111c11c
0132e584
00694de9
fee96d00
004b2fdb
009b3a7d
0074715a
fffff500
ffc5c000
ffaf2400
0032df17
ffa27600
00526610
01243646
ff597b00
ffa64b00
01205a76
00f13f05
00b305c1
00205807
fec09500
ff67b700
001ee39a
00e4641e
0069ad88
fff14200
ff9b6f00
0074f15a
009e30b7
ffefb500
ff5d0200
ff74f300
0041fea5
ff87dc00
ffa20000
ffa94100
001a8976
ffc6fb00
003c08a1
00ca13b5
00720512
ffa41100
00c72146
ff5e4600
00e1d235
0084b0c3
ffb53000
ffd4f700
ff924a00
ffad2100
0133dd3c
0010ca10
ffb04e00
ff401900
006f5c90
feb1ca00
0123993e
01b5b62a
ffbaf100
006410ac
0094e640
ff800200
00cbc3ab
0068d3f4
fff62700
002f3092
0071b93f
ffcb1600
00fb3e74
ff621000
00274032
ff8dec00
00628ed8
feeaef00
013a20ca
fe2e6300
00c16caf
004eb7f1
00f5ef38
ffc8bf00
ffb3c700
ffd5c800
01e7b7a0
ffc0d700
002bc1b3
ffde3a00
ff713e00
009ba2c1
009207ee
fff09800
00032222
ff9ab600
ff137000
ffa77e00
0017b3a4
00464588
ffc7f700
ffc1b800
ff2cd900
ff87ed00
ffb01e00
00e5d511
003c8ebc
ffe68600
0017bf3a
006a5554
003ffd41
ff573300
ffe4f500
ffc7c500
00437673
006541fa
ffd54e00
ffd54200
fff5be00
ff965500
0198541a
00d2f1f4
ff69d700
0076f369
ffc56000
fec58200
00f2c50e
ffd81b00
ffa4ca00
00b66a44
002e768b
ff067900
ffd59100
00913353
ff663a00
0124ff8a
008ef733
fee37f00
ff9fb900
004e417e
fffb4900
00db44b7
00538e6d
0049b434
fee7b700
ff629700
00924f7a
ff523200
00fabfe9
0046a551
014d6fd6
ff60d800
01f036ba
ff26b200
013b3f20
004227f4
00e055e3
ff523200
010ef36c
ffa2aa00
ff556a00
ff6bcd00
0107f07c
009af2cb
0029e8d2
ffa95c00
0015832a
fe758d00
013e2f00
ffee3800
ff5b5100
0040ad07
00521fe6
febd8f00
0072e12e
001d9819
ffae8d00
fff49700
ffe10600
ff87ab00
ff913000
fffac200
001b42ad
ffee2c00
0019358e
000a40c7
00ca4eb0
ffac2000
0059af22
000047ad
008f31fb
00015e0c
ffc2d500
ff653500
00227176
014f7fc4
ff17df00
fe73e300
ff4dd100
fff16900
feadc600
01d0bbc6
ffbb4300
ff38a900
fee9f300
ffdb0700
ffe1c100
00da155a
008ff4ae
007e2ba8
fdcb5600
fefa7d00
00804904
00068398
0089621c
00d7fa2c
ffc80e00
fe7ba700
018f727c
fefffc00
005c69dc
0010a94d
009630d5
0007f676
001e2788
ff9ab500
fff0bb00
000a57e0
0056b46b
007abb3b
00c6f47d
ff975b00
ff88d900
ff15b400
00a9ca26
00cbe6dd
fff2ed00
ffe83500
feff4700
ff36b200
01609418
00897e4e
fe8e4f00
00b8180a
fef59900
ff959b00
ff2e6400
007d6728
ffad2900
000429f7
00017555
ff59ff00
ff390500
0007e15e
ff500600
001dbf84
003d56ae
ffa99700
ffdd2800
ff7b9d00
ff433800
ff855c00
004583c5
ff805c00
ffec4800
ff9dea00
ffc57f00
001ab619
ff955000
fff50000
ff164a00
ffb74700
ffa38500
01cf2402
ff550e00
007d66b3
fe05dc00
ff8b1900
00298c73
013b6894
00ece40a
00ee538d
fdcfea00
febea500
017ff788
fff69000
00342e76
0142f746
ff44cd00
ffc55700
00f6a782
ff31f900
ffcd5300
003d81c1
01784682
0047444a
feb21000
ff1e7900
ffa56e00
ffb6e300
00789c97
0064e374
ff190b00
ffaea600
ff386b00
fee2e900
012845ec
ffc6da00
ff6a2a00
fff13d00
ff9cf400
ff109300
000ab474
ffae6f00
fed79f00
ffe65700
ffc59900
ffdb5f00
ffb2ec00
ffcd7b00
ffeed500
ffb1e300
ff6c6f00
ff7d1600
ffc9ea00
ffe68a00
ff0b3500
ffffae00
00214580
0058017e
ff9baf00
002bb8e1
ff444000
00198c4e
fff68100
ff199900
ff119700
ff606a00
ffc3cf00
00c5989c
0004c2da
ff628300
ff627a00
fedc9400
ffaa0600
010617ca
0035a6c7
00ccf0cc
fe7ed500
ff7a0500
00139bbb
00740755
007a6702
01436494
fe277800
ff001b00
00990391
ffaedd00
00e430dd
00f3214c
ff288f00
ffe21e00
ff66ff00
fee47500
005fd350
003319fe
ff96e900
ffc93200
febd2300
ff68be00
000defcd
ffb39800
00253735
ffef5d00
ff713600
ff9bc100
ff050300
ff2e3500
002d276c
ff80a200
fece9900
0005f83f
fef5a100
fe818f00
007a7527
ff825800
ff599300
ffdbb900
ffe85400
ff452600
ffdf4f00
0067e940
ff9c5d00
fff7f800
00696a2c
ffcc7f00
fff95100
ff8b4400
00549e8c
0036f2b0
ffee8f00
fff3bf00
ff62fa00
0079f0f0
007e2f1d
ffd12e00
ff31b700
ffcceb00
ff55eb00
000783c5
ff9e8700
00899776
ff5c8e00
008d5b46
ffc53800
0058f488
003da0bb
ffc52400
ff3b5b00
009af78b
0007d5fa
ff89cc00
fff0f800
004d4746
ff890b00
0121702c
ffcb4200
0063571a
006eee14
ff9c0f00
005dd8ae
0078d66c
002c8bca
00580c7b
0039195b
ff9ffc00
ff538d00
008c06f0
001e3ad4
0081988f
ff6b8300
ffc09900
fed69f00
00181a96
000499fa
000c8a7e
ff522400
ffa81d00
fef0cb00
ff047000
0094b519
00a8f50a
ff354900
006f230c
0071be90
ff871300
ff937a00
0054dfb3
ffb8ad00
00233b78
ff6ced00
ffc68200
ff894700
ff95fb00
002294c9
008794d6
ff645300
ffbe1700
ffcb0f00
ffb64200
ff9eff00
ffd54700
ff4c0200
ff843400
ffe3b400
fff89400
00585c20
ff9fc900
00206814
ff818300
ff638200
00af7626
ffcb0900
fffc5800
fffcf000
0062d949
000436ba
fffac200
008ccf10
ffd4ac00
004f49a1
00a93633
ff985000
007b03a5
fff1e500
ffff5d00
004ab53a
00558e62
00c4df28
005e370d
ff65fc00
ff7b5700
0082d387
ffcd4900
00446842
00238763
ffa1f400
00439ac4
ffe69900
ffe58a00
ffdbfb00
012b5830
fee1a500
ffe1ea00
ffc77200
0034b669
ffbb0f00
ffc52100
ff3a8400
ffda2e00
00036aad
ff1e9800
ff21ff00
ffe49200
009f1999
fff55d00
006f0486
ffe46600
ff7dc600
0057c662
0012aae7
00a2c9f6
004a8a5c
0028660e
ffe60300
000f7f1f
00f6a34c
0078d4a3
0060f0fa
0038b59e
ff92fa00
0078a2c2
0078fa0b
ffb38f00
ff9d3600
ff688d00
007460a2
ffd7b200
ff989d00
fffc2000
0038860b
fffba400
0007c587
ffd46f00
fff36600
ffff6700
00a0b247
00141767
00661f22
fffa3100
013c4f18
005f854b
fff11300
0015f6be
0156c564
00904ed8
00e17c06
ff8e5200
0002e8ca
ff5ec000
0061b182
00a4e5aa
ffe6db00
0033892a
ffe3de00
002b8dbd
00975056
0139935a
008edce0
002c27da
ff895300
ff0eed00
0086c248
00c62752
ffd9b800
0090a2d0
ff3afa00
0031a9ff
ff4f7800
00e84c4c
01093320
0103083c
00117db6
ffab3c00
00487262
00828143
00eeb697
00f047c3
ffbb1200
ff3fe200
00faada7
002379d7
0106ea2a
ffef8800
00772448
007391f3
ffc1a100
00508dce
000829c2
ffd3bf00
00aca421
008e8c4e
ff869200
ffed4200
00aac2e7
