00563
ffe7e
ff899
ff753
ffc4f
0072c
ffff2
ff7d4
ff912
ffb0d
00b17
00821
0009e
ffd26
ffaeb
00728
0052d
004be
00318
ffb21
002a4
00201
00469
00526
00418
ffb52
ffdf2
ffdae
ff9be
ffc8a
fffdd
0037d
00608
000ac
00456
00492
002da
00a43
008d2
0028d
000c3
ffdab
000e8
fff73
fff59
ffeeb
ff6c6
ff7e2
ffd10
002f1
00118
ffff7
00be2
00d06
00dc5
00b9d
00cb7
000f9
005b6
006c6
0052e
0027e
ff6ce
ff9dc
ff993
ff910
ff656
ff5f7
ff6ab
ff406
ff761
ff941
ff934
ffa36
ffb3e
ffcac
ffeb9
002ae
ff38e
ff8d7
ffdf5
008ce
00c93
ff58b
ffa3d
001c8
00d52
00639
ff86d
001f8
00995
00d2f
003f9
ffe40
00558
007c3
00844
ffd02
001be
0034e
00854
002ba
ffdcb
ff7f6
ff9df
ff8e5
ffcd9
0011c
004b3
ffca0
ffa78
ffb24
003f8
00934
ff831
ffb5a
ff8a0
006b5
00cb3
ffbb9
ff741
ffa5a
007b8
00ba0
ff733
ff5ae
ffb25
0058e
009b2
000a9
ffffe
ffc29
ff938
ffb50
ffbb8
0052d
000fc
ffbfb
ffc49
ffb4e
005ab
00324
005c1
00481
003b5
0082c
00c70
00baa
008bf
009c0
0073a
007c4
008bc
0080a
00682
fffef
fff48
fff0f
000d9
000a3
0000a
ffec7
fff40
fff1c
ffee0
fff17
00055
0003b
ffeeb
00130
ffedf
fffe5
00114
000ba
000d2
fff14
0005d
000e0
00000
fffaf
00044
0011c
fffd4
ffecc
000d1
fffdf
ffff8
00127
00112
fff64
000ec
fffe8
ffed1
fffa1
fffb6
ffe23
00164
0004e
fffa0
0008f
fffc6
00073
fff91
000ae
fff5a
00016
000cf
fffcf
0006b
ffff6
ffeca
fff0d
00076
00054
000ab
00082
00072
00012
000f3
0009c
000f1
fff81
00116
fffed
ffee1
fff7a
000f5
ffe86
fffb3
fffef
fffd4
000d2
fff11
000d6
00086
fff3d
fff13
fff05
000c4
ffefe
0010e
fffc6
ffeea
fffac
00076
ffe86
fff75
fff31
ffef0
fff44
fff86
000d1
0012c
0009e
000d0
00012
00012
0005c
000a4
ffece
ffef6
fffcc
0006f
fffce
fffa9
000fb
fffaa
fff0e
fff3a
fff75
00187
0003c
fff45
0000e
0003e
0004e
fff4a
00174
ffee3
ffee6
ffed1
fffd4
00140
000c1
fff83
ffee3
ffed6
fffb9
00025
00157
fffad
fff2a
ffffc
001ca
000d4
00035
fff01
ffec6
00012
fff91
000d7
fff77
ffee2
ffec9
0000d
fff19
ffff4
fffae
fff55
ffe82
fffac
fff40
000e0
00076
000fc
ffebd
fff32
fff69
ffe83
ffe94
ffee4
00109
0003d
0008d
fff98
fffd4
ffe05
fff6c
ffe9b
fff03
fffa1
fff54
fffcd
000aa
ffed0
fffa5
001d8
ffedb
fff7f
00074
00129
001f8
00173
fff77
fffb6
fffbf
fff2f
00198
0012a
00001
ffea0
fffae
ffffc
001e4
00125
fff5b
ffe57
fffc0
000b9
fffcc
0012a
fff67
fff5e
fffd9
fff85
00089
001ac
00023
000f7
00050
00014
000fc
00013
0008b
000ee
fffd8
fffdf
ffeb2
ffecb
00109
0006f
fff6c
fff64
fff77
0001f
000c2
ffef3
000f6
0004d
000a3
000ac
000c5
000f0
fff26
000a5
fff89
000db
0001b
fff84
00133
0006d
000d7
fff66
00071
fff84
00098
fff87
00047
00074
00074
ffeae
fffea
fff41
00049
00214
000a6
00052
0018a
fff97
00010
0011a
001e7
fff75
fff0f
000cd
000bd
00199
0012d
0006a
00097
00252
001bd
fffa4
00012
0002b
fff56
0002a
00093
00135
fff9d
fffb2
0003a
00036
fffee
000f2
ffffc
00063
000f8
fff23
00097
00156
fff0a
000ad
000bd
00010
00037
fff85
fff88
fffce
00047
00120
fff2f
fff4c
ffebf
0008b
00121
00070
fffd2
ffeb7
ffedb
fff1c
fffed
0000b
fff1f
fffd9
fff27
ffef9
00011
0005e
fff6a
fff21
fff78
ffcea
0002e
00110
ffe7c
00024
000e3
ffee7
ffedf
00124
ffe6b
0004a
fff6b
ffdfd
00155
0016c
ffe70
001f2
fffc0
ffd0a
fffe4
001c1
00063
00137
fff7e
ffe66
0018f
0025c
001bd
ffff4
ffeb1
fff67
fff2e
0000f
00019
fff40
0012e
00110
fffee
000da
fffb9
fff86
00199
00001
0001e
00214
000a2
fff05
000e3
fff59
00134
fffe8
00211
000ff
00024
ffebf
00226
00089
00079
fff77
ffffb
ffefc
0022e
00065
001ee
fff4c
fff2d
ffdd3
fff6a
ffea6
00097
fffcb
ffe1f
ffefe
ffdd0
00170
ffbda
ffe13
ffe0c
ffd26
00167
00068
ffb8a
00081
fffe1
ffe73
fffe4
0004f
fff68
00044
fff6c
fff3e
00015
00162
0005e
fff8c
0003d
fff2b
001f7
00170
000c7
00033
fff1f
fff5f
fff1f
00074
00279
ffede
fff95
0002a
fff67
0007a
00089
00031
0017a
fff04
00108
ffff1
00050
0010b
00161
ffe9a
0021b
00058
ffffe
000d4
00132
fff4d
00288
0025c
0009d
000b8
fff04
ffdf4
0013e
001b0
fff7c
000d2
ffea5
ffe3b
ffed2
00126
fff72
00053
ffd17
ffe91
ffdf3
001a6
ffc23
ffea1
ffef7
ffe89
001d0
00072
ffe62
ffeea
fff58
ffd6a
000f1
0005c
00059
ffefe
000c7
000a1
0008a
000e9
001b0
0002e
00058
ffed0
002c6
00076
000bd
00071
00140
00048
fffa6
ffeeb
0016b
fff25
000ed
ffef4
000c4
fffb2
0007a
fff16
fffc9
0004c
001cd
0008c
fff73
000ad
0014b
ffe0a
000ec
000bd
0003f
000e9
000ff
ffe7c
0018f
00074
001a3
fff7a
fff52
ffe25
00128
fffa3
fff8f
00097
ffddf
ffd29
fff56
0016f
0003e
0009f
ffe1c
ffda5
fff02
fff4e
ffd1d
fffcb
ffeef
ffe3a
0019f
00024
ffe90
00071
fffa3
fff8d
0002b
0018d
00180
00035
fff7b
0000d
00127
00168
ffedb
fff2b
00106
fff4c
001c7
fffcc
fff54
00006
ffedc
000a0
fffaa
0005e
fffc9
00014
0012b
fff85
0011d
001cd
00089
fffcf
00085
000c5
0019f
000bc
ffeec
fff03
000d6
ffe6c
0006d
00146
fffc5
00047
fffe3
ffda9
0005b
00081
0005c
0007c
fff58
fff42
fffd9
0020d
001b6
0003f
000b9
ffe32
ffee4
fff45
000b7
fff4d
fffdb
fff5e
00044
fff0c
fff73
ffe1d
0010f
fffeb
00099
00080
00030
00033
00079
00068
ffeee
00049
fff33
00063
000f2
00028
0017c
0001a
ffdb3
ffeab
00016
000ad
0018f
fff7f
fff9b
000ad
fff3d
0007e
00059
fffa9
0000f
ffed9
00057
fff02
000a0
fff20
00012
ffffa
00021
fffdb
000b7
fff62
fff26
fffc6
fffde
ffe2a
ffec7
00002
00086
0007c
fffaa
fff9f
00141
00040
00017
00215
000a9
fffae
000a3
000af
ffff0
0000f
fffff
00104
ffde5
00009
00122
00023
fff3a
00090
fffed
ffe6e
001f4
ffe91
0000e
0018a
fff26
ffdda
00050
fff44
fff66
fffc4
00125
fffb1
fff8a
fff50
0002a
fffaf
00072
fff8f
fff7d
000c0
ffea4
00128
fff7f
000d9
fff99
fff72
000e1
000b2
fff1c
ffeb2
fffd4
ffeec
00025
fffee
fffd5
ffff2
ffece
000b6
fff20
000ce
ffff6
00027
0003c
fffb6
000aa
fffd8
fffb2
fff66
fff5f
00029
000d2
00024
fff07
fff5a
fff84
00222
00122
000cb
00138
fffd0
00097
001a5
0002f
0009d
ffe63
ffe30
000da
ffe66
001a2
0012b
fffaf
ffeb5
0015e
0005d
fff35
0007d
fffea
ffe61
ffff6
fff3e
ffee7
0001f
fffe6
ffe68
00028
fff76
fff5d
fff57
0008a
00054
ffdde
fff48
000cb
fff6a
000f5
fff49
fff6e
00121
fff48
00134
fff02
00126
0001e
fffd9
00045
0009d
fff66
000e8
fffa0
fff98
00000
0010c
0013c
00032
fffe5
00055
000ae
00014
ffebb
000c2
0008f
00048
ffef7
0019c
fff35
fff8f
fff32
000ca
000b9
000c2
fffd0
000d7
ffe91
ffe63
fff8c
00148
000f9
fffd7
fff36
ffe8f
fffd4
00070
ffe0e
fff6d
fffea
fff4d
0011e
001d8
ffe63
ffeb7
fff57
ffefa
ffe9d
fff91
ffe7d
fff74
00007
00021
fffc6
00133
fff4c
00099
fffa4
00017
fff09
fffa6
fffa8
fff9d
ffe5c
00087
00148
ffec8
fffec
ffeb8
0011c
00105
ffef9
fff1a
fffd8
fff44
00078
fff12
ffff4
fffac
fffcd
00133
000c4
000cb
fff39
000fb
00054
000f7
fffd8
000c0
fff9f
0006f
000e6
fff7c
fffc2
fff2e
ffed7
00014
fff48
0009c
0009e
ffff0
00099
fffc1
00037
00288
fffd8
fffd2
fff8d
fff1c
00020
00070
00017
00113
fff62
00111
000b5
fff26
fffaf
fff90
ffee6
00086
000ae
fffe9
fffa3
fff43
ffef8
fff38
00075
0004f
fffeb
0003b
fff48
fff5a
fffe6
000f5
fff50
fff9e
ffea7
00049
fff19
00045
fff00
0011c
00100
00105
00074
ffeed
0004d
fff95
ffeef
000b6
fffae
fffc0
0013a
00017
fff9e
fff8c
fffd7
0003c
fff8a
ffefa
00037
000f9
ffed7
00108
00089
00006
000ce
fffc2
00158
000f7
0002b
fff69
fff11
ffdf3
0028a
0018c
ffee8
000bd
00070
ffec7
0027c
00266
ffe80
0002c
ffe07
fffd8
001cd
002c5
ffe36
fff89
00074
ffefb
0009d
00252
ffe6c
fff14
fff12
fffc2
000f4
0002f
fff95
00112
00051
00027
fffab
fff07
fffb5
00165
0000a
ffeb4
00058
0006f
fff79
00033
000ad
00056
0011b
fff76
fffe8
0013f
00000
00143
ffeeb
ffebb
fff2a
00076
000c4
0013e
00067
00103
0004f
ffed3
fffcf
fff19
ffea5
0005c
ffe3d
ffeed
fff4c
fff5f
00059
0011b
fff35
000e4
ffee5
ffcd0
0022b
0010a
fffa9
fff03
ffe99
ffdb1
001d0
00103
ffedd
fff07
ffce6
ffd06
00035
001c1
ffffe
00026
ffdbd
ffe5d
002c7
00226
fff85
ffebc
00057
fffdd
000cd
fff92
fffba
ffef6
fff64
0009e
000ab
fff27
fff56
000d7
fff63
fffd6
00016
00119
00094
00116
0005b
fff21
fffa9
ffeae
fff8b
fff6c
000dc
0001c
ffe9c
00139
fff76
fffc2
ffff3
000a8
ffde0
ffee9
00068
00087
ffea3
000db
00027
fff0a
000f9
fff07
00005
fffa6
ffeb2
fff43
000eb
00012
00013
ffcb4
ffe63
fffc6
ffffb
00018
000c4
ffea0
fff31
00187
003c0
00032
ffda2
ffd3f
00052
00099
00140
fff55
fffe6
ffcc2
fffd4
00123
ffeac
000e2
fff2f
fffca
fff9a
00164
ffe33
00010
00043
00073
ffe55
0001f
ffe03
00021
fff99
fff65
ffe55
0007a
fff62
00144
000d3
00069
0002b
00092
fffb3
fff14
0008b
fff7c
fffdc
fff03
fff74
ffecd
ffeae
00197
fff15
fff32
ffeb1
fff1f
fff28
ffeff
00058
ffefd
fff7e
fff06
fffe9
000b6
000a7
00018
ffe8c
fff93
0012f
00050
00122
000e2
0019d
ffe0a
0012e
fffd4
00261
003d0
00295
fffbf
ffea1
ffd00
fff31
0001c
00197
fff46
ffdce
ffd67
000b8
000c8
fff39
fffc2
fff08
00024
fffe2
000cf
ffe7f
ffeb1
ffe5e
00072
ffecb
ffff7
0003f
fffac
fff28
fff2c
fffbf
ffffd
fff89
fff42
fff2e
fff3e
000e0
000d4
000db
fff1a
fff1d
00029
00095
00097
fff57
000d6
00090
fff25
00018
fffc4
0012a
00048
fff3c
0002c
fffdc
fffb6
fffa3
ffed9
fffc2
ffff0
00113
00134
ffe10
ffdda
fffc8
ffef8
0039f
00128
fff88
00027
fff4a
ffead
0010a
00162
000b7
00078
fff5f
ffd82
00189
00168
00035
ffe8d
fff01
ffeb9
fff36
00014
ffed9
0002f
000ce
ffe91
000be
00044
ffe00
fff00
fff6e
0013e
000b6
ffec0
ffe57
fffe0
000ef
00097
000df
00054
fffba
0003e
00063
fffd7
fff4e
ffffb
0007d
0009b
fff88
ffed1
ffffa
000c6
00049
fff3c
fffb9
000fa
00048
0011f
ffff8
000db
fffda
00169
fff9b
00106
ffe45
fff8e
fff43
ffecc
0011e
0011c
ffe50
ffe0e
00007
ffea3
002eb
0027d
ffdd6
ffef6
00027
ffd74
0012b
000bb
00235
00124
ffebc
ffec9
00123
ffef8
fff5f
fff51
ffdd0
0006f
ffd74
fff69
ffc83
00075
ffe47
fff6d
fffe1
00071
ffd33
000d1
00114
0007a
000f0
000a2
000b2
fffd3
fff2a
fffb4
0009e
00062
fff47
00005
00030
0005a
fff99
ffe8f
ffe7b
00003
fff44
fff54
0000a
ffe3e
ffdca
fff21
fffb7
000c0
ffeb0
00004
ffeaf
ffef2
00009
0007f
000cb
00048
ffe3f
00085
fffdf
fff7c
fffa6
0005c
ffd97
ffe1b
000e8
ffe40
001ee
00252
0000c
00055
ffe8a
fffca
ffeba
00265
001c6
00176
ffdc1
0001c
ffdf9
ffe98
ffe75
00007
fff85
ffe69
fff99
0004a
fff66
00074
ffed1
00014
00045
fff76
00007
00091
fff93
00101
000cf
fff3a
000fb
fff38
00033
000e3
fff33
00148
fff9b
fff50
fff85
ffeeb
fff5f
000be
fff59
ffed6
fff8a
000e4
00003
00119
fff39
000c3
fff31
00030
00199
00056
fff44
ffea5
ffe74
0009b
000da
ffedd
001ec
000d7
fffcc
fffe1
0000e
fff5d
fff71
fffa3
00035
ffeab
001a2
00250
00114
00133
ffdd3
ffeb4
ffdf3
fffe0
000f7
000c6
ffe8b
00036
ffe02
00006
0013f
00038
000dd
ffea3
00140
000c6
0022a
001af
0004f
fff00
fff00
fff84
002ea
fff4a
0019b
ffff1
0007f
0014e
00112
000bc
000f9
00099
00021
fffea
ffff0
000cb
fff09
00107
ffffe
fff3e
000cf
00006
001e8
fffe8
001c0
00046
0024b
ffed2
0014b
fff3b
000f5
00076
00226
ffe6c
fffc8
000e7
001a5
0009b
fffa1
fffb2
001ce
ffe26
000a0
fffb7
fff29
000a4
0004c
ffe0b
ffefd
001f9
ffd0f
001e0
ffdc9
ffeb1
00037
001b0
ffe70
ffec5
0017a
ffff5
ffe3a
fff39
00172
0013d
00046
fffb5
000f2
fff18
00081
00157
00045
000cb
fff1f
fff62
00040
fffc1
00058
fff80
fff79
fffda
000de
00067
0003b
fffc4
0006d
0013b
0012d
00001
000cb
00177
001d8
0016b
fff6b
fff1b
0014b
0014c
000a3
fffc2
00063
fffa4
00063
0008d
fffaf
fffea
00025
00113
fff9b
0002d
0001f
001a9
fffc4
00036
fffbf
00089
000a7
001d4
ffddd
000c7
fff25
ffe2e
00016
00254
fffd7
000e2
fff56
00043
00027
000d1
000b3
fffaa
0005e
00166
00007
0020f
000aa
00095
00122
0011d
fffce
0010a
00081
000b0
fffb8
001b7
00067
fffb3
fff9f
fff2d
0007b
fff52
fff34
0013a
00129
fff94
fffe4
fff3b
000bf
fffd7
000e7
00145
fffb3
000c8
fff60
fff25
00050
ffed5
000de
000f3
00060
0011e
000a5
0003e
00079
00025
fffd8
0003e
ffed2
00007
000a5
000af
0007c
00081
fff2b
000c6
00016
000cc
ffe96
fff64
fffd7
00053
fffbe
ffeda
ffee8
fffc2
ffe88
0003b
fffa0
fffdd
ffe21
00090
ffecd
00113
ffe79
00028
00016
000c7
ffe0c
00049
fff01
00052
fff66
00127
0007e
000b7
fffb1
000da
fff1d
fff97
ffff4
00122
00021
0012a
ffef0
000b4
fff47
fff7c
00090
fff29
00058
0003c
ffecb
00070
fff6c
00117
000ad
000eb
ffef3
00053
fff20
00147
000e6
ffff8
fff76
fff3f
00036
fff60
ffeb9
0016e
fff41
fff52
0009b
000bb
000a3
fffa2
00138
00195
00079
fff91
000a0
fff34
00168
000bd
0017e
00094
ffea4
fff9f
0010b
00015
0003f
fff5a
ffe6b
000bf
001a7
fffee
0016a
0002a
fff19
fff4a
0015c
000aa
ffea9
ffffd
00084
ffdd3
0003f
fff5c
ffe81
00038
000df
0008c
00084
000f3
ffeef
ffed6
fff6b
000e7
fff8a
ffee7
fff55
fffed
00127
fff8a
ffeb3
ffed0
00042
fff22
fff19
fff21
fffab
fff53
000ec
fff73
00024
ffeb3
ffed6
fffd5
0001a
00125
000ce
00066
00035
fff2a
0003b
00121
fff28
ffff6
ffff7
fffc6
00039
0009c
ffeca
ffff7
ffe5a
00090
00189
00128
fff5f
ffed7
000db
00019
fffbb
001c1
ffe40
00016
fff93
001bc
000ef
ffed1
ffdde
fff95
fff81
00269
00244
00085
ffde4
ffe2e
001e2
0022e
00004
fff5f
fffb2
0000e
fff8e
00024
0000d
0011c
ffec9
0006a
fff9c
000a5
0001d
000ed
fff41
0001f
ffffb
fff94
00112
fff43
fff54
00048
00073
fff78
ffff9
00027
00099
ffee9
000b7
fffa2
00082
fffda
ffdf7
ffdd8
fff5b
000ff
fff2c
00299
00067
fff82
00087
000c0
fffec
00115
fff43
fffed
00106
001d3
fff36
001b5
fffd5
fff3f
00254
00070
00191
fffe0
fff23
000b7
0003a
fff92
00154
00054
ffde1
000af
0007e
ffeee
fff71
fff39
ffc4d
000c7
fff7f
000c2
00160
00023
ffed4
0015a
fff73
000fe
fff3b
ffffe
ffe48
00161
00071
0013c
ffe37
fff38
00029
00058
ffe98
fff7e
00020
fff93
ffed0
ffeeb
fff16
fffbd
ffff2
000b5
fff4d
ffd7b
fff3a
0015d
ffffb
001fa
fff14
ffd92
fffa0
fffd0
0000b
00345
0009a
ffe4a
fff43
ffe36
fff7c
00173
ffef7
ffe5b
fff54
fff53
0005f
00181
00047
fff5c
fffc4
0024b
00032
00160
ffffd
0023a
ffeb2
000ba
000fa
fffed
ffe9a
00056
fffc1
00115
00016
ffe39
ffe7a
00219
0007c
00059
fff36
fff09
fff52
0018c
fff71
fff09
ffeca
ffe02
ffef8
ffff0
fff42
fffa4
fff71
fffe4
ffe6c
fffd6
0009b
fffef
0009f
00124
ffe8f
fffef
fff49
00167
ffff3
0008b
ffcd5
ffed2
ffe07
fff4c
fff33
00122
ffcde
ffd6c
ffff3
fff6e
fff5c
002c7
ffdd0
ffdba
fff40
fff53
fffb9
001c7
ffe27
ffdc6
fff0e
fffe8
000b0
00289
ffdae
ffe10
fffcd
ffed5
fff33
000c2
ffff4
00059
ffff3
000aa
fff60
ffede
fff4c
00349
ffdd1
fff8d
fff67
fff88
0008b
001d7
ffe23
00031
fff04
ffd54
000f6
00141
ffe6c
00085
fff48
fffc0
fffd5
0007d
fff0f
fff9d
00062
fff33
fffa4
000c0
00011
00127
fff1e
00148
0000c
00066
ffe97
001c5
ffeff
002a2
ffdaa
fffa7
fffc1
00067
fff06
004a9
ffebb
ffeaf
00218
ffcf0
fff04
004cd
ffeaa
ffe1f
00216
fffb6
000a7
0028c
fff3d
ffcef
0014d
ffed3
0002c
00385
ffed3
ffea9
000a1
00096
fff67
000c6
fffe3
00101
00031
fffe8
fff7e
000bc
000a3
00073
ffe37
fff20
ffe6a
ffdb5
00220
001ec
ffd93
ffffd
fffec
fffe8
00002
ffff7
ffe9e
fff6f
00050
fff6f
00233
ffffa
fff7a
fff65
fff67
00120
00098
00067
0018e
00120
00082
00042
000c8
00085
001cb
0001e
fffbc
00028
0002f
00057
000e7
ffeeb
fff8b
0019f
fffde
fff3a
00183
ffdcf
fffb4
003ce
000ed
ffdd3
00051
ffd20
fffd4
00107
00313
fffb5
00080
ffd68
00073
001ca
00221
fff73
0013a
0004f
0001a
fffff
0010a
00125
0010b
ffdc3
fffb5
fff43
00116
fff00
ffe81
ffddf
ffd64
fff7c
000f5
fff31
ffec4
00049
ffecc
0013a
00134
ffe3c
00075
ffeee
fff6d
0005c
00091
ffeb8
001da
0002d
0004d
00104
002f4
00139
002bd
fffd5
000e3
fff99
fffe1
fff5e
0024c
0000e
0014e
0001f
000a9
0013a
00097
fff3e
0016d
fff4f
002ef
000a5
000f9
ffd42
0003f
fff10
001cb
fffe8
00074
ffcd7
fff31
ffefe
00314
fff1e
0012b
fff1d
fff1c
00154
00126
0007d
fffaf
00026
ffec1
00134
00168
fffca
fff8d
ffeaf
fff8a
0008b
00128
ffe14
ffe50
ffea0
ffef0
000a4
000ec
ffd00
00068
ffe6b
fffc8
00184
ffdfc
ffd11
0010b
ffff0
000bc
00329
fff77
fff8c
00011
fffbc
0011a
002e8
002c1
0001a
001c4
ffee5
fff9b
ffff8
001e4
000da
001db
fff35
0001e
fff8f
001cf
00117
00192
ffecd
000dc
fff6d
001cf
00021
fff94
ffe25
000bb
ffe2c
00377
fff73
fffce
ffe59
0000d
00033
00363
000d2
00037
ffef6
fff84
0012d
00177
fff55
fffe3
ffeff
0000b
00149
ffee8
fff7b
000e7
fffaf
000df
001cc
fffec
fff23
000c8
fff90
fff8f
001d9
ffd87
ffe14
0031c
000bb
00164
00481
ffd4c
ffef1
00261
0019b
0029a
002ae
fff2f
ffefc
0016c
fff5d
00115
00092
001ab
00047
00126
ffedd
00128
fff64
001bd
000ac
0008e
ffff4
0005a
0010c
0005b
000a2
fffc0
ffee0
000bd
ffe69
000cf
000d7
000b0
ffeb6
0005e
fff54
00172
fff91
000e0
fffb2
fff97
fff41
0014d
ffee1
00002
fff8c
000a3
00092
fffe2
ffe90
000e1
000da
fffaf
001cf
ffef4
ffe34
fff59
001e5
00151
00214
ffeb1
ffe24
0024d
001df
001f0
0031b
ffce5
ffe0a
002ce
0015d
0017d
002ec
ffde2
00089
00178
0013c
00231
002e4
ffeaf
0000b
00234
00059
ffff0
000cd
00198
0002e
fffec
00084
fffd6
0016b
fffa9
00039
ffec0
00075
fff2d
ffed2
00081
0007d
ffeeb
fff6d
00036
ffe36
fffa9
00038
fffb2
0010c
ffedf
fff2d
fff53
000a0
fffd3
fff71
fffe1
fff48
00093
fffd7
fff7d
ffe3d
000e0
00038
0004c
fff05
00193
000e6
0010d
001d5
ffe48
ffdd1
0004a
0013e
00029
000e5
ffedf
ffe8a
00328
00156
000b6
00221
fff14
0000d
0016f
0018c
000b0
001f4
ffe00
fff98
002b0
000b4
00030
ffff0
00043
fff92
0010c
000fc
00121
00152
fff91
fffee
000af
fff74
00057
0015f
fffdd
00074
ffed4
ffed6
ffe19
00151
fff73
fff7b
0003b
00113
ffeff
fff2c
fff15
ffe44
ffdd8
fffb4
fff15
00075
ffefa
ffff2
ffd0b
ffe9e
000b2
0002b
ffebd
00031
ffefb
ffe33
000c9
fff37
ffdbc
ffe50
ffe73
fffa3
fffab
fffba
fff2a
ffeb1
00012
fffbc
fffba
00106
00019
ffe40
0013c
fffaf
0012a
00119
00022
ffeb2
fffb6
0009c
00061
00135
fffc6
fff97
0011a
0001c
ffffc
000fd
fff11
ffecd
fff76
000ee
fff88
0008a
00105
00156
00055
0006c
fffa3
fff8b
ffebf
ffeef
000fb
fff4a
00017
fffa8
00041
fff79
001bb
fff33
ffffa
fffaf
fffcd
0001c
0016e
00070
0002c
ffeaa
fff75
00056
00156
0004b
fffc8
fffd3
000b1
00074
00148
fff23
000fa
00062
0015d
fff4d
0010e
fff89
000eb
ffe7b
001a6
000b5
000cf
00172
00070
ffeea
0012f
ffe55
001f9
fffe3
fff3c
ffe8a
000df
00025
000f0
00149
000cd
ffe8e
fff17
ffec9
001aa
000c3
fff64
0004b
fff06
fffc8
0009b
000ac
000e6
ffe9b
0012a
0013f
0000c
fff51
00172
fff00
fff5a
fff2e
fff4b
000ac
000aa
fff38
fff9d
00084
fffe5
fff50
00028
00036
fff0f
fffce
ffeed
000e6
0014d
fff0c
fff41
00045
fffb5
000f0
000e2
00182
ffe41
fff97
00203
00151
0016a
00107
ffe84
fff8a
00185
001af
00208
001b8
00049
0008c
00134
fff7f
0001e
ffff2
ffe91
0007d
001a4
001fb
000c3
fff85
ffe64
ffecf
00019
00082
ffece
fff21
ffff5
fff83
00013
0009e
0009a
000e2
fff4d
00039
0007c
000ea
fff91
ffed9
fffd5
fffa6
00036
000c4
fff1c
00128
fff8c
00037
fff79
fff61
000ec
00060
00021
fffee
00128
fff1c
000e2
000e7
ffd66
ffe1d
00090
0007c
ffeec
00216
ffe4b
fff24
0001e
0012b
00013
001d8
ffe2d
ffd75
00171
00236
00242
001fe
fff7f
ffea6
00151
00067
0005f
fff9d
fff9e
ffef7
00143
00077
00149
ffe8d
fff0e
00034
000cc
00040
000e6
ffd9d
0009c
0009d
fffd5
001b6
ffeb3
ffd28
ffe42
001b3
fffcd
fff11
fff6e
00019
0003a
00013
00054
fffb8
ffe32
fffdf
00038
00039
ffddc
0010d
fffc2
fff02
00136
fff82
0004b
000cf
fffa5
00147
ffeb6
ffe7b
fffca
00129
fff99
001d7
ffe64
ffde6
0013d
ffe48
fff81
0028e
ffde3
ffc89
fff29
ffceb
0001b
002aa
ffd8a
ffb70
fffb0
ffd48
0017e
0027a
00148
ffcc8
0014d
fff0e
0008c
000eb
fffb7
fffaf
fff50
fff0a
fff91
fff57
0010d
fff03
fff7e
0001f
ffe6a
ffe3e
00017
000c9
fff77
000c3
ffe96
ffdd1
00216
0018e
fff89
fffb2
ffed0
fff0a
00084
fffec
fffed
fffe7
0005c
ffee7
fffe7
00119
fffc2
0012c
00042
fff42
0012a
fff3e
fff3b
00123
0012d
00136
ffe8f
fff43
fffab
00078
000f4
002da
ffe6e
0006b
fff16
ffd8b
0010a
002a7
fff3e
ffd6a
fff3e
ffbfb
0000d
003e4
000a7
ffe21
ffeec
ffbb0
00127
002d7
00037
ffc4b
fffee
ffdae
fff8f
0021c
0020a
ffe34
00203
00044
fff49
000e5
00163
ffe46
00148
fff83
000c6
fff1f
00273
fff55
fff9b
ffeb9
ffe46
ffefa
0013c
ffe60
ffe67
0002e
ffe60
fffa6
00052
fffc2
ffefb
fffdf
fff15
00022
000b1
000b2
ffde1
000b3
ffe6c
00135
fffa0
00097
0005f
0001c
ffff4
00124
ffece
fff32
fff08
ffe38
fffa5
001af
fff60
00081
fff89
ffeb9
0002f
00142
00176
0010f
ffe2c
ffe0e
000d6
0032a
000a1
00085
ffeb3
ffcbd
000a9
002b8
002fa
ffe62
0009b
fff6a
fffe0
0029d
000fb
ffd4e
00276
ffff8
fffe3
0014b
00033
ffca5
00223
ffebf
ffffd
00176
000a4
ffe8f
000b3
000ee
fff85
0020b
fff9a
fff06
fff28
ffe81
ffea9
00174
ffe1a
0004f
fff5a
0006e
ffee5
0000a
000de
00012
fffcd
fff5b
fff49
00004
0002f
ffec3
000cb
fff59
00051
0015b
fff0c
fff35
000a8
000eb
fffd0
0008e
fff07
ffe9e
fff24
fff75
000ce
000e7
fffa3
fff4e
ffcdd
fff7c
fffa8
0022a
ffe62
00096
fffb1
ffe83
fff7b
001bb
000f4
ffe3c
00019
00171
00140
00109
ffeb6
ffd36
00207
00046
00211
00241
fff5b
ffe05
00090
0017e
0013a
00251
ffdc2
ffeb0
fffef
00226
fff9e
fffb0
fff45
00047
00223
0004a
000bf
fff8e
fff02
fffec
fff9d
fff6f
00038
fff59
fff5e
fff89
0009a
fffae
0005a
fff1c
00014
ffeef
0014c
0018d
fff49
fff5f
ffdd9
ffec1
fffa4
00105
00067
0004f
ffd87
ffe79
fff48
00146
000db
0025f
ffd66
fff19
fff66
000f5
000ce
00045
ffbd0
ffd42
00047
0014f
001b1
00227
ffeaa
ffe30
0029b
00120
fffd0
002ae
ffe9c
fff3a
0036d
fff7e
001bf
000d6
ffef9
ffe9c
001a8
fffe4
000a5
0001b
fff1c
000bf
00173
000bb
0003f
fff74
fff76
0007a
000b9
fff09
fff9a
fff6b
ffee9
ffff2
fffce
00165
fff8f
ffe6e
00087
00031
fff1a
00065
000ec
fffa2
fffde
0011a
000f9
00072
00178
00038
ffe57
fff3a
001ca
000b5
fff91
00173
ffd28
fff60
00147
000a6
ffefb
00112
ffc14
ffc83
000b4
001bc
00081
002d0
ffd07
ffe15
fff46
ffffe
fffa4
00196
ffd7f
ffd04
00097
00077
00056
001b7
fff0b
ffd2d
0029c
fffd1
000cb
00027
0009c
ffe83
000f3
00028
0014a
ffea5
ffff1
0010f
fff87
00078
00036
ffdd0
000be
0015c
ffdcd
fffc1
ffe53
ffe11
00102
00078
fffea
00102
ffeab
ffff9
00086
000a8
fff31
00069
000b8
ffeee
fffa3
fff8d
0003d
001a1
fff46
000a0
fff0c
0008c
00056
fffb8
00147
001c5
ffe4c
ffe9b
00120
fff78
000ce
0016e
ffd1a
ffdd8
0018e
0000c
ffe76
0021f
ffe07
ffd7f
00290
ffd0c
fffbf
00225
ffd6e
ffd72
00168
fff34
00028
0010e
00051
ffe3e
00111
fff8c
fff86
00154
001cb
000e7
000b4
fff21
ffeab
fff2a
00017
ffffe
ffee5
fff86
fffc3
ffe8f
0013d
fff34
00044
fff38
ffedc
fff67
000fc
fffbd
ffe52
fff98
fff27
00046
000c7
000f7
fff50
fffe0
00071
00030
0011c
00028
000ca
000e9
00132
ffe90
fff5f
00129
00135
001aa
00032
00167
ffed5
ffefc
00211
fff7c
fff5d
0021b
fffbb
00096
00281
ffe65
0019d
0021b
fff24
ffe1a
002b0
ffe25
000ab
00286
0017c
ffe9c
0018c
ffde4
fff48
00280
0012f
ffeb0
000e4
fff64
fff62
00097
001e1
000d0
0008d
ffe99
0003d
fffbd
00186
fff52
0009e
ffecc
fff92
fff0c
00069
0001b
fffdf
fff78
000b4
fff2a
0012f
00125
ffe55
ffefe
fff7e
ffe8d
0005e
00030
fff68
ffec0
fffaf
ffebb
00064
fff05
000a6
ffed7
00083
fff36
fff23
0009e
00116
fff23
001da
ffed7
fff95
fff3c
002cf
000a6
0015f
fffde
00123
fff50
0035d
fff9a
00123
fffea
000ec
fffd0
003be
ffe7f
00108
000d9
0018b
fff44
00255
0001f
0017c
0001c
000a6
fff6f
001a5
00014
0000c
ffed5
00253
00072
fff48
00040
00080
ffeac
0011c
fff7f
fff50
00117
fffa5
fffdd
00137
0002b
0003d
0012a
fffff
000d4
00045
fff14
00034
ffefe
00063
ffefb
fff8e
fff8a
fff56
fff28
00033
00043
0003b
ffec9
00144
000cb
fffb2
000f8
000b5
fff2d
000ac
00115
000d2
0011f
fff6f
fffb0
00034
fff1f
0006e
0006b
ffe24
ffeef
fff85
000ca
fffa7
fff04
ffef1
000a6
fff0f
000f6
0007e
00075
ffe19
00104
ffe09
fffef
000df
000ad
ffdec
fff24
fff0e
ffed4
fff22
fffc5
000a1
0007c
ffee6
ffe78
000aa
0001b
ffea5
fff9e
ffebc
000c8
fff73
fff19
fff79
000d0
00034
fffff
00048
0008e
0015f
00155
0010b
fff10
fff33
ffede
000a0
00097
000ec
ffef5
fffa6
000a8
fffbf
fff17
ffeeb
fff2b
fff2a
0009a
00000
ffefd
000b3
ffef6
00037
0005c
fffa0
00157
000e2
fff7d
00105
00061
0006b
fffe6
00125
00191
00081
ffea9
ffe54
0018b
fffd4
00136
fffef
00053
00052
001ee
ffea0
00014
ffe9d
ffe28
00168
0027d
ffdc1
00091
fff60
fff8b
0003f
002e7
ffe05
fffee
0002b
0001f
000c4
00316
ffe5b
00091
fff98
000db
fffa5
000d3
ffdf8
00120
fffea
00099
ffff6
00058
0017e
00161
fff8f
ffecb
00062
fff7e
001c3
00079
ffecd
00111
000ba
fff93
00091
fff00
0013f
ffe82
001ab
fff24
00167
00024
00100
ffed9
fff7d
001e4
0008d
fffff
0002b
ffeb3
fffbc
0015f
0009c
fffb4
00013
ffe56
002c1
00406
fff66
00085
ffebb
ffe51
002c4
004ea
ffdd5
fffa2
ffe39
ffcc2
00263
0041e
ffc7b
fff87
ffc85
ffe41
002c7
00354
ffd47
fff7a
ffe70
ffed2
00079
002e8
fff01
ffe18
ffe6c
00051
0020c
0032f
fffe3
fffdb
fffac
fff9e
00221
fffb2
fffb4
fff1a
000c4
000ef
000e3
00086
00192
fffe6
000cc
ffe9e
000da
00011
ffeb7
fff01
000d4
ffebd
0004d
00016
ffe99
00101
fffd9
000af
00078
00081
00116
00047
ffe98
ffe35
001b6
001bb
fffe7
00115
fff40
ffc72
00102
002bc
0008c
0017c
ffde0
ffc36
001d1
00263
ffea3
00041
fff4e
ff956
00413
003ae
ffd03
000fd
fffac
ffb62
00403
00369
ffd50
fff74
ffe5e
ffcdc
002c3
00476
0002b
0008f
ffea5
ffdbe
001b8
00174
ffdc1
fff55
000f8
00069
0021a
ffeed
fff5a
000b3
00116
fff23
000be
00120
ffeb1
fff4a
fff45
fff5a
fff51
000a0
0002d
00044
fff76
ffefd
000a7
0003f
fff82
fff6e
ffee8
ffdde
0008a
000f2
00002
ffffb
00101
fff47
000bc
002d5
00241
001f4
0007e
ffd53
002ba
0034c
001a3
fff53
fffa5
ffd70
00144
fffc7
fffbc
00093
ffe53
ffcd8
00183
00132
ffc4f
fff13
fff77
ffd9a
0015e
001f0
ffdc3
00157
fff0f
ffdd4
000ec
00290
00105
00050
ffe60
fff3f
0012d
fff29
ffef6
ffec2
fffe8
fff8e
000b4
fffe0
fff94
ffef9
0008c
fffe0
0008a
ffee9
fffa3
0012d
ffefe
ffe9e
fffe6
fff96
00107
00084
0014d
ffedf
00108
fff8b
00049
000f6
000b3
fff0d
00263
fff1c
00064
00131
00118
ffef8
0017e
fffcc
000bc
000a3
ffed0
ffdd8
00087
000b3
0013f
001f9
fff0a
ffe06
fff5a
fff5b
0010d
00100
fff71
ffc75
fff0a
001d5
ffed8
00090
000ad
ffe09
00049
0005c
fffe7
00213
0003c
ffe46
00127
00148
00167
00097
000da
ffe9e
0006a
fffe0
fff6b
00007
fffa2
000a3
fff72
ffe98
000e0
fff82
000e7
000fd
0004b
00121
fff91
ffec1
fffa4
ffe8d
fff0d
ffff6
000ea
0000a
0006b
fff40
fffc4
00059
000fd
00136
0004f
0009c
000a3
00097
00268
000f3
ffeed
00054
fff53
ffe36
0002b
0012f
fff83
00031
fff95
fffe7
00085
fff50
fff2c
00186
ffe52
ffec4
0015b
ffe45
00091
fff30
0005c
0002d
00106
00072
000f1
000ca
00034
000b6
0013c
00065
fff66
00089
000d9
0005d
001dd
ffe5a
00063
001ae
00132
00153
00077
fffc2
ffef4
0001a
fff1f
ffea7
fffe8
ffed7
fff3f
00125
fffa8
ffed3
fffa3
fff4c
fff85
0001e
fff3c
000b1
fff49
00014
fff0a
00038
ffef1
fff73
fff94
ffec8
fff85
000a9
000cb
000ba
00029
00109
000e6
0019c
ffeb8
ffeb3
fff75
00005
ffea8
000fc
fff61
fff95
fff90
fffb3
00148
0010b
ffef1
fffc9
00168
ffefd
00229
00120
002f4
fff65
000ff
00154
000bb
00105
00018
000ac
ffffc
fff75
000ec
ffff1
00068
0003d
000fc
fffbe
00154
000bb
0004c
00079
0013e
0009e
0005b
00087
fffd7
fffda
0011b
fff15
00105
fff5f
fffda
000cd
fffa4
fff9c
fff55
fffa3
00094
fff76
fff96
fff9c
fffad
000dd
0006d
ffeba
ffe7a
fff18
fff96
0003e
000be
ffefa
ffecc
fffba
fff55
0007b
ffff2
00076
00034
ffffd
fffe2
ffe48
fffd5
000a8
ffe6f
00086
0008a
fff75
fffd0
fffa3
ffe0e
0000e
00169
fffae
000aa
001a6
000d1
fff70
00105
fffda
fffbc
00016
fffd1
fff7c
0000b
0001f
ffe75
00003
fffb3
fff09
0012e
fffff
0001d
fff7c
fff30
000d4
fff0d
00143
fff64
ffeb5
fff62
fffce
ffffe
00117
ffea7
00062
0001e
ffecb
00132
0008b
ffed1
fff1f
0002e
0009e
00057
00147
000ac
00078
000b1
0000e
fff17
00048
00106
fff15
fff26
ffdf3
ffea7
0004e
00084
00167
ffe3f
fff47
ffe1e
fff61
000fd
000c1
ffe5a
fffdf
fffb9
ffea5
00091
0020e
ffcc8
fff9c
fff0c
fffb9
fffbf
00103
ffeb0
00060
fffba
ffec3
ffe60
000e3
fff44
0006a
fff23
000e5
fff01
0005a
0005c
00037
fff7b
000c5
fffb9
fff95
000af
000b9
fff6b
00097
fff8e
fff5b
001e1
fffac
000c4
0003f
000db
00115
fffb9
00112
fffd7
fff84
ffee0
fff0c
fffd3
fffa9
fffd7
ffeea
ffe56
ffecf
ffe96
ffef3
fffc1
000ce
fffbf
000ab
000c2
000c0
0004b
00017
00030
001b0
fff24
000ad
00023
fffa8
00171
00038
ffeb0
ffff5
00046
ffd91
0012f
000e7
ffffc
001f3
ffe1c
ffe08
ffff6
002f9
ffe8a
000d5
ffe05
fff28
fff20
002a9
fff92
ffff9
00106
fffaf
0016b
000b6
fff90
000ba
000c4
ffefc
fff42
fff49
0017f
fffef
000ba
000b8
000d2
fff44
00074
0003a
0006c
000da
fffb1
fffb0
000ba
fff4c
fffcb
ffeef
ffe9a
000aa
00081
00023
fff2d
00058
ffff5
ffee0
0010f
000ce
00012
0010a
00127
ffffe
ffe57
00153
00125
00098
0007c
fff31
ffe99
fff6b
0003d
fff32
0005b
ffed9
ffe97
000b8
ffee7
fff28
ffed0
00007
ffe1d
0018a
fff6b
fffe6
000d1
fff10
ffd69
0016a
000cd
fff75
fff31
fff16
fff27
00138
ffffc
00070
000a9
fffca
ffece
fffd2
fffc1
00026
00080
00003
fff55
fffa3
0016c
fffe6
fffd4
fff4f
fffcc
ffed9
00053
fffd0
fffd8
00110
0010d
fffe4
fff52
fff39
fff7d
fff3a
00039
00134
0008c
fffda
ffeb0
0011f
ffe37
fff23
0011d
00124
000a9
fff50
ffe76
ffff2
ffed6
000ea
ffff5
fff2d
fff8b
fffdc
00018
00116
0007a
fff36
fff97
000bd
fff85
fffd7
fff10
ffe1f
ffeef
000cf
00052
000b3
00147
000c4
fff97
fffea
00076
00021
00124
0015a
001c4
000aa
0008f
fff95
001a2
fffb7
00203
fff0d
fff34
00089
00038
000c6
fff39
fff9f
000c2
ffed8
00020
0013a
00057
fff32
fffcd
000cd
0002b
000c7
001ff
ffe98
ffeef
fff33
fff9b
fffff
fffbe
fff8d
ffe6c
0012e
000ec
00131
0008a
fffa1
00100
00140
000ad
000d1
00015
00017
00101
00050
0016e
00083
000c3
00184
000d2
fff89
0012e
fffdb
0007f
ffebe
fff1c
fff36
ffea0
fffa3
ffeb2
fff65
ffff3
000cb
001fe
fff2e
fffdd
fffef
fff2a
000dc
000c4
fff49
00067
fffcc
00036
001a3
00021
ffd96
fff60
ffef7
fff0e
0001b
000b6
000c6
ffe38
fffa6
fff93
fff7d
fffdd
fff56
ffe30
00017
00138
00189
0005c
00009
0000f
ffeb3
ffedf
fffd4
fff03
00012
ffe3e
fff37
0004a
00078
0002e
000ce
00097
ffeb2
fffb8
ffddf
00155
00011
fffbb
00151
00190
ffe17
000ef
ffff4
fff85
00078
000cd
ffe64
001bb
fff95
ffe9a
ffff9
ffffd
fff77
fff1a
fff5d
fff40
00021
fff3a
0012a
fff24
ffe4a
000ee
fff22
0001d
002ed
0010f
ffc8d
001bc
fff7c
00010
00291
00184
ffc80
00355
fff9c
000a5
003b6
fff9f
ffe6c
fff8d
ffd6a
00042
003a7
001a5
fffa3
0011a
ffe37
00150
0029a
001b4
000ce
00294
fff25
00011
fff61
fff67
fffe7
00042
fff2e
fff0f
ffecb
fff99
00033
ffeda
ffeba
00019
ffd70
00143
fff73
ffecb
00021
0006c
ffd98
00073
fffcf
00117
00105
000df
ffe62
fff86
002a3
000ac
001ea
ffec0
fff39
ffddf
fffd4
fff71
0013a
0001d
002ce
ffbe9
ffcc8
ffee8
000a5
00111
00443
ffd4d
ffaab
000ab
ffe3a
001bf
00425
ffd5c
ffc12
00212
ffeae
000f8
00575
ffe7c
ffcaf
fff8e
ffe4b
00164
00373
0026f
ffffa
001ad
ffe56
00103
00149
00452
ffeb1
00399
fff47
00061
00029
fff94
ffed0
00020
fffd0
fff6f
fff50
ffff7
fff58
fffac
ffefe
fff9e
ffeb0
00056
000fd
00019
0002d
ffeed
ffd45
ffecd
0015c
ffe7f
00223
fff9f
fff73
ffe1a
00202
00088
0009b
000c9
0005b
ffc89
001ff
00223
000b5
ffff7
000fc
ffb8b
fff12
001a7
fffa1
00001
0029a
ffb3a
ffd64
00087
000fd
001e7
00332
ffb31
ffdac
00000
0008b
0018b
0037b
ffc31
ffd50
001b2
ffe81
001dc
002c4
ffeeb
fff08
fffc0
ffe27
0010d
00346
0034a
fff44
00061
0000d
fffb9
00040
fffe1
0008c
ffe61
00122
00016
fffd0
ffea3
0011d
ffe19
0006b
fff97
fffcf
0005d
fffc0
ffe66
00016
00126
fff49
ffe6b
000e5
fff8e
001ae
00048
ffec8
fffb6
fff7f
00129
00185
00123
00195
ffcf1
00071
002fa
000e8
0002a
0020c
ffc97
ffef5
001a4
00177
00061
003c8
ffb4d
0003c
0000f
0000b
fff2d
0038d
ffc2a
ffec9
00162
00180
fffc0
0020e
ffbcf
ffe03
000d1
fffd4
00059
0039f
ffe05
ffe8d
0009d
ffe87
fff61
00149
00053
fff99
ffeb0
00005
fffa1
fff7b
fffb7
0006a
00071
000dd
fffaa
001a3
ffe0e
fffd4
fff63
00012
0008c
0027a
ffdde
fff27
fff3d
00019
fff41
000b0
ffea1
ffe8d
fff85
001ce
0020c
00094
ffeb8
000e0
fffe7
0027c
fff7e
001e4
ffe71
0008a
001dd
000bb
0001c
000b2
ffcb0
000fb
fff59
001e6
00057
0017f
ffe12
00083
fff02
0007f
ffeee
00019
ffd44
0003c
fff9e
001f6
fff19
fff5a
ffd0e
00081
00162
000c2
fffe6
000f5
ffd7f
0001c
0011b
fffe5
fff32
ffed6
ffeb8
fffb6
0007a
000f4
ffff1
00121
fff5b
000ca
fff77
00072
fff17
0007f
ffe99
000a7
ffff0
0012e
ffef7
0031e
ffcab
fff2b
00000
000a4
fff50
0035d
ffdc7
ffebb
fffd5
00210
00045
0015f
ffeef
ffd37
00115
fff80
0012a
0017b
fff2a
ffecf
00156
fff7f
00037
fffe3
fff54
ffff6
000ce
fffb1
000c4
000e9
00042
ffffc
00008
ffffe
fff5e
ffff4
ffed7
0005a
0010b
fff31
ffedd
ffdcd
00020
0006c
fffcc
000c2
ffed3
fffc9
00007
0018e
fff2c
fff9c
0003f
00100
fff7d
00105
0017d
fff5b
ffeff
000f1
fff97
fff31
00118
fffab
fff36
0003b
ffee9
00098
0019c
000df
0002e
00341
ffd93
ffee6
00152
0021d
00097
0035c
ffc7e
ffdbf
001ca
ffef1
000a6
0023c
ffee1
ffe35
000b2
fff8c
000d4
0014f
ffea3
ffec2
0014e
fffe0
ffeb7
000bd
ffffd
fffc2
0001e
00099
fffee
000a1
0018e
00047
000df
fff81
ffed8
ffe53
fff08
001a5
ffe77
00068
fff47
fffa0
fffa9
001df
000de
0005c
000fb
0004c
00026
00143
fffad
00111
ffec7
000bd
fff59
ffefa
00103
000f6
00109
00184
000ca
fff7a
fff1c
fffa7
fff5c
00160
ffec5
ffe51
0008b
0007a
0012e
00249
ffeab
000c7
00018
000d4
00081
0043d
ffec1
0006d
0011a
fff7d
fff76
001fb
00059
fff25
001a5
ffe76
0007e
00227
0013e
ffe4b
00260
ffdfe
fff64
fff28
00002
fff66
000dc
fff10
00077
000cc
0022a
fff2a
fff7d
fffe2
00088
ffed0
0009f
fff9d
fff45
fff31
fffa4
ffe4b
ffff5
00154
fff0d
fffb0
fff15
fffb1
0015c
00006
00183
0012e
ffee7
fff86
000dc
0007f
0001d
fff14
000cd
00146
fff5f
0009e
ffef1
000f0
fffd9
00058
ffee8
000b9
00056
fff98
00017
001d7
0000f
fff1e
0013a
00052
fff71
0019f
fff40
fff15
001c5
0005f
00123
001a3
000f0
ffe43
000b9
ffe0b
0005e
00156
fffee
fff6a
00187
fff8a
00014
0008b
000e1
ffef3
00104
ffedd
ffffb
0008a
0004b
0013c
00212
fff02
fff27
00082
00127
fffa5
00037
fff9a
fff32
fffd0
0020b
00059
fff68
000a2
0011e
0009a
000e2
000b4
fffc3
0014c
fff0d
000f7
ffff0
fffb4
fffad
fffef
000a6
000bf
fffdf
fff06
ffff2
000fb
ffefa
fff72
fff56
fffeb
000b5
000ad
fff5c
000a7
ffedb
0019a
fffa3
0010d
fffe2
ffff0
000dc
00104
00052
fff34
000a0
00012
ffffd
0005c
0024b
000ac
0024b
0013b
0000b
000d6
000e2
ffecf
00235
fffc8
0014a
000b4
000e8
fff27
fffd2
ffe7f
fffaa
fff57
0014f
000e2
00073
ffff8
fff64
000d2
fffd9
fff7a
fff89
00000
00072
0014a
fff9b
0004f
00003
000a0
00111
00006
fffca
fff78
000ee
00042
fff5f
fff1a
00076
ffec7
000e1
000d3
000fe
00091
fff04
00087
00079
00066
fffd2
fff70
fff7c
fff28
00005
ffe96
0000b
00166
000e0
ffffa
000ca
000f1
000d5
0012a
00159
fff15
fff9a
000a0
0010a
0013e
000ba
000cf
fff24
ffff3
001f1
000f5
ffe4b
00100
00025
fff91
00052
00000
ffe0b
fff96
000f7
fff6d
ffff2
00030
00047
0000f
00117
00059
00022
00192
00011
0002c
0011c
0009d
000e4
000f5
00170
000ca
0013f
000c0
0006c
00025
00127
00169
0001f
000d0
ffff6
00120
00057
fff51
fff18
ffffd
fff36
fff9f
fffd3
fff5a
fff1d
ffee0
001ba
fffb9
fff1c
000b2
00016
fff60
001c5
00169
0000b
fff60
fffb4
ffe79
001b3
00085
ffe31
fffcc
ffecf
ffea2
0021c
000f1
ffd46
00026
ffdfd
00053
0014f
00215
ffe73
ffdee
fff1f
ffee4
0021b
00191
ffe50
ffdd9
fff3c
fffc2
000a3
fff3c
ffe61
fffe9
ffee3
fff41
00188
000e1
ffead
ffe05
fff43
00134
0007b
ffff0
ffecf
00042
ffee3
00013
0010f
00089
00071
00037
00110
fffb7
fffa6
ffea5
fffb2
fff1e
00064
fffee
00027
fffb7
0014c
00101
fffee
00109
fff1c
0002a
ffee3
000aa
ffff5
fffdf
00107
000f6
ffef7
fff1b
00015
fff7c
00019
00197
00047
ffe53
fff42
ffdb3
000a3
0019d
fff3d
ffe45
ffd91
ffd78
00042
0017a
ffe62
ffde6
ffead
ffeb1
0005b
00078
ffc3d
ffcfb
ffdec
00002
00026
ffee3
ffde9
ffd3f
ffe64
0019a
fff83
fffc1
ffe60
fff19
0004e
0018f
ffed9
fff3f
fff5b
ffe2c
fff9c
ffee7
fff0f
00072
ffff8
0003f
00095
00006
ffff9
fff2c
fff09
0004f
fff59
00106
ffef9
00011
00045
fff01
fffa2
fff36
0006b
00134
0007b
fff60
fffa6
fff0f
000b2
000d7
fff51
fffef
fffb1
fffd3
0017f
00119
ffea7
0001b
ffe13
fff5f
fff83
00117
fff43
fff8c
ffda8
ffef4
00145
fffe3
ffd19
ffec4
ffd9d
00050
fff33
fff28
ffd55
ffe66
fff57
00302
ffea3
ffda6
ffcf3
ffdc6
fffae
00330
ffe9d
ffcf0
ffe65
fff81
0014a
0025d
00043
ffec5
fff38
fffd2
000f7
00274
ffea9
ffe77
fff4b
00038
0004a
00040
00064
00074
fff33
ffecc
fff23
fff16
0011b
00032
ffed4
fff23
0002f
ffe63
00183
fff7e
fffa2
fff9d
fff85
ffebc
0012a
000be
001c8
000ea
fffa6
fffc0
00135
0015b
fff66
fff7d
ffee7
fff38
0014f
000ad
0009e
fff6a
ffd61
ffd97
0001e
fff46
ffeb5
fffaf
ffe9a
0000a
fff21
000b0
ffe20
fff27
ffecd
00256
ffede
ffe22
fff81
ffe34
0007d
00209
fffd2
ffdd9
fff56
fffa9
00231
002ee
ffdd6
ffde2
00213
0008a
001d0
0017f
ffed7
0006b
002e5
001bd
000e9
fff92
00057
ffee4
0006a
00074
fff07
0004a
000a6
fff55
fff08
ffe8c
00136
fffa6
00060
00189
fff5e
000a5
00057
fff39
00348
002c4
fff60
00065
00024
ffdfa
00292
001a5
00195
fff66
00067
ffd28
0027f
000af
ffffa
fffda
ffec7
fff9a
fff60
fff7b
fffec
ffedd
00125
fffef
ffea2
000cf
001bb
00056
0000b
00135
ffea3
ffea3
001ed
fffcf
000dc
001a1
ffe25
ffdec
fffa2
0005d
000dd
0002f
ffff0
0005f
0010f
00130
001b4
0004b
fffb7
0016a
00341
00055
00070
ffdba
fff0b
000f3
00122
ffe9e
000a2
fff7d
0003f
00155
fff6b
fffd5
0017c
ffe78
001fa
00190
00176
fffb2
0003a
fff09
0021f
00079
001a2
ffffb
000ad
ffcc4
0005d
001f3
000ab
ffec9
fff8c
ffe16
002e8
000d4
000e1
000c6
ffe97
ffdd6
001a1
fffbf
00071
fff56
fffb1
00148
fff32
0017d
000fe
fffb6
00094
000aa
00081
fffb6
000cf
ffefc
00070
fff08
fffcd
fff36
000a3
00057
00149
ffdcf
0005a
001a9
00170
fffe4
fff98
fff01
00252
00153
0005a
000ee
0000b
fff78
000ab
fff14
fffae
00008
fffed
ffecd
fff46
000d4
ffee8
ffeb1
fff4e
fffbf
00083
00040
00063
fff5b
00061
ffec2
00115
00114
fffac
fffd2
fffd5
ffc0d
002b9
00161
001aa
00025
00084
ffc64
001fe
002f2
00050
000a1
000f0
fff24
001b8
000db
ffffd
0003a
ffea7
000ad
00097
000af
000c2
000dc
0012a
ffedd
00040
0005f
001ea
00014
fff29
00045
fffdc
0007b
00190
00030
00002
fff27
0005f
000b2
00077
ffffb
fff5c
ffea9
000fb
0008b
fffc7
00085
fff87
00008
fff17
00091
ffed5
0012b
000f2
fff02
ffeb7
000f1
000a5
000d6
ffee0
0005d
001ba
00158
ffe25
ffeb2
0007c
ffe08
0010f
fff85
ffdd0
001ed
fff9c
ffd07
00032
001f6
fffa8
00194
fff6a
ffd07
00052
00188
00019
001a4
0016c
fff13
fff63
00165
00105
0003c
fffb5
fff58
ffe42
000c1
0017c
00101
001d0
0009b
0016e
fff34
0018e
fff7b
fff8f
00162
fff4d
fff31
fffc3
00091
00061
fff80
0007b
fff75
ffeef
0003c
00015
00015
fff5d
fff7f
00015
0010d
000fd
fff70
ffedc
0002d
fff51
fff8f
ffeae
fff4b
ffec0
000dc
fff4b
0007d
ffe8d
000ce
ffeca
0000b
fff06
ffec6
fffa0
fffea
fff22
00159
fffe0
00214
0005a
fffdc
00112
fff6d
fff30
002c1
00176
ffe20
001b0
00105
fffe0
0008e
00224
fff53
fffac
ffe7d
00124
00088
000c9
00122
fff62
ffdea
001fc
00072
00044
000f3
fffc4
00069
000b3
fff5c
000ca
fffeb
00097
00094
fffdb
fff8b
fff8f
fff39
000e7
0001b
0007a
ffeae
fff25
0005c
fff6b
ffff6
fff7a
0004d
00038
00086
00138
ffed9
fffec
ffed6
ffefa
000ab
000db
0011e
fff6a
ffed8
0004e
fffe7
00015
ffee3
ffe7e
fff1c
00078
ffeca
0000a
00105
ffe9d
fff06
fffaf
0004e
fff3f
fffdc
ffd9e
000bd
00008
000f0
00044
fffd7
fff40
00086
000ba
0005e
ffeb2
0001b
fff20
fff41
000cd
00155
fffc5
ffe14
001a7
000ef
fffcd
000f6
00051
fff63
00011
fff32
fffec
000da
000ea
ffe9c
fff80
fff9d
fff5b
fff74
001ab
00054
fff65
000a3
ffeec
0007f
fffe9
fffcb
0004f
000fd
fff39
00128
fffff
000d9
fffb1
fffd0
00020
00018
fff33
0003a
000d9
00098
fffe8
fff69
fff1d
fff63
fffb2
fff36
ffefb
fff0f
fffa7
00022
0003a
fff2a
ffef5
fffa5
fffd0
ffef2
ffe7b
fff04
fff12
ffef0
fff76
ffe6a
00027
00035
ffe09
fff74
fffea
000cb
ffefb
fff1e
00085
000ca
fff8f
0008a
00046
fff63
ffeaf
0010c
000ad
ffffc
ffeb8
fff16
0008b
000b9
00062
00042
fffa4
ffef9
0009b
000a3
00000
ffede
ffeb7
ffecf
fffca
fff2f
000f5
fff80
fffb4
0012b
000c9
00009
0003d
fff9b
0009a
fff45
00089
00050
ffff5
fff86
000ba
00051
0011d
fff47
fff27
fffb7
0009a
fff3e
ffeb9
fff47
ffefc
fff30
000db
00126
ffef5
00065
fff62
fffff
fff09
0008b
0009d
000f6
fff8b
ffe78
fff20
ffed7
0003d
fffc3
ffe91
ffe6f
fff31
ffef1
00093
fff7d
ffefc
000d3
fff98
000b6
ffeae
fffe8
ffeff
fffce
fff79
ffe5f
00116
fff1c
00030
ffebe
ffd2c
fff7e
000c7
fffd4
000b9
ffedc
fffcd
00120
fff7c
00088
00121
fffe2
fff4b
000c0
00000
fff39
00149
000fa
ffea8
fff47
00113
fffa5
fff46
00043
fff83
00028
00010
fff0f
00054
fffb9
0007a
fffc5
000d0
000dc
00063
0000f
00147
00119
fff2c
ffee9
fff1f
001a9
00088
fff18
00032
0014b
fffeb
fff47
00101
00016
0005c
fff07
000a0
ffe03
0009e
00153
ffec2
fff33
000e3
ffd81
fff65
001d4
ffe11
00141
fff33
ffe87
0014b
0009b
0008a
00089
0000d
00013
00117
ffe87
fff0a
00105
fffd9
0003f
fff55
ffeba
fff7b
0005a
000a9
000a2
000bd
ffed3
ffff0
00016
ffebf
fff11
ffe8b
00059
00044
00031
fff22
000e1
fffbd
0015e
fff27
00059
fffb7
00010
000b1
000de
fffad
000b0
fffd6
fffcb
0016d
00114
000f1
001e4
ffee3
fffb5
00260
0028e
00178
002ce
ffff3
ffebe
00051
001e7
fffc6
0011d
00087
ffee7
001d1
0001b
0013a
00107
ffe85
fff41
00005
ffec4
fff29
000d7
000a6
00068
001b5
000c6
000ae
ffefe
ffeaf
fff57
fffb4
00010
ffed3
fff0a
fff28
0009c
00086
00136
fff3e
fffc2
ffff9
0015f
000bc
fff91
00021
fff0b
000f6
00005
0004c
fff67
00139
ffee8
00151
00018
00203
ffffb
fff36
00006
00023
fff48
00108
0020f
fff0a
0022c
ffe10
ffea3
ffff9
002b0
000a0
000b8
fff0e
fff32
000ac
00381
00193
002f6
0002c
ffe6c
002c3
001c9
fff66
0025d
fffc6
ffe63
00328
ffff3
00124
0031b
00069
00100
001b5
0004d
00066
002aa
0006f
00058
00236
00040
00122
000bd
001cf
00037
001bb
0008a
fffee
fff91
00238
00189
0023e
fff4e
fff7b
fffd7
00085
fffc6
0016d
0004c
00030
fff9c
fff61
000ea
fff84
0006a
fff9d
fffcd
000aa
fffa0
0004a
000bf
00094
00057
ffe57
ffd48
001e4
00124
fffef
0009b
ffe8f
ffd7d
fff88
000b5
fff24
00124
fff00
ffc66
0018e
fff88
00046
001b1
fff59
fff11
00178
fff6f
fffb2
001f5
0002b
001e1
0003f
ffe6d
00070
001e9
00107
0014a
ffe74
ffff1
fff35
fffad
000e9
001be
0008b
fff29
000c2
000be
000b5
fff53
000c2
fff08
fffb9
ffe7d
0011d
000b7
ffffe
0007c
00108
fffaf
fff8c
00003
00087
00038
fffd6
fff05
ffedc
00033
ffef0
0001d
00126
fff34
fff80
00035
001aa
fff81
0001c
fffd0
ffeb9
fff87
00069
fff7c
fff77
000a4
ffe97
ffe2c
00030
ffe4a
fff3a
001da
00029
ffede
fffe3
ffcbe
ffeae
00286
0003c
ffe44
fff2f
ffd71
ffee2
fff0a
fffb4
00254
ffda4
ffce7
ffeb7
000f7
001e4
00284
ffc25
00182
fffdf
fff3b
00131
00019
fffe6
fff35
0013f
fffb8
00046
000a0
00040
00047
0004d
00108
0004e
000dd
000dd
fff8f
0003d
fff6f
0005b
00025
00121
fff5b
ffe47
fff54
000e9
0008c
fffea
fffe5
0001b
000ce
000fa
fff89
fff8c
ffeff
00083
fff98
00011
00099
ffe9c
ffd42
000f2
001a5
fffe8
fff79
0007a
ffcfc
0009d
0040a
00277
00216
ffef6
ffedf
fff2e
0029a
fff9b
00205
ffd88
fff5e
ffcaf
fff7b
00006
00084
ffce4
ffe0f
fff0e
ffd5c
0010b
00000
ffe06
fffc5
fff2c
00069
00147
0000b
00069
fff99
00098
0012e
fff8f
00195
00355
0006a
00145
0009c
fff39
fff0f
00210
fffe2
000fd
ffec5
fffca
fffeb
00149
00030
ffef1
ffefe
ffec4
00164
fff78
00129
000dd
00048
fffa4
000e4
000fc
0003a
fff6c
ffff3
00084
0008b
fff51
ffed9
001a4
0019a
001d5
0020b
000a9
fff51
00160
002b0
0030a
00169
fff04
ffee7
0000c
00174
00208
002aa
ffe10
ffecb
fff67
ffdbe
0011a
000e8
ffecc
00005
00032
ffdb7
00099
001c9
fff75
fff8d
fff76
0017e
00025
000a5
0005f
00074
0015b
0007b
00002
001be
001b3
0007e
fffb7
001a3
fffdc
00077
00005
000d3
fff6b
00162
ffeba
ffef6
00009
fff27
fff0c
fffa3
fff7e
fff81
fffa5
fff85
fff2b
00088
00065
0002f
00096
00083
00102
0008c
fff91
0010c
ffe3e
fffab
fff65
00041
00025
001b9
ffe52
ffec2
00017
0017f
001ba
001d1
ffe18
fffb1
00014
ffe26
0000c
001e5
ffe2b
fff11
fffb4
ffdac
00054
001df
ffe80
ffeac
fff65
fff2b
fff87
00091
fff48
fff1c
00111
fff82
00018
0009c
ffe9b
fffc5
fffa7
000f8
00129
fffbb
00034
0001d
fff62
00133
fffae
fff87
ffec8
ffef8
0009a
fff16
fff2f
000c7
ffe8a
00074
00049
fff3b
00099
fff42
ffe88
fff84
fffb8
00021
fff37
00050
000f2
0009e
fff6e
00154
000a1
fffab
fffb9
00081
ffeb5
fff39
0000f
000f5
00070
fffb3
fff4e
00071
0014a
00036
ffff1
ffd8d
ffe3d
ffd56
0006c
00181
ffdb6
ffe44
0005f
ffea5
0007c
0019e
ffc69
ffea0
0000b
ffe6b
fffc7
00104
fff15
00035
fff23
fffd3
fff48
00180
ffee6
00018
ffe60
fffa7
ffedc
00109
ffcda
fffdb
ffec8
00195
ffece
0009b
ffc7d
00012
fffb1
00034
fffd4
0011a
fff86
ffea4
00009
00050
0001d
fffc7
ffe2b
ffff9
0007e
00068
ffea9
fffcb
0005f
0001e
00110
fffb5
00135
fffcf
0005f
0008d
00033
fff4a
001b2
0005b
00077
00074
00007
ffe39
000a2
000e6
00092
fffaa
fff9a
ffe11
00118
001dc
ffc1d
0008f
ffd69
ffe58
0005a
002cd
ffe1b
000c7
fff5b
fff5b
fff53
00259
ffcee
fffdd
fff16
fff23
ffff9
0018e
fff11
ffee8
ffdfd
ffea1
ffe23
fff59
ffeca
0001b
fffb1
0000d
ffe4d
00068
ffe9c
ffe9b
ffeff
ffee2
ffe1c
000a8
ffdb1
fffdc
000f1
0005e
fff6f
fff95
fffb1
ffeed
000bd
000d7
0012f
0011e
ffeef
ffffa
fffd2
00035
00048
fffc8
00150
000e3
fffd0
fff07
001e5
00005
000f1
00140
ffebc
00064
00168
00210
000ff
00119
fffe2
ffe5a
00221
000b6
fff19
00150
ffe5d
ffff6
00033
00295
fffbb
001ec
fff82
fff2f
00108
00143
000c1
000b3
0004e
ffefd
0016a
00200
fffdd
00029
ffff5
ffffa
fff55
00169
00044
00054
0009a
fffe8
fff07
fff6e
fffcf
ffefd
fff33
fff45
ffe78
fff3a
fffb0
000d7
000d5
fffa7
fffd1
0016e
fff34
00131
0006e
0005c
fffc6
00105
00125
fff6a
00131
0007d
fff94
ffed3
00091
000d0
0004c
ffe6a
000a1
fff95
00134
fff87
00038
000a9
00159
fff11
fffed
fff6d
ffed1
ffff5
000ce
ffecf
0010e
ffea3
ffeed
00058
00077
fff59
fffa9
00109
00137
000d6
ffeb8
0008f
000dd
fffad
fff39
00041
000bf
fffd3
00057
fffbb
ffef8
fffad
fff74
fffad
fff71
fff3a
ffeca
00080
00022
00035
00161
fff06
0005a
ffea4
000d8
00031
00061
0005b
000a8
fffa8
00047
fffc4
ffec1
fffb6
00091
ffff2
00031
ffeef
ffeb8
000bd
000a1
fff78
ffeba
fff2a
00010
ffe92
00075
fff89
00039
fff5b
fff9a
fff1c
ffece
00074
000d7
ffe9d
00085
0004a
ffec5
fffb1
fffa9
ffffc
fffa1
00110
00035
00089
ffea8
0002c
000ba
00080
000ff
ffefa
ffefb
fffa4
fff82
00139
00146
ffe6a
fff62
fff3a
000c2
00120
00159
00002
000aa
0009d
00119
fff16
000d7
fffee
0000e
ffefa
000ae
001bc
001f4
fff32
00045
ffea7
00167
fffec
000c4
fff4a
00113
ffed7
fff9a
fff50
ffea1
000e2
0003d
fffe8
fff1a
0009b
0002c
fff1d
000ad
000a1
fffb4
0004a
00020
ffe8a
00014
fffee
00160
ffe57
00116
fff2c
000a9
000a4
fffd1
fffc4
00173
00068
0008f
000ae
fffc1
ffe59
0018f
00075
0005a
ffefc
ffffa
0006b
00191
fff8a
000eb
ffeef
ffecc
0011f
0026b
ffff5
000c0
ffe3e
fff39
000e2
001a1
000c7
ffffe
000ce
00139
001c8
00132
0003c
ffe80
0000c
fff99
fff94
0008c
00035
00088
00043
fffbe
ffee9
fffe4
0004a
00132
fff14
001e5
000c5
fff05
fffc9
00154
00060
00175
00012
000c2
fff98
001b4
0003b
0000a
000c1
000df
fff1e
00170
000d1
fffe5
000b0
0004a
fffb1
0019d
000a5
00089
0022c
00041
ffea2
0008b
0012e
00178
0003f
002db
00058
fff8b
ffdf0
ffedf
001da
00166
fff30
fff6d
ffdc1
000db
0013a
001c7
fff53
fff6a
ffed4
fff77
0025d
00152
00178
fffab
fff3e
0012b
0005a
00239
00047
fff36
00235
001cf
fff64
00081
fff59
0015a
0005e
fffb0
fff9a
00077
ffec6
00054
fff5e
00120
00132
ffeea
00016
fff48
0006b
fffe3
000be
fff1b
ffe5a
001c3
ffefe
fff7f
0015a
ffff5
ffdf5
fff8d
000fd
0006a
002a7
0018b
ffe4a
0009b
00014
fffae
0036f
000ab
ffe6f
ffe49
000b5
fffb9
00303
00245
ffffd
ffde3
fff2f
000f4
0034b
00131
00088
fff45
ffd00
00086
001dc
000e0
000bf
000f7
fff65
00058
000e9
00032
000f2
002ca
00125
000ac
fffc4
0002f
0014d
0013c
fff96
fffb6
ffff5
0008e
00145
00281
000ab
fff93
00128
fffc0
00069
fffb6
000bf
000cf
fffd8
00148
000bf
000d5
ffeb8
fff38
fff9f
00054
00004
fffd4
ffec3
0007c
0001e
00110
ffed1
ffdea
fff35
fff56
0018f
fffd3
ffe46
ffdc7
fff68
001e6
003c2
000cf
ffe75
ffe8c
00123
fff3a
00208
00359
ffec7
ffd7e
fffd2
fff47
000f3
00282
fff2f
fff45
fff4f
00116
0009a
000a3
fff5c
fff01
fff33
00098
0005f
0011b
000cd
00146
ffd81
fff8c
fff77
00058
000a3
0016d
fff9e
00072
ffe8e
000fe
00038
001da
ffefa
fffbd
fff6d
fffb8
fffdd
000a0
fff70
fff72
00035
00037
00016
fff50
000df
fff9d
00047
0004a
fff15
ffeb3
00083
fff8b
0008a
fff0f
0001b
ffff4
ffef7
00290
fffa7
fffb5
fff20
fffa0
ffecb
00047
00021
00170
00011
ffd68
fff4a
fff4e
00208
00168
fff7d
00016
00085
000bc
0001e
001b7
00078
fffb1
ffe45
000d5
00096
00186
fff4a
ffe99
ffed2
00048
000c2
0017a
0018a
fffbe
ffdb5
00051
fff24
00140
001f1
ffe27
ffef1
0007d
fffb9
fff86
0000b
fff0e
ffeb2
ffe43
ffe9d
000b7
fffa8
ffed5
fffed
0005b
ffee2
00008
fffad
fffbd
ffff6
0001a
fff7e
ffed5
000c5
000a4
0006f
fffe3
ffed7
0013c
000a0
001c9
001ad
00066
ffd37
fff9b
00072
0026b
00125
fffac
fff0d
0013e
ffe9f
00335
002d6
00069
0018a
000c8
fff17
000a7
fff50
ffe3d
00242
fff0a
fff07
ffe12
fff3c
0004d
002f1
00070
00155
ffde1
00045
00197
001dd
0018b
00221
ffd74
fff49
001d1
fff8d
00101
000cb
ffe9d
00077
000bc
000be
fffd0
0009c
fff8a
ffef4
00009
00004
fff2a
ffe6b
0000d
00010
ffff9
00125
000b8
fff17
ffea2
fffbd
000fc
fff52
fff18
fffa0
001ee
00149
000fe
ffe4e
000ba
ffd5a
0033b
0000f
00061
00050
0009b
ffdd2
00403
00177
ffdbe
000bc
000c9
ffc3a
00238
00346
ffc6a
00104
00091
ffdfc
00049
00121
ffd0c
00170
0007d
ffe89
fffbc
fffe6
fff5d
001d2
001bd
fffe0
ffebd
fffef
0012c
0029c
0008a
000a6
fff0e
fff8c
0002a
fffa5
fff50
ffeb8
fff55
00133
000c7
00124
0001d
ffff3
00119
00036
fffcb
00199
00054
ffe66
ffef4
ffee5
fff52
fffaa
0002a
fff0b
000f3
fff7d
00040
fff82
fff92
fffc6
0012f
00126
000c0
0001c
0004b
ffe38
000a4
fffa4
fffc7
000a7
ffecf
ffbc4
0016d
000d0
ffe48
00187
00147
ffd88
fff3b
fffa5
ffee8
00140
001c9
ffd86
fff85
fff5a
fff39
001d8
00265
ffe4b
fff22
fffc9
0007e
00165
000be
fffb5
00031
fffab
fff0f
fffc6
ffff8
ffeb0
0001a
fff99
ffe36
0005f
fff3f
fff55
000f7
00057
ffeca
00068
00067
fff1d
00031
fff0d
ffef3
000e5
000fd
fff79
00014
fff75
000fb
00129
00076
000b9
ffee9
00059
ffffa
ffec2
0006f
00070
000ee
ffe61
ffe9b
000da
00099
fff48
00018
000d1
fff41
0012d
00112
ffeb8
ffd48
00043
fff59
00211
001a4
00024
fff29
fff7b
000e9
000ce
0023d
0018a
fff38
ffd80
000a5
fffc1
00176
00042
00107
ffe41
000f4
fff85
00164
0013b
0005e
ffe91
00004
ffef5
ffe5a
ffe8e
001d3
fff10
fffdb
fff02
fff83
00033
000c4
00031
000ce
ffef8
fffa3
0007b
ffefe
ffe61
0007b
00052
0012e
000d3
ffff4
fff16
0009a
00032
00082
ffe6e
fff6a
0003b
fff03
00011
ffe00
ffe43
fff93
00056
fff09
fff5d
ffec6
fff2a
ffe98
000dd
ffdbf
fffe3
fff7e
ffff6
ffdc9
ffeb8
0007f
00069
0014a
00136
ffd79
fffaa
0018a
fff12
00023
00154
fffbe
fff67
00018
00011
fffb8
000f9
00105
fff7b
001b5
fff11
000cd
00009
00120
fff01
00063
00014
fff73
00080
00174
fff35
0008b
00128
000e2
000f6
0008c
00061
fffc6
fffc4
0005a
ffffa
fffb4
fffcf
fff67
fffb3
fff95
ffebd
0005d
0001b
00078
fff21
00024
fffe4
00034
00016
fff6f
fff84
fff75
ffeba
ffee3
00091
ffea3
000f6
fffbd
000d5
fffb8
fffb1
ffe76
0009e
fffa7
ffeb7
0004b
00060
fffee
fff98
00084
ffec2
000a7
ffff3
000db
0008d
ffeb6
0012b
0001d
ffea7
0007b
fffa9
00086
ffeb3
fff1d
ffff9
00026
fff9a
fff01
fff88
000de
fff39
ffeee
fffe1
ffff6
fff7b
ffef1
00026
fff58
fffb4
fff0c
fffd5
fffaa
fffa9
ffe29
00094
fff3c
ffec8
ffff1
000c6
ffe17
fff50
fff81
0010c
fffd3
fffdb
ffef8
000a6
000bc
00103
fff46
ffecc
fff67
fff95
fff2b
fff4e
fff16
ffea0
0005f
00106
ffec6
00130
0009f
fff69
fff07
fffcf
00084
ffecc
fffe8
ffe55
00091
fff36
ffe39
000c8
000a7
ffede
fffb2
fff5d
00085
00012
ffed6
ffdc6
0016f
fffe3
000d3
fffd0
ffd58
fffc9
000e2
00049
fffa5
00188
ffee6
00046
000ad
0000a
fffc4
00094
fff7b
ffffb
00063
fff2c
0008d
fff3f
00102
fffe5
001d3
0012f
00080
0010f
000c7
000d5
00019
fff33
ffec0
000a4
fff6d
fffba
fff44
0000b
fff1c
fff41
00053
ffeaf
fff3d
fffdf
ffe47
ffea2
000ac
fff84
fffd2
fff55
fff12
000b7
0000c
0005f
fff2d
ffd5e
fffd0
fff69
0009d
ffedf
fffd7
ffee5
fffeb
fff55
fff5e
ffea5
000af
ffde5
00198
00263
fffa6
fff25
0020b
fff16
002a4
001d8
fff72
fff5a
0031c
001ce
00289
00107
fff20
ffecc
001eb
001ba
0015f
001be
ffed1
ffedf
0009a
00043
fffde
fffb1
fff15
ffeec
001c3
fffc6
ffff3
ffe7d
fff57
ffe5a
0003c
ffefa
ffebf
ffef9
fff22
000e6
0008c
000f3
ffee0
00112
0006e
00185
000ce
ffe4f
0002f
000c9
001d5
00019
00046
fff18
00091
00046
00203
00137
00053
ffec7
fff31
ffee3
00036
fff5d
000f8
ffcd3
0018e
00138
001e5
00054
00066
ffdae
00117
fffdb
00065
ffe7b
fffe1
ffeb4
00224
00266
000d3
ffdd3
00096
00136
000e9
00000
fff8c
fff5e
00066
fff45
000a5
00248
ffeb3
fff4d
00241
001e2
00166
00041
ffd81
ffecf
0003e
001c9
000d3
fffe3
fff37
000ea
0013c
fffdf
ffeba
ffeea
00084
fff10
fff44
fff53
00035
fff8e
00078
00194
000e4
fff48
0018e
ffebd
001c4
00109
fff6a
fffaa
fff25
fff5a
00268
00022
fff61
ffe80
000df
ffd64
00247
0036b
fff76
000c8
0012a
fff00
00198
000d2
fffec
0005e
000e3
fff96
001f6
ffec4
0004f
fff1c
000c5
ffdd6
00274
ffc5d
00183
0009d
001ec
fff91
fff68
fffac
003cf
fff82
00058
fffbc
ffee2
00137
00124
fffe1
00006
fff35
ffe27
fff4f
0002f
0008d
fff90
fff83
ffe5a
fff10
fff60
001cc
00079
fffcd
0002f
000d5
00080
ffeae
fffca
fff90
00087
000cb
fffab
fffab
fffeb
fff2d
00331
001a6
ffed4
000ee
fff8b
ffd8b
001e6
fffb0
fff4a
0016d
0005d
ffe0d
fffab
00122
ffecc
0024a
0011e
ffdc7
fff3f
0009d
ffff7
001b7
000a7
00093
ffdcf
ffec5
00125
ffea4
001f5
0008d
0029b
ffec2
003e0
ffe4d
00276
00084
001c1
ffea4
0021e
fff45
ffeab
ffed8
00210
00136
00054
fff53
0002b
ffceb
0027c
fffdc
ffeb7
00081
000a4
ffd7b
000e6
0003b
fff5d
fffe9
fffc2
fff0f
fff22
ffff6
00037
fffdc
00032
00015
00195
fff58
000b3
00001
0011e
00003
fff86
ffeca
00045
0029f
ffe30
ffce8
ffe9c
fffe3
ffd5c
003a1
fff77
ffe71
ffdd4
fffb6
fffc4
001b4
00120
000fc
ffb97
ffdf5
00101
0000d
00113
001b0
fff90
ffcf7
0031f
ffe00
000b9
00021
0012c
00010
0003c
fff35
fffe1
00015
000ad
000f5
0018e
fff2f
fff12
ffe2b
00154
00198
fffe6
fffd0
ffdff
ffe6d
002c1
00113
ffd1d
00170
ffdeb
fff2b
ffe5d
000fb
fff5a
00008
00003
ffeb4
ffe72
00010
ffea0
0003b
0007b
fff53
fffba
ffef7
ffe86
fff0b
0008b
fff01
fffd9
fff3c
fff8b
00035
fff2b
fffea
ffe2d
fff6f
fff47
0039e
ffeaa
000fb
ffc0c
fff16
00053
00277
001da
001dd
ffba0
ffd7d
00300
fffed
00068
00286
ffe8a
fff8b
001ed
ffe64
fff9b
0007b
002f1
0008f
ffd64
ffe3d
fff4b
fff6e
000f1
000ca
ffe32
fff5d
ffe71
ffdc6
00251
fff8e
ffed4
fffe2
fff3a
ffe21
00015
fff5d
ffdaf
fffcd
fff8b
fffb7
fff66
fff9b
fffde
fff64
ffed9
ffefa
fff94
fffcd
ffe16
fffff
00043
000b0
fff37
00057
ffe89
00033
fffed
ffe33
ffe23
ffec1
fff88
0018b
0000a
ffec5
ffec5
ffdb9
fff54
0020c
0006b
0019a
ffcfe
ffef4
00027
000e8
000f5
00287
ffc4f
ffe00
00132
fff5e
001c8
001e6
ffe51
fffc4
ffece
ffdc9
000c0
00066
fff2e
fff92
ffd7a
ffed1
0001c
fff67
0004a
fffdf
ffee2
fff38
ffe0a
ffe5c
0005a
fff01
ffd9d
0000c
ffdeb
ffd03
000f5
fff05
ffeb3
fffb7
fffd1
ffe8a
fffbf
000d0
fff39
ffff0
000d3
fff99
ffff3
fff17
000a9
0006e
fffdd
fffe7
ffec6
000f4
000fc
fffa2
ffe63
fff9a
ffeac
0000f
fff3d
00113
ffeb9
0011b
fff8a
000b2
0007b
fff8a
ffe77
00136
00010
fff14
fffe2
0009b
fff12
00243
fff97
000c7
000de
fff38
000bc
000f2
00059
000b0
00072
fff40
ffea7
00118
0003c
00103
ffed7
fff81
ffdad
00030
00009
00019
ffea4
fff50
ffde2
ffe09
00129
00152
ffe6b
000de
000e3
fff0e
fff27
000aa
fff71
00046
ffeda
fff8d
fff13
fff2c
00045
0010f
ffec9
fff7c
fff96
fff6d
fff3e
fffab
ffe98
fff08
fffc7
ffff1
000b1
fff40
00041
fff03
ffec7
0015f
fff96
ffff9
ffffa
000c6
00008
ffff6
0011a
fffa9
0009f
00152
fff31
000f6
fffe4
fffff
00095
000ab
0018a
000bc
ffecc
ffef7
00106
fff9b
00089
00047
fff44
00087
fffcd
fffcb
fffb8
00257
ffdc3
fffc4
fff8f
00069
fff76
fff8a
ffe75
fffb4
00007
ffe3d
ffe44
fffc9
0013e
fffeb
000de
fffc9
ffefc
000b0
00025
00146
00095
00051
fffcc
0001f
001ed
000f2
000c2
00071
fff26
000f1
000f2
fff67
fff3a
ffed1
000e9
fffaf
fff31
ffff8
00071
ffff7
00010
fffa9
fffe7
fffff
00141
00028
000cc
ffff4
00279
000bf
fffe2
0002c
002ae
00121
001c3
fff1d
00006
ffebd
000c3
0014a
fffce
00067
fffc8
00057
0012f
00273
0011e
00058
fff13
ffe1e
0010e
0018c
fffb3
00121
ffe76
00063
ffe9f
001d1
00212
00206
00023
fff56
00091
00105
001dd
001e1
fff76
ffe80
001f5
00047
0020e
fffdf
000ee
000e7
fff83
000a1
00010
fffa7
00159
0011d
fff0d
fffdb
00156
